{
  "version": "1.0",
  "truncation": null,
  "padding": null,
  "added_tokens": [
    {
      "id": 0,
      "content": "[MASK]",
      "single_word": false,
      "lstrip": false,
      "rstrip": false,
      "normalized": false,
      "special": true
    },
    {
      "id": 1,
      "content": "[PAD]",
      "single_word": false,
      "lstrip": false,
      "rstrip": false,
      "normalized": false,
      "special": true
    },
    {
      "id": 2,
      "content": "[UNK]",
      "single_word": false,
      "lstrip": false,
      "rstrip": false,
      "normalized": false,
      "special": true
    },
    {
      "id": 3,
      "content": "[CLS]",
      "single_word": false,
      "lstrip": false,
      "rstrip": false,
      "normalized": false,
      "special": true
    },
    {
      "id": 4,
      "content": "[SEP]",
      "single_word": false,
      "lstrip": false,
      "rstrip": false,
      "normalized": false,
      "special": true
    }
  ],
  "normalizer": {
    "type": "BertNormalizer",
    "clean_text": true,
    "handle_chinese_chars": true,
    "strip_accents": false,
    "lowercase": false
  },
  "pre_tokenizer": {
    "type": "BertPreTokenizer"
  },
  "post_processor": {
    "type": "TemplateProcessing",
    "single": [
      {
        "SpecialToken": {
          "id": "[CLS]",
          "type_id": 0
        }
      },
      {
        "Sequence": {
          "id": "A",
          "type_id": 0
        }
      },
      {
        "SpecialToken": {
          "id": "[SEP]",
          "type_id": 0
        }
      }
    ],
    "pair": [
      {
        "SpecialToken": {
          "id": "[CLS]",
          "type_id": 0
        }
      },
      {
        "Sequence": {
          "id": "A",
          "type_id": 0
        }
      },
      {
        "SpecialToken": {
          "id": "[SEP]",
          "type_id": 0
        }
      },
      {
        "Sequence": {
          "id": "B",
          "type_id": 1
        }
      },
      {
        "SpecialToken": {
          "id": "[SEP]",
          "type_id": 1
        }
      }
    ],
    "special_tokens": {
      "[CLS]": {
        "id": "[CLS]",
        "ids": [
          3
        ],
        "tokens": [
          "[CLS]"
        ]
      },
      "[SEP]": {
        "id": "[SEP]",
        "ids": [
          4
        ],
        "tokens": [
          "[SEP]"
        ]
      }
    }
  },
  "decoder": {
    "type": "WordPiece",
    "prefix": "##",
    "cleanup": true
  },
  "model": {
    "type": "WordPiece",
    "unk_token": "[UNK]",
    "continuing_subword_prefix": "##",
    "max_input_chars_per_word": 100,
    "vocab": {
      "[MASK]": 0,
      "[PAD]": 1,
      "[UNK]": 2,
      "[CLS]": 3,
      "[SEP]": 4,
      "!": 5,
      "\"": 6,
      "#": 7,
      "$": 8,
      "%": 9,
      "&": 10,
      "'": 11,
      "(": 12,
      ")": 13,
      "*": 14,
      "+": 15,
      ",": 16,
      "-": 17,
      ".": 18,
      "/": 19,
      "0": 20,
      "1": 21,
      "2": 22,
      "3": 23,
      "4": 24,
      "5": 25,
      "6": 26,
      "7": 27,
      "8": 28,
      "9": 29,
      ":": 30,
      ";": 31,
      "<": 32,
      "=": 33,
      ">": 34,
      "?": 35,
      "@": 36,
      "A": 37,
      "B": 38,
      "C": 39,
      "D": 40,
      "E": 41,
      "F": 42,
      "G": 43,
      "H": 44,
      "I": 45,
      "J": 46,
      "K": 47,
      "L": 48,
      "M": 49,
      "N": 50,
      "O": 51,
      "P": 52,
      "Q": 53,
      "R": 54,
      "S": 55,
      "T": 56,
      "U": 57,
      "V": 58,
      "W": 59,
      "X": 60,
      "Y": 61,
      "Z": 62,
      "[": 63,
      "\\": 64,
      "]": 65,
      "^": 66,
      "_": 67,
      "`": 68,
      "a": 69,
      "b": 70,
      "c": 71,
      "d": 72,
      "e": 73,
      "f": 74,
      "g": 75,
      "h": 76,
      "i": 77,
      "j": 78,
      "k": 79,
      "l": 80,
      "m": 81,
      "n": 82,
      "o": 83,
      "p": 84,
      "q": 85,
      "r": 86,
      "s": 87,
      "t": 88,
      "u": 89,
      "v": 90,
      "w": 91,
      "x": 92,
      "y": 93,
      "z": 94,
      "{": 95,
      "|": 96,
      "}": 97,
      "~": 98,
      "¡": 99,
      "¢": 100,
      "£": 101,
      "¤": 102,
      "¥": 103,
      "¦": 104,
      "§": 105,
      "¨": 106,
      "©": 107,
      "ª": 108,
      "«": 109,
      "®": 110,
      "°": 111,
      "±": 112,
      "²": 113,
      "³": 114,
      "´": 115,
      "¶": 116,
      "·": 117,
      "¸": 118,
      "¹": 119,
      "º": 120,
      "»": 121,
      "¼": 122,
      "½": 123,
      "¾": 124,
      "¿": 125,
      "À": 126,
      "Á": 127,
      "Â": 128,
      "Ã": 129,
      "Ä": 130,
      "Å": 131,
      "Æ": 132,
      "Ç": 133,
      "È": 134,
      "É": 135,
      "Ê": 136,
      "Ì": 137,
      "Í": 138,
      "Î": 139,
      "Ï": 140,
      "Ñ": 141,
      "Ò": 142,
      "Ó": 143,
      "Ô": 144,
      "Õ": 145,
      "Ö": 146,
      "×": 147,
      "Ø": 148,
      "Ù": 149,
      "Ú": 150,
      "Û": 151,
      "Ü": 152,
      "Ý": 153,
      "ß": 154,
      "à": 155,
      "á": 156,
      "â": 157,
      "ã": 158,
      "ä": 159,
      "å": 160,
      "æ": 161,
      "ç": 162,
      "è": 163,
      "é": 164,
      "ê": 165,
      "ë": 166,
      "ì": 167,
      "í": 168,
      "î": 169,
      "ï": 170,
      "ñ": 171,
      "ò": 172,
      "ó": 173,
      "ô": 174,
      "õ": 175,
      "ö": 176,
      "ø": 177,
      "ù": 178,
      "ú": 179,
      "û": 180,
      "ü": 181,
      "ý": 182,
      "þ": 183,
      "ā": 184,
      "Ą": 185,
      "ą": 186,
      "Ć": 187,
      "ć": 188,
      "Č": 189,
      "č": 190,
      "ď": 191,
      "đ": 192,
      "ē": 193,
      "Ę": 194,
      "ę": 195,
      "Ě": 196,
      "ě": 197,
      "Ğ": 198,
      "ğ": 199,
      "ī": 200,
      "İ": 201,
      "ı": 202,
      "Ł": 203,
      "ł": 204,
      "Ń": 205,
      "ń": 206,
      "Ň": 207,
      "ň": 208,
      "ō": 209,
      "Ő": 210,
      "ő": 211,
      "Œ": 212,
      "œ": 213,
      "Ř": 214,
      "ř": 215,
      "ś": 216,
      "Ş": 217,
      "ş": 218,
      "Š": 219,
      "š": 220,
      "ť": 221,
      "ū": 222,
      "Ů": 223,
      "ů": 224,
      "ű": 225,
      "ź": 226,
      "Ż": 227,
      "ż": 228,
      "Ž": 229,
      "ž": 230,
      "ʳ": 231,
      "ʻ": 232,
      "ʼ": 233,
      "́": 234,
      "̃": 235,
      "̄": 236,
      "̧": 237,
      "ͬ": 238,
      "Α": 239,
      "Γ": 240,
      "Δ": 241,
      "Θ": 242,
      "Ι": 243,
      "Κ": 244,
      "Λ": 245,
      "Μ": 246,
      "Π": 247,
      "Ρ": 248,
      "Σ": 249,
      "Τ": 250,
      "Υ": 251,
      "Φ": 252,
      "Χ": 253,
      "ά": 254,
      "έ": 255,
      "ή": 256,
      "ί": 257,
      "α": 258,
      "β": 259,
      "γ": 260,
      "δ": 261,
      "ε": 262,
      "ζ": 263,
      "η": 264,
      "θ": 265,
      "ι": 266,
      "κ": 267,
      "λ": 268,
      "μ": 269,
      "ν": 270,
      "ξ": 271,
      "ο": 272,
      "π": 273,
      "ρ": 274,
      "ς": 275,
      "σ": 276,
      "τ": 277,
      "υ": 278,
      "φ": 279,
      "χ": 280,
      "ψ": 281,
      "ω": 282,
      "ϊ": 283,
      "ό": 284,
      "ύ": 285,
      "ώ": 286,
      "А": 287,
      "Б": 288,
      "В": 289,
      "Г": 290,
      "Д": 291,
      "Е": 292,
      "Ж": 293,
      "З": 294,
      "И": 295,
      "К": 296,
      "Л": 297,
      "М": 298,
      "Н": 299,
      "О": 300,
      "П": 301,
      "Р": 302,
      "С": 303,
      "Т": 304,
      "У": 305,
      "Ф": 306,
      "Х": 307,
      "Ч": 308,
      "Ш": 309,
      "Ы": 310,
      "Ь": 311,
      "Э": 312,
      "Ю": 313,
      "Я": 314,
      "а": 315,
      "б": 316,
      "в": 317,
      "г": 318,
      "д": 319,
      "е": 320,
      "з": 321,
      "и": 322,
      "й": 323,
      "к": 324,
      "л": 325,
      "м": 326,
      "н": 327,
      "о": 328,
      "п": 329,
      "р": 330,
      "с": 331,
      "т": 332,
      "х": 333,
      "ч": 334,
      "ш": 335,
      "ъ": 336,
      "ы": 337,
      "ь": 338,
      "э": 339,
      "ю": 340,
      "я": 341,
      "і": 342,
      "א": 343,
      "ך": 344,
      "כ": 345,
      "ל": 346,
      "מ": 347,
      "ר": 348,
      "ת": 349,
      "ة": 350,
      "ت": 351,
      "د": 352,
      "س": 353,
      "ـ": 354,
      "ف": 355,
      "م": 356,
      "ن": 357,
      "و": 358,
      "ي": 359,
      "٠": 360,
      "٢": 361,
      "क": 362,
      "ष": 363,
      "स": 364,
      "ी": 365,
      "्": 366,
      "৳": 367,
      "฿": 368,
      "៛": 369,
      "ᵃ": 370,
      "ᵉ": 371,
      "ᵒ": 372,
      "ỳ": 373,
      "ἀ": 374,
      "ἄ": 375,
      "Ἀ": 376,
      "ἐ": 377,
      "ἑ": 378,
      "ἔ": 379,
      "Ἐ": 380,
      "Ἑ": 381,
      "Ἕ": 382,
      "ἡ": 383,
      "ἢ": 384,
      "ἰ": 385,
      "ἱ": 386,
      "ἴ": 387,
      "ἵ": 388,
      "ἶ": 389,
      "Ἰ": 390,
      "ὀ": 391,
      "ὁ": 392,
      "ὅ": 393,
      "ὐ": 394,
      "ὔ": 395,
      "ὤ": 396,
      "ὥ": 397,
      "ὦ": 398,
      "Ὦ": 399,
      "Ὧ": 400,
      "ὰ": 401,
      "ά": 402,
      "ὲ": 403,
      "έ": 404,
      "ὴ": 405,
      "ή": 406,
      "ὶ": 407,
      "ί": 408,
      "ὸ": 409,
      "ό": 410,
      "ὺ": 411,
      "ύ": 412,
      "ᾶ": 413,
      "ᾷ": 414,
      "ῃ": 415,
      "ῆ": 416,
      "ῇ": 417,
      "ῖ": 418,
      "ῥ": 419,
      "ῦ": 420,
      "Ῥ": 421,
      "ῶ": 422,
      "ῷ": 423,
      "–": 424,
      "—": 425,
      "―": 426,
      "‘": 427,
      "’": 428,
      "‛": 429,
      "“": 430,
      "”": 431,
      "„": 432,
      "†": 433,
      "•": 434,
      "…": 435,
      "′": 436,
      "‹": 437,
      "›": 438,
      "※": 439,
      "⁄": 440,
      "⁴": 441,
      "₁": 442,
      "₂": 443,
      "₅": 444,
      "₆": 445,
      "₡": 446,
      "₥": 447,
      "₦": 448,
      "₩": 449,
      "₪": 450,
      "₫": 451,
      "€": 452,
      "₭": 453,
      "₱": 454,
      "₲": 455,
      "₴": 456,
      "₸": 457,
      "₹": 458,
      "₺": 459,
      "₽": 460,
      "₾": 461,
      "℃": 462,
      "™": 463,
      "⅔": 464,
      "⅛": 465,
      "→": 466,
      "∪": 467,
      "≤": 468,
      "≥": 469,
      "⊙": 470,
      "⑈": 471,
      "─": 472,
      "│": 473,
      "║": 474,
      "■": 475,
      "□": 476,
      "▲": 477,
      "►": 478,
      "▼": 479,
      "★": 480,
      "☨": 481,
      "♦": 482,
      "✓": 483,
      "✚": 484,
      "❖": 485,
      "お": 486,
      "が": 487,
      "ご": 488,
      "す": 489,
      "ま": 490,
      "れ": 491,
      "ゼ": 492,
      "ミ": 493,
      "一": 494,
      "三": 495,
      "中": 496,
      "串": 497,
      "京": 498,
      "出": 499,
      "化": 500,
      "北": 501,
      "十": 502,
      "單": 503,
      "多": 504,
      "安": 505,
      "家": 506,
      "專": 507,
      "山": 508,
      "年": 509,
      "徽": 510,
      "效": 511,
      "文": 512,
      "星": 513,
      "時": 514,
      "業": 515,
      "止": 516,
      "汁": 517,
      "江": 518,
      "生": 519,
      "第": 520,
      "美": 521,
      "老": 522,
      "萬": 523,
      "配": 524,
      "金": 525,
      "長": 526,
      "黃": 527,
      "##o": 528,
      "##l": 529,
      "##s": 530,
      "##t": 531,
      "##a": 532,
      "##n": 533,
      "##d": 534,
      "##b": 535,
      "##i": 536,
      "##e": 537,
      "##c": 538,
      "##u": 539,
      "##m": 540,
      "##X": 541,
      "##I": 542,
      "##3": 543,
      "##r": 544,
      "##E": 545,
      "##z": 546,
      "##ó": 547,
      "##g": 548,
      "##R": 549,
      "##M": 550,
      "##Ó": 551,
      "##P": 552,
      "##L": 553,
      "##h": 554,
      "##j": 555,
      "##p": 556,
      "##á": 557,
      "##A": 558,
      "##B": 559,
      "##x": 560,
      "##é": 561,
      "##T": 562,
      "##N": 563,
      "##V": 564,
      "##y": 565,
      "##í": 566,
      "##ú": 567,
      "##q": 568,
      "##v": 569,
      "##U": 570,
      "##O": 571,
      "##S": 572,
      "##f": 573,
      "##k": 574,
      "##ñ": 575,
      "##D": 576,
      "##J": 577,
      "##æ": 578,
      "##G": 579,
      "##C": 580,
      "##Y": 581,
      "##1": 582,
      "##ü": 583,
      "##Í": 584,
      "##w": 585,
      "##0": 586,
      "##5": 587,
      "##2": 588,
      "##6": 589,
      "##7": 590,
      "##Z": 591,
      "##H": 592,
      "##Á": 593,
      "##F": 594,
      "##Ü": 595,
      "##9": 596,
      "##Q": 597,
      "##©": 598,
      "##8": 599,
      "##W": 600,
      "##̃": 601,
      "##°": 602,
      "##Ñ": 603,
      "##â": 604,
      "##ç": 605,
      "##à": 606,
      "##î": 607,
      "##É": 608,
      "##4": 609,
      "##K": 610,
      "##ò": 611,
      "##º": 612,
      "##ę": 613,
      "##±": 614,
      "##£": 615,
      "##Ã": 616,
      "##³": 617,
      "##å": 618,
      "##Ú": 619,
      "##■": 620,
      "##®": 621,
      "##è": 622,
      "##€": 623,
      "##ã": 624,
      "##û": 625,
      "##ν": 626,
      "##ω": 627,
      "##σ": 628,
      "##τ": 629,
      "##ο": 630,
      "##ὶ": 631,
      "##™": 632,
      "##ū": 633,
      "##¦": 634,
      "##ı": 635,
      "##¥": 636,
      "##ů": 637,
      "##ï": 638,
      "##Ç": 639,
      "##ë": 640,
      "##ª": 641,
      "##ě": 642,
      "##α": 643,
      "##ρ": 644,
      "##π": 645,
      "##ῶ": 646,
      "##ê": 647,
      "##λ": 648,
      "##έ": 649,
      "##õ": 650,
      "##ì": 651,
      "##а": 652,
      "##ш": 653,
      "##д": 654,
      "##ί": 655,
      "##υ": 656,
      "##ς": 657,
      "##ô": 658,
      "##×": 659,
      "##ű": 660,
      "##ć": 661,
      "##ő": 662,
      "##ł": 663,
      "##θ": 664,
      "##ῦ": 665,
      "##ş": 666,
      "##ś": 667,
      "##ň": 668,
      "##ὐ": 669,
      "##ε": 670,
      "##ῖ": 671,
      "##κ": 672,
      "##ι": 673,
      "##і": 674,
      "##е": 675,
      "##о": 676,
      "##È": 677,
      "##ō": 678,
      "##ā": 679,
      "##≤": 680,
      "##œ": 681,
      "##ä": 682,
      "##ά": 683,
      "##μ": 684,
      "##Е": 685,
      "##Н": 686,
      "##И": 687,
      "##Р": 688,
      "##ö": 689,
      "##н": 690,
      "##з": 691,
      "##и": 692,
      "##г": 693,
      "##ᵒ": 694,
      "##İ": 695,
      "##с": 696,
      "##ž": 697,
      "##ῆ": 698,
      "##ό": 699,
      "##ż": 700,
      "##ø": 701,
      "##ù": 702,
      "##Â": 703,
      "##Č": 704,
      "##ń": 705,
      "##¼": 706,
      "##Å": 707,
      "##ą": 708,
      "##ό": 709,
      "##Ń": 710,
      "##б": 711,
      "##ť": 712,
      "##ы": 713,
      "##℃": 714,
      "##ל": 715,
      "##א": 716,
      "##ך": 717,
      "##Т": 718,
      "##О": 719,
      "##Г": 720,
      "##Ő": 721,
      "##´": 722,
      "##ύ": 723,
      "##γ": 724,
      "##Æ": 725,
      "##Ň": 726,
      "##♦": 727,
      "##ч": 728,
      "##έ": 729,
      "##Ь": 730,
      "##²": 731,
      "##ē": 732,
      "##й": 733,
      "##Ì": 734,
      "##À": 735,
      "##̄": 736,
      "##β": 737,
      "##ί": 738,
      "##ύ": 739,
      "##ξ": 740,
      "##Ø": 741,
      "##т": 742,
      "##¨": 743,
      "##ά": 744,
      "##₡": 745,
      "##Ą": 746,
      "##ᵉ": 747,
      "##ď": 748,
      "##¾": 749,
      "##ζ": 750,
      "##р": 751,
      "##п": 752,
      "##¹": 753,
      "##к": 754,
      "##δ": 755,
      "##В": 756,
      "##А": 757,
      "##З": 758,
      "##М": 759,
      "##Я": 760,
      "##χ": 761,
      "##Ж": 762,
      "##в": 763,
      "##Ł": 764,
      "##½": 765,
      "##ὴ": 766,
      "##č": 767,
      "##η": 768,
      "##ь": 769,
      "##Ê": 770,
      "##ר": 771,
      "##ת": 772,
      "##ὔ": 773,
      "##⁄": 774,
      "##₂": 775,
      "##ğ": 776,
      "##я": 777,
      "##л": 778,
      "##Ř": 779,
      "##₹": 780,
      "##ή": 781,
      "##ᾷ": 782,
      "##ミ": 783,
      "##Î": 784,
      "##Ě": 785,
      "##φ": 786,
      "##و": 787,
      "##د": 788,
      "##ὸ": 789,
      "##ἶ": 790,
      "##►": 791,
      "##₾": 792,
      "##Ä": 793,
      "##❖": 794,
      "##ἰ": 795,
      "##¤": 796,
      "##Э": 797,
      "##Л": 798,
      "##ῷ": 799,
      "##Ć": 800,
      "##Ş": 801,
      "##С": 802,
      "##š": 803,
      "##¢": 804,
      "##Ш": 805,
      "##Ù": 806,
      "##Ę": 807,
      "##Ч": 808,
      "##К": 809,
      "##Ö": 810,
      "##́": 811,
      "##₺": 812,
      "##Ğ": 813,
      "##ͬ": 814,
      "##ま": 815,
      "##す": 816,
      "##м": 817,
      "##が": 818,
      "##ὺ": 819,
      "##ř": 820,
      "##ή": 821,
      "##э": 822,
      "##ὰ": 823,
      "##Œ": 824,
      "##₁": 825,
      "##₆": 826,
      "##٠": 827,
      "##ώ": 828,
      "##Χ": 829,
      "##Θ": 830,
      "##Υ": 831,
      "##Σ": 832,
      "##ي": 833,
      "##ن": 834,
      "##ـ": 835,
      "##ý": 836,
      "##Д": 837,
      "##ź": 838,
      "##ß": 839,
      "##ἱ": 840,
      "##ᾶ": 841,
      "##Ï": 842,
      "##ī": 843,
      "##Ů": 844,
      "##⑈": 845,
      "##Õ": 846,
      "##ϊ": 847,
      "##⅔": 848,
      "##ψ": 849,
      "##Ż": 850,
      "##ἴ": 851,
      "##₽": 852,
      "##Б": 853,
      "##Ю": 854,
      "##ῃ": 855,
      "##̧": 856,
      "##Û": 857,
      "##ὅ": 858,
      "##│": 859,
      "##ῇ": 860,
      "##Ы": 861,
      "##đ": 862,
      "##Ò": 863,
      "##ὲ": 864,
      "##║": 865,
      "##П": 866,
      "##₫": 867,
      "##ी": 868,
      "##स": 869,
      "##क": 870,
      "##्": 871,
      "##ष": 872,
      "##ю": 873,
      "##Х": 874,
      "##س": 875,
      "##ف": 876,
      "##ت": 877,
      "##ة": 878,
      "de": 879,
      "##os": 880,
      "##er": 881,
      "##en": 882,
      "##as": 883,
      "##es": 884,
      "##on": 885,
      "##ar": 886,
      "##an": 887,
      "##ue": 888,
      "##or": 889,
      "##ci": 890,
      "##ad": 891,
      "que": 892,
      "la": 893,
      "en": 894,
      "##al": 895,
      "el": 896,
      "##st": 897,
      "##ent": 898,
      "##in": 899,
      "con": 900,
      "##do": 901,
      "##re": 902,
      "##ab": 903,
      "se": 904,
      "##om": 905,
      "su": 906,
      "##ra": 907,
      "los": 908,
      "##ri": 909,
      "##ro": 910,
      "##ti": 911,
      "un": 912,
      "##am": 913,
      "al": 914,
      "##ón": 915,
      "##ic": 916,
      "es": 917,
      "del": 918,
      "por": 919,
      "##to": 920,
      "##un": 921,
      "est": 922,
      "##ta": 923,
      "re": 924,
      "##le": 925,
      "##ado": 926,
      "##di": 927,
      "##la": 928,
      "##te": 929,
      "las": 930,
      "##is": 931,
      "par": 932,
      "no": 933,
      "in": 934,
      "##ol": 935,
      "##id": 936,
      "##ia": 937,
      "com": 938,
      "##ente": 939,
      "##ch": 940,
      "cu": 941,
      "##de": 942,
      "##ción": 943,
      "##ui": 944,
      "##em": 945,
      "di": 946,
      "##res": 947,
      "si": 948,
      "##lo": 949,
      "##ía": 950,
      "des": 951,
      "##cu": 952,
      "##io": 953,
      "##il": 954,
      "##que": 955,
      "##ran": 956,
      "##tu": 957,
      "##cia": 958,
      "ha": 959,
      "para": 960,
      "##ero": 961,
      "to": 962,
      "##ec": 963,
      "##ada": 964,
      "pro": 965,
      "lo": 966,
      "##el": 967,
      "##ues": 968,
      "##go": 969,
      "##ob": 970,
      "le": 971,
      "##tr": 972,
      "una": 973,
      "##da": 974,
      "##ier": 975,
      "##gu": 976,
      "##cion": 977,
      "##ca": 978,
      "hab": 979,
      "##se": 980,
      "##ando": 981,
      "##uer": 982,
      "##ien": 983,
      "##ir": 984,
      "sus": 985,
      "##it": 986,
      "##aba": 987,
      "me": 988,
      "##mp": 989,
      "##ist": 990,
      "mu": 991,
      "##co": 992,
      "##ados": 993,
      "##im": 994,
      "##era": 995,
      "como": 996,
      "##pa": 997,
      "##ce": 998,
      "##at": 999,
      "an": 1000,
      "##ig": 1001,
      "##dos": 1002,
      "##dad": 1003,
      "##za": 1004,
      "ca": 1005,
      "##los": 1006,
      "##ento": 1007,
      "##tes": 1008,
      "ar": 1009,
      "##mo": 1010,
      "ex": 1011,
      "per": 1012,
      "##án": 1013,
      "##us": 1014,
      "##tra": 1015,
      "po": 1016,
      "##ter": 1017,
      "##tos": 1018,
      "##po": 1019,
      "##ué": 1020,
      "##ales": 1021,
      "##ma": 1022,
      "##ios": 1023,
      "##gun": 1024,
      "sin": 1025,
      "##idad": 1026,
      "##ici": 1027,
      "##pe": 1028,
      "##ás": 1029,
      "El": 1030,
      "##ores": 1031,
      "mas": 1032,
      "##ul": 1033,
      "ac": 1034,
      "##ciones": 1035,
      "##omb": 1036,
      "ser": 1037,
      "##ie": 1038,
      "res": 1039,
      "##ras": 1040,
      "mis": 1041,
      "pr": 1042,
      "##jo": 1043,
      "man": 1044,
      "##ica": 1045,
      "tan": 1046,
      "##ib": 1047,
      "##encia": 1048,
      "##um": 1049,
      "as": 1050,
      "ma": 1051,
      "##les": 1052,
      "##las": 1053,
      "cor": 1054,
      "ent": 1055,
      "pa": 1056,
      "ob": 1057,
      "##tar": 1058,
      "##vo": 1059,
      "ci": 1060,
      "##amente": 1061,
      "##va": 1062,
      "##ido": 1063,
      "##cho": 1064,
      "do": 1065,
      "##ara": 1066,
      "En": 1067,
      "esta": 1068,
      "pre": 1069,
      "na": 1070,
      "ten": 1071,
      "##tro": 1072,
      "##ga": 1073,
      "##lan": 1074,
      "##quel": 1075,
      "##tas": 1076,
      "cas": 1077,
      "San": 1078,
      "##ez": 1079,
      "##én": 1080,
      "##aban": 1081,
      "pue": 1082,
      "este": 1083,
      "##qui": 1084,
      "La": 1085,
      "aquel": 1086,
      "##tor": 1087,
      "##der": 1088,
      "##mi": 1089,
      "##ru": 1090,
      "##cer": 1091,
      "##me": 1092,
      "mi": 1093,
      "##lar": 1094,
      "##ten": 1095,
      "##das": 1096,
      "ap": 1097,
      "sob": 1098,
      "##du": 1099,
      "pri": 1100,
      "##ante": 1101,
      "##tros": 1102,
      "##ión": 1103,
      "##ico": 1104,
      "dos": 1105,
      "ab": 1106,
      "##ur": 1107,
      "ver": 1108,
      "##iz": 1109,
      "##ces": 1110,
      "##ve": 1111,
      "##pañ": 1112,
      "don": 1113,
      "##gar": 1114,
      "##ían": 1115,
      "##no": 1116,
      "car": 1117,
      "pas": 1118,
      "lle": 1119,
      "ni": 1120,
      "esp": 1121,
      "pres": 1122,
      "dic": 1123,
      "gran": 1124,
      "##ina": 1125,
      "##ub": 1126,
      "Est": 1127,
      "##adas": 1128,
      "imp": 1129,
      "más": 1130,
      "sol": 1131,
      "ti": 1132,
      "##ones": 1133,
      "##vi": 1134,
      "qui": 1135,
      "Al": 1136,
      "mo": 1137,
      "##ver": 1138,
      "##endo": 1139,
      "cons": 1140,
      "##able": 1141,
      "##ida": 1142,
      "Es": 1143,
      "##mb": 1144,
      "##ens": 1145,
      "##asta": 1146,
      "##entes": 1147,
      "sa": 1148,
      "fuer": 1149,
      "##ino": 1150,
      "pero": 1151,
      "##den": 1152,
      "##aron": 1153,
      "##ener": 1154,
      "sobre": 1155,
      "##ano": 1156,
      "esc": 1157,
      "##je": 1158,
      "for": 1159,
      "sal": 1160,
      "##entos": 1161,
      "18": 1162,
      "Por": 1163,
      "##amb": 1164,
      "nos": 1165,
      "##mos": 1166,
      "entre": 1167,
      "era": 1168,
      "pe": 1169,
      "Con": 1170,
      "##rib": 1171,
      "##lam": 1172,
      "##ño": 1173,
      "##ust": 1174,
      "mar": 1175,
      "Re": 1176,
      "Se": 1177,
      "nues": 1178,
      "##mente": 1179,
      "##ora": 1180,
      "##emp": 1181,
      "algun": 1182,
      "todo": 1183,
      "comp": 1184,
      "##enta": 1185,
      "##na": 1186,
      "cos": 1187,
      "he": 1188,
      "tra": 1189,
      "deb": 1190,
      "##con": 1191,
      "hasta": 1192,
      "dis": 1193,
      "##cio": 1194,
      "##eros": 1195,
      "##ana": 1196,
      "##amos": 1197,
      "ya": 1198,
      "##cha": 1199,
      "co": 1200,
      "ter": 1201,
      "##ed": 1202,
      "ba": 1203,
      "##qu": 1204,
      "todos": 1205,
      "so": 1206,
      "cab": 1207,
      "am": 1208,
      "son": 1209,
      "desp": 1210,
      "##eneral": 1211,
      "prov": 1212,
      "##ador": 1213,
      "##cas": 1214,
      "pues": 1215,
      "##ias": 1216,
      "ad": 1217,
      "##uel": 1218,
      "muy": 1219,
      "##cias": 1220,
      "##ros": 1221,
      "ve": 1222,
      "##ren": 1223,
      "medi": 1224,
      "##so": 1225,
      "or": 1226,
      "vi": 1227,
      "cam": 1228,
      "rep": 1229,
      "##car": 1230,
      "##gui": 1231,
      "##ven": 1232,
      "##ian": 1233,
      "##ena": 1234,
      "prim": 1235,
      "señ": 1236,
      "lu": 1237,
      "porque": 1238,
      "##ho": 1239,
      "DE": 1240,
      "No": 1241,
      "##mas": 1242,
      "##fici": 1243,
      "##enos": 1244,
      "cap": 1245,
      "Mar": 1246,
      "ra": 1247,
      "##ombre": 1248,
      "mismo": 1249,
      "da": 1250,
      "##arse": 1251,
      "parte": 1252,
      "fué": 1253,
      "te": 1254,
      "cal": 1255,
      "##ér": 1256,
      "##des": 1257,
      "prop": 1258,
      "emp": 1259,
      "##ario": 1260,
      "##eces": 1261,
      "##eron": 1262,
      "##all": 1263,
      "##ís": 1264,
      "au": 1265,
      "ven": 1266,
      "tien": 1267,
      "qu": 1268,
      "##ya": 1269,
      "##ués": 1270,
      "col": 1271,
      "##udad": 1272,
      "bien": 1273,
      "##ja": 1274,
      "An": 1275,
      "##ién": 1276,
      "##emos": 1277,
      "tr": 1278,
      "##ba": 1279,
      "##ños": 1280,
      "##tado": 1281,
      "##ió": 1282,
      "##if": 1283,
      "cuando": 1284,
      "##antes": 1285,
      "##tras": 1286,
      "##jos": 1287,
      "habia": 1288,
      "bu": 1289,
      "donde": 1290,
      "##cip": 1291,
      "cual": 1292,
      "pueb": 1293,
      "lib": 1294,
      "##cos": 1295,
      "##fer": 1296,
      "##ierno": 1297,
      "tu": 1298,
      "aun": 1299,
      "mil": 1300,
      "gob": 1301,
      "##ña": 1302,
      "##ern": 1303,
      "les": 1304,
      "##chos": 1305,
      "##ac": 1306,
      "han": 1307,
      "pu": 1308,
      "In": 1309,
      "##gua": 1310,
      "du": 1311,
      "##empo": 1312,
      "##yo": 1313,
      "##iento": 1314,
      "##min": 1315,
      "mon": 1316,
      "##eg": 1317,
      "cre": 1318,
      "##iendo": 1319,
      "##bl": 1320,
      "##par": 1321,
      "ciudad": 1322,
      "##tad": 1323,
      "##ion": 1324,
      "indi": 1325,
      "De": 1326,
      "##ín": 1327,
      "desde": 1328,
      "pos": 1329,
      "inter": 1330,
      "##ala": 1331,
      "##pon": 1332,
      "##til": 1333,
      "##tin": 1334,
      "Los": 1335,
      "##00": 1336,
      "tiempo": 1337,
      "ch": 1338,
      "toda": 1339,
      "él": 1340,
      "dist": 1341,
      "fa": 1342,
      "sab": 1343,
      "tom": 1344,
      "##ria": 1345,
      "##fec": 1346,
      "##ort": 1347,
      "##lti": 1348,
      "tamb": 1349,
      "hacer": 1350,
      "llam": 1351,
      "Ch": 1352,
      "##ún": 1353,
      "##anos": 1354,
      "cer": 1355,
      "##bre": 1356,
      "##ies": 1357,
      "Ma": 1358,
      "prin": 1359,
      "parti": 1360,
      "nue": 1361,
      "inf": 1362,
      "her": 1363,
      "##eci": 1364,
      "##oso": 1365,
      "may": 1366,
      "##dose": 1367,
      "##per": 1368,
      "##úbl": 1369,
      "otros": 1370,
      "ej": 1371,
      "##zo": 1372,
      "##idos": 1373,
      "os": 1374,
      "##endi": 1375,
      "Ju": 1376,
      "general": 1377,
      "##cur": 1378,
      "##ito": 1379,
      "ju": 1380,
      "##gos": 1381,
      "##zas": 1382,
      "fin": 1383,
      "después": 1384,
      "can": 1385,
      "ella": 1386,
      "vol": 1387,
      "todas": 1388,
      "Ca": 1389,
      "##és": 1390,
      "##van": 1391,
      "const": 1392,
      "##lic": 1393,
      "contra": 1394,
      "conf": 1395,
      "##oria": 1396,
      "##illa": 1397,
      "##ona": 1398,
      "esto": 1399,
      "dia": 1400,
      "##var": 1401,
      "##pos": 1402,
      "otro": 1403,
      "quien": 1404,
      "##ieron": 1405,
      "##lig": 1406,
      "##and": 1407,
      "##ral": 1408,
      "##ías": 1409,
      "##itu": 1410,
      "Car": 1411,
      "val": 1412,
      "##gn": 1413,
      "pers": 1414,
      "##dia": 1415,
      "princip": 1416,
      "yo": 1417,
      "tal": 1418,
      "cono": 1419,
      "pes": 1420,
      "pla": 1421,
      "##rig": 1422,
      "##ior": 1423,
      "##can": 1424,
      "hay": 1425,
      "Ar": 1426,
      "deci": 1427,
      "##sa": 1428,
      "uno": 1429,
      "##rado": 1430,
      "otra": 1431,
      "##ril": 1432,
      "##man": 1433,
      "hi": 1434,
      "##RI": 1435,
      "ho": 1436,
      "##tó": 1437,
      "##li": 1438,
      "pun": 1439,
      "##OS": 1440,
      "mayor": 1441,
      "dec": 1442,
      "##uar": 1443,
      "dej": 1444,
      "sino": 1445,
      "##tura": 1446,
      "está": 1447,
      "##esti": 1448,
      "dest": 1449,
      "##ombres": 1450,
      "neces": 1451,
      "pob": 1452,
      "Fran": 1453,
      "tres": 1454,
      "ro": 1455,
      "solo": 1456,
      "op": 1457,
      "va": 1458,
      "##rist": 1459,
      "##arios": 1460,
      "reci": 1461,
      "ag": 1462,
      "ellos": 1463,
      "segun": 1464,
      "también": 1465,
      "##iones": 1466,
      "##lu": 1467,
      "##uego": 1468,
      "san": 1469,
      "tiene": 1470,
      "##osa": 1471,
      "dar": 1472,
      "ay": 1473,
      "pon": 1474,
      "##ancia": 1475,
      "min": 1476,
      "emb": 1477,
      "##RA": 1478,
      "tier": 1479,
      "##ua": 1480,
      "ins": 1481,
      "rec": 1482,
      "menos": 1483,
      "vez": 1484,
      "había": 1485,
      "##ita": 1486,
      "fun": 1487,
      "Com": 1488,
      "##paña": 1489,
      "pueblo": 1490,
      "##tre": 1491,
      "##che": 1492,
      "##dic": 1493,
      "guer": 1494,
      "señor": 1495,
      "##nos": 1496,
      "capit": 1497,
      "##dr": 1498,
      "estos": 1499,
      "Juan": 1500,
      "haber": 1501,
      "##vid": 1502,
      "hub": 1503,
      "##gan": 1504,
      "##ista": 1505,
      "##vos": 1506,
      "fal": 1507,
      "mal": 1508,
      "años": 1509,
      "##ase": 1510,
      "aquella": 1511,
      "pol": 1512,
      "pal": 1513,
      "año": 1514,
      "Cor": 1515,
      "sido": 1516,
      "##ES": 1517,
      "ce": 1518,
      "reg": 1519,
      "##tal": 1520,
      "así": 1521,
      "all": 1522,
      "##cción": 1523,
      "##cil": 1524,
      "##ha": 1525,
      "##miento": 1526,
      "##ud": 1527,
      "##tan": 1528,
      "sent": 1529,
      "of": 1530,
      "##ima": 1531,
      "##áo": 1532,
      "##ef": 1533,
      "##eo": 1534,
      "##cen": 1535,
      "##eza": 1536,
      "nombre": 1537,
      "##empre": 1538,
      "mes": 1539,
      "##dido": 1540,
      "dicho": 1541,
      "anti": 1542,
      "cada": 1543,
      "Cu": 1544,
      "orden": 1545,
      "tanto": 1546,
      "##rar": 1547,
      "vo": 1548,
      "##ece": 1549,
      "15": 1550,
      "muer": 1551,
      "gra": 1552,
      "##ición": 1553,
      "##íti": 1554,
      "ocu": 1555,
      "hombres": 1556,
      "##fic": 1557,
      "##guas": 1558,
      "##AS": 1559,
      "##atro": 1560,
      "espe": 1561,
      "##itar": 1562,
      "fi": 1563,
      "gobierno": 1564,
      "Cas": 1565,
      "##gra": 1566,
      "##olu": 1567,
      "ele": 1568,
      "siempre": 1569,
      "##oles": 1570,
      "últi": 1571,
      "##adores": 1572,
      "##chas": 1573,
      "poco": 1574,
      "##ton": 1575,
      "hecho": 1576,
      "poder": 1577,
      "##izo": 1578,
      "mer": 1579,
      "lleg": 1580,
      "##cido": 1581,
      "provin": 1582,
      "verdad": 1583,
      "tro": 1584,
      "algunos": 1585,
      "españ": 1586,
      "##vas": 1587,
      "Pero": 1588,
      "mor": 1589,
      "##dar": 1590,
      "antes": 1591,
      "##adre": 1592,
      "##úm": 1593,
      "cuan": 1594,
      "lugar": 1595,
      "em": 1596,
      "##cis": 1597,
      "inst": 1598,
      "pat": 1599,
      "puede": 1600,
      "##CI": 1601,
      "dem": 1602,
      "sigui": 1603,
      "otras": 1604,
      "##EN": 1605,
      "##ON": 1606,
      "##lación": 1607,
      "mun": 1608,
      "mej": 1609,
      "medio": 1610,
      "caus": 1611,
      "##ár": 1612,
      "Mon": 1613,
      "##II": 1614,
      "##almente": 1615,
      "serv": 1616,
      "puer": 1617,
      "Que": 1618,
      "17": 1619,
      "Pa": 1620,
      "Su": 1621,
      "##ío": 1622,
      "##eno": 1623,
      "casa": 1624,
      "exp": 1625,
      "recib": 1626,
      "Des": 1627,
      "##tivo": 1628,
      "pi": 1629,
      "##tir": 1630,
      "estas": 1631,
      "ne": 1632,
      "Un": 1633,
      "España": 1634,
      "cier": 1635,
      "##pu": 1636,
      "estaba": 1637,
      "Las": 1638,
      "##cri": 1639,
      "##imo": 1640,
      "ade": 1641,
      "##jas": 1642,
      "##cep": 1643,
      "##pec": 1644,
      "##ene": 1645,
      "To": 1646,
      "aunque": 1647,
      "form": 1648,
      "tar": 1649,
      "##tud": 1650,
      "Si": 1651,
      "guerra": 1652,
      "##dió": 1653,
      "mucho": 1654,
      "tierra": 1655,
      "vida": 1656,
      "##ura": 1657,
      "fe": 1658,
      "##ER": 1659,
      "##gles": 1660,
      "sub": 1661,
      "decir": 1662,
      "##gen": 1663,
      "natu": 1664,
      "Lu": 1665,
      "encon": 1666,
      "hizo": 1667,
      "##gún": 1668,
      "hombre": 1669,
      "den": 1670,
      "segu": 1671,
      "ese": 1672,
      "##ese": 1673,
      "##quí": 1674,
      "##cal": 1675,
      "autor": 1676,
      "##ible": 1677,
      "ofici": 1678,
      "##argo": 1679,
      "hon": 1680,
      "Jos": 1681,
      "##cito": 1682,
      "##ública": 1683,
      "allí": 1684,
      "traba": 1685,
      "##omin": 1686,
      "tor": 1687,
      "ref": 1688,
      "##lor": 1689,
      "pie": 1690,
      "nin": 1691,
      "Gob": 1692,
      "##AN": 1693,
      "ah": 1694,
      "##ves": 1695,
      "dere": 1696,
      "##he": 1697,
      "##vis": 1698,
      "hist": 1699,
      "##eras": 1700,
      "16": 1701,
      "entr": 1702,
      "Sr": 1703,
      "núm": 1704,
      "##tis": 1705,
      "def": 1706,
      "##pi": 1707,
      "##iera": 1708,
      "enem": 1709,
      "real": 1710,
      "##idades": 1711,
      "mat": 1712,
      "qué": 1713,
      "##onces": 1714,
      "##imiento": 1715,
      "##udi": 1716,
      "##end": 1717,
      "##ándo": 1718,
      "qued": 1719,
      "bar": 1720,
      "ta": 1721,
      "bo": 1722,
      "efec": 1723,
      "##rio": 1724,
      "rey": 1725,
      "Dios": 1726,
      "fel": 1727,
      "Lo": 1728,
      "##ques": 1729,
      "##zar": 1730,
      "##éri": 1731,
      "##vil": 1732,
      "##ándose": 1733,
      "ést": 1734,
      "men": 1735,
      "fr": 1736,
      "is": 1737,
      "af": 1738,
      "##ería": 1739,
      "liber": 1740,
      "10": 1741,
      "As": 1742,
      "bas": 1743,
      "guar": 1744,
      "##iente": 1745,
      "go": 1746,
      "hal": 1747,
      "ide": 1748,
      "contin": 1749,
      "##zos": 1750,
      "##ea": 1751,
      "##zón": 1752,
      "nuestro": 1753,
      "ley": 1754,
      "dice": 1755,
      "##enas": 1756,
      "cin": 1757,
      "Santa": 1758,
      "entonces": 1759,
      "Le": 1760,
      "##ST": 1761,
      "##ensa": 1762,
      "conse": 1763,
      "Par": 1764,
      "nuestra": 1765,
      "##inas": 1766,
      "muchos": 1767,
      "bajo": 1768,
      "et": 1769,
      "tras": 1770,
      "##AL": 1771,
      "produ": 1772,
      "var": 1773,
      "nada": 1774,
      "misma": 1775,
      "##áb": 1776,
      "fueron": 1777,
      "hace": 1778,
      "##oc": 1779,
      "Per": 1780,
      "esper": 1781,
      "##icos": 1782,
      "##ables": 1783,
      "sig": 1784,
      "rev": 1785,
      "cir": 1786,
      "rio": 1787,
      "Na": 1788,
      "quer": 1789,
      "eran": 1790,
      "jun": 1791,
      "##pas": 1792,
      "esa": 1793,
      "##cios": 1794,
      "fran": 1795,
      "##cial": 1796,
      "hor": 1797,
      "##tam": 1798,
      "##icia": 1799,
      "##erv": 1800,
      "##ome": 1801,
      "##gres": 1802,
      "inc": 1803,
      "##tados": 1804,
      "dijo": 1805,
      "##jer": 1806,
      "consid": 1807,
      "##ge": 1808,
      "sos": 1809,
      "José": 1810,
      "12": 1811,
      "mand": 1812,
      "Me": 1813,
      "Val": 1814,
      "Ped": 1815,
      "ejér": 1816,
      "plan": 1817,
      "tem": 1818,
      "grande": 1819,
      "il": 1820,
      "just": 1821,
      "##idas": 1822,
      "situ": 1823,
      "##gas": 1824,
      "Man": 1825,
      "dias": 1826,
      "##iv": 1827,
      "Co": 1828,
      "##imos": 1829,
      "ir": 1830,
      "##inos": 1831,
      "punto": 1832,
      "##lica": 1833,
      "grandes": 1834,
      "##vers": 1835,
      "indios": 1836,
      "##igo": 1837,
      "temp": 1838,
      "##tores": 1839,
      "cuatro": 1840,
      "##ord": 1841,
      "##rante": 1842,
      "##ne": 1843,
      "Am": 1844,
      "pub": 1845,
      "haci": 1846,
      "encontr": 1847,
      "cuer": 1848,
      "acu": 1849,
      "apar": 1850,
      "luego": 1851,
      "aquí": 1852,
      "modo": 1853,
      "##embre": 1854,
      "##uso": 1855,
      "##tamente": 1856,
      "sup": 1857,
      "##ribu": 1858,
      "##AR": 1859,
      "Pedro": 1860,
      "##rió": 1861,
      "##cie": 1862,
      "noche": 1863,
      "##zg": 1864,
      "hacia": 1865,
      "##cul": 1866,
      "exist": 1867,
      "##ñas": 1868,
      "aquellos": 1869,
      "##br": 1870,
      "##igos": 1871,
      "##rec": 1872,
      "políti": 1873,
      "hum": 1874,
      "pron": 1875,
      "Francis": 1876,
      "mejor": 1877,
      "demás": 1878,
      "present": 1879,
      "tri": 1880,
      "##vor": 1881,
      "hoy": 1882,
      "at": 1883,
      "Gu": 1884,
      "##gr": 1885,
      "person": 1886,
      "ll": 1887,
      "##tia": 1888,
      "fam": 1889,
      "estado": 1890,
      "Pro": 1891,
      "tran": 1892,
      "llev": 1893,
      "11": 1894,
      "##ll": 1895,
      "número": 1896,
      "##ecer": 1897,
      "natural": 1898,
      "LA": 1899,
      "##orte": 1900,
      "on": 1901,
      "Este": 1902,
      "##cional": 1903,
      "##orm": 1904,
      "cuanto": 1905,
      "estable": 1906,
      "palab": 1907,
      "obje": 1908,
      "casi": 1909,
      "Bar": 1910,
      "##sted": 1911,
      "Mé": 1912,
      "##cel": 1913,
      "condu": 1914,
      "prof": 1915,
      "Sal": 1916,
      "cont": 1917,
      "Francisco": 1918,
      "cri": 1919,
      "##cimiento": 1920,
      "14": 1921,
      "ante": 1922,
      "pueblos": 1923,
      "##ruz": 1924,
      "##bo": 1925,
      "conven": 1926,
      "forma": 1927,
      "habian": 1928,
      "país": 1929,
      "Para": 1930,
      "veces": 1931,
      "Ha": 1932,
      "##cular": 1933,
      "ejército": 1934,
      "##tiva": 1935,
      "cr": 1936,
      "##leg": 1937,
      "sea": 1938,
      "mom": 1939,
      "escri": 1940,
      "##jar": 1941,
      "##reg": 1942,
      "primera": 1943,
      "alguna": 1944,
      "obs": 1945,
      "fue": 1946,
      "##idente": 1947,
      "nuestros": 1948,
      "##iza": 1949,
      "sí": 1950,
      "Don": 1951,
      "algunas": 1952,
      "resul": 1953,
      "##ile": 1954,
      "usted": 1955,
      "##uir": 1956,
      "só": 1957,
      "Señ": 1958,
      "##OR": 1959,
      "##bar": 1960,
      "Bu": 1961,
      "##uro": 1962,
      "der": 1963,
      "via": 1964,
      "cuya": 1965,
      "pens": 1966,
      "import": 1967,
      "##ración": 1968,
      "cuyo": 1969,
      "##una": 1970,
      "Cal": 1971,
      "##isto": 1972,
      "000": 1973,
      "##icas": 1974,
      "pudi": 1975,
      "unos": 1976,
      "##efe": 1977,
      "##cía": 1978,
      "provincia": 1979,
      "cuar": 1980,
      "causa": 1981,
      "recon": 1982,
      "##aria": 1983,
      "##IC": 1984,
      "dio": 1985,
      "noti": 1986,
      "##ced": 1987,
      "13": 1988,
      "mundo": 1989,
      "cosa": 1990,
      "##ere": 1991,
      "##ció": 1992,
      "ellas": 1993,
      "##sta": 1994,
      "comun": 1995,
      "Ba": 1996,
      "fuerza": 1997,
      "edi": 1998,
      "peque": 1999,
      "descu": 2000,
      "##erio": 2001,
      "##encias": 2002,
      "tre": 2003,
      "hall": 2004,
      "mujer": 2005,
      "Ro": 2006,
      "##atal": 2007,
      "##ira": 2008,
      "##oma": 2009,
      "fu": 2010,
      "camino": 2011,
      "Po": 2012,
      "##cun": 2013,
      "distin": 2014,
      "armas": 2015,
      "públ": 2016,
      "##cti": 2017,
      "repres": 2018,
      "##pit": 2019,
      "##tí": 2020,
      "dé": 2021,
      "##rir": 2022,
      "##ientos": 2023,
      "habit": 2024,
      "obra": 2025,
      "##via": 2026,
      "super": 2027,
      "Gobierno": 2028,
      "nuevo": 2029,
      "tener": 2030,
      "##mpl": 2031,
      "levan": 2032,
      "tes": 2033,
      "##culo": 2034,
      "manera": 2035,
      "##jes": 2036,
      "agua": 2037,
      "sold": 2038,
      "##mon": 2039,
      "encu": 2040,
      "##yos": 2041,
      "ahora": 2042,
      "gobern": 2043,
      "##ación": 2044,
      "20": 2045,
      "amb": 2046,
      "desa": 2047,
      "mos": 2048,
      "##onel": 2049,
      "Rep": 2050,
      "sen": 2051,
      "conv": 2052,
      "##ific": 2053,
      "##vió": 2054,
      "Estado": 2055,
      "mano": 2056,
      "Rey": 2057,
      "tienen": 2058,
      "ban": 2059,
      "Col": 2060,
      "##fica": 2061,
      "##ama": 2062,
      "##tel": 2063,
      "##anza": 2064,
      "##uesto": 2065,
      "igu": 2066,
      "debe": 2067,
      "cuales": 2068,
      "nomb": 2069,
      "inde": 2070,
      "comer": 2071,
      "arro": 2072,
      "clas": 2073,
      "vis": 2074,
      "##ant": 2075,
      "##ág": 2076,
      "##glesia": 2077,
      "capital": 2078,
      "pel": 2079,
      "##men": 2080,
      "muerte": 2081,
      "##sos": 2082,
      "Ab": 2083,
      "famil": 2084,
      "##ble": 2085,
      "##dir": 2086,
      "##cre": 2087,
      "##greso": 2088,
      "reun": 2089,
      "dirig": 2090,
      "caso": 2091,
      "##icio": 2092,
      "contr": 2093,
      "ningun": 2094,
      "comple": 2095,
      "hici": 2096,
      "ofre": 2097,
      "apro": 2098,
      "##tación": 2099,
      "##pul": 2100,
      "cosas": 2101,
      "primer": 2102,
      "hemos": 2103,
      "li": 2104,
      "están": 2105,
      "neg": 2106,
      "##AD": 2107,
      "##ós": 2108,
      "vir": 2109,
      "juzg": 2110,
      "Esta": 2111,
      "##cter": 2112,
      "muchas": 2113,
      "##g̃": 2114,
      "bus": 2115,
      "ción": 2116,
      "##uelo": 2117,
      "embargo": 2118,
      "Di": 2119,
      "cl": 2120,
      "##día": 2121,
      "##cin": 2122,
      "padre": 2123,
      "##dio": 2124,
      "favor": 2125,
      "eso": 2126,
      "##dida": 2127,
      "Mu": 2128,
      "vista": 2129,
      "##tando": 2130,
      "efecto": 2131,
      "bra": 2132,
      "manif": 2133,
      "##taba": 2134,
      "##IST": 2135,
      "españoles": 2136,
      "escrib": 2137,
      "##fo": 2138,
      "minist": 2139,
      "Ex": 2140,
      "##gre": 2141,
      "oblig": 2142,
      "Qui": 2143,
      "rom": 2144,
      "cent": 2145,
      "##amiento": 2146,
      "Te": 2147,
      "ol": 2148,
      "có": 2149,
      "##iso": 2150,
      "ún": 2151,
      "rela": 2152,
      "tenia": 2153,
      "##gado": 2154,
      "##vía": 2155,
      "fra": 2156,
      "##dades": 2157,
      "siguiente": 2158,
      "último": 2159,
      "llegar": 2160,
      "inm": 2161,
      "algo": 2162,
      "Gran": 2163,
      "parece": 2164,
      "suces": 2165,
      "##tio": 2166,
      "estre": 2167,
      "tuvo": 2168,
      "Anton": 2169,
      "##guir": 2170,
      "cabal": 2171,
      "libertad": 2172,
      "##tido": 2173,
      "##LO": 2174,
      "##respon": 2175,
      "General": 2176,
      "dado": 2177,
      "##entras": 2178,
      "gri": 2179,
      "CA": 2180,
      "seis": 2181,
      "##xico": 2182,
      "apo": 2183,
      "buen": 2184,
      "##gue": 2185,
      "día": 2186,
      "noso": 2187,
      "##ritu": 2188,
      "##eración": 2189,
      "##ete": 2190,
      "fuera": 2191,
      "relig": 2192,
      "##lado": 2193,
      "ri": 2194,
      "gente": 2195,
      "emple": 2196,
      "bre": 2197,
      "encuent": 2198,
      "##rad": 2199,
      "##tiago": 2200,
      "##uela": 2201,
      "historia": 2202,
      "ou": 2203,
      "cora": 2204,
      "##áti": 2205,
      "diez": 2206,
      "##dra": 2207,
      "cub": 2208,
      "mir": 2209,
      "acom": 2210,
      "Sa": 2211,
      "escu": 2212,
      "##table": 2213,
      "circun": 2214,
      "pin": 2215,
      "II": 2216,
      "lado": 2217,
      "##enda": 2218,
      "adelan": 2219,
      "objeto": 2220,
      "blan": 2221,
      "épo": 2222,
      "##rando": 2223,
      "##und": 2224,
      "puesto": 2225,
      "caball": 2226,
      "compañ": 2227,
      "##tener": 2228,
      "nosotros": 2229,
      "visto": 2230,
      "##ares": 2231,
      "das": 2232,
      "encar": 2233,
      "tarde": 2234,
      "##dor": 2235,
      "25": 2236,
      "Santiago": 2237,
      "pl": 2238,
      "oro": 2239,
      "bel": 2240,
      "Antonio": 2241,
      "gan": 2242,
      "consider": 2243,
      "##don": 2244,
      "##terior": 2245,
      "##ender": 2246,
      "Or": 2247,
      "partes": 2248,
      "particular": 2249,
      "ata": 2250,
      "##itos": 2251,
      "amor": 2252,
      "leg": 2253,
      "inme": 2254,
      "##ará": 2255,
      "##cado": 2256,
      "##yó": 2257,
      "siendo": 2258,
      "##olución": 2259,
      "antigu": 2260,
      "##IN": 2261,
      "ru": 2262,
      "##alo": 2263,
      "ocup": 2264,
      "##erva": 2265,
      "ase": 2266,
      "##uido": 2267,
      "correspon": 2268,
      "##torio": 2269,
      "##ign": 2270,
      "inv": 2271,
      "cabeza": 2272,
      "##minist": 2273,
      "sir": 2274,
      "aten": 2275,
      "##ial": 2276,
      "##ire": 2277,
      "##iene": 2278,
      "##tumb": 2279,
      "##pel": 2280,
      "cerca": 2281,
      "interes": 2282,
      "cinco": 2283,
      "paso": 2284,
      "##ctor": 2285,
      "Bo": 2286,
      "extra": 2287,
      "descub": 2288,
      "estu": 2289,
      "primero": 2290,
      "habían": 2291,
      "pais": 2292,
      "cuerpo": 2293,
      "Ya": 2294,
      "nun": 2295,
      "respec": 2296,
      "##emb": 2297,
      "estaban": 2298,
      "So": 2299,
      "civil": 2300,
      "##ítu": 2301,
      "tos": 2302,
      "suf": 2303,
      "Cab": 2304,
      "##eta": 2305,
      "militar": 2306,
      "personas": 2307,
      "##jecu": 2308,
      "##fa": 2309,
      "##anas": 2310,
      "##char": 2311,
      "##ría": 2312,
      "##TA": 2313,
      "##cl": 2314,
      "leguas": 2315,
      "##ris": 2316,
      "##cor": 2317,
      "##rb": 2318,
      "Pres": 2319,
      "##mientos": 2320,
      "##onte": 2321,
      "jo": 2322,
      "compren": 2323,
      "plaza": 2324,
      "constitu": 2325,
      "cuad": 2326,
      "##por": 2327,
      "sólo": 2328,
      "conqui": 2329,
      "19": 2330,
      "##fi": 2331,
      "Is": 2332,
      "frente": 2333,
      "##olo": 2334,
      "##RO": 2335,
      "isla": 2336,
      "mente": 2337,
      "er": 2338,
      "##iciones": 2339,
      "soldados": 2340,
      "persona": 2341,
      "domin": 2342,
      "Mi": 2343,
      "##tivos": 2344,
      "##osos": 2345,
      "Pe": 2346,
      "acer": 2347,
      "momento": 2348,
      "recono": 2349,
      "##migo": 2350,
      "##ismo": 2351,
      "Fern": 2352,
      "Yo": 2353,
      "cul": 2354,
      "costa": 2355,
      "lar": 2356,
      "sil": 2357,
      "mando": 2358,
      "##rica": 2359,
      "vuel": 2360,
      "##izar": 2361,
      "etc": 2362,
      "##eria": 2363,
      "##ciendo": 2364,
      "fir": 2365,
      "fues": 2366,
      "respe": 2367,
      "##arca": 2368,
      "##g̃a": 2369,
      "##quiera": 2370,
      "ojos": 2371,
      "valor": 2372,
      "##rados": 2373,
      "30": 2374,
      "vein": 2375,
      "Mor": 2376,
      "num": 2377,
      "manos": 2378,
      "esos": 2379,
      "cuenta": 2380,
      "##iese": 2381,
      "##istas": 2382,
      "cumpl": 2383,
      "fuerzas": 2384,
      "##TE": 2385,
      "##vieron": 2386,
      "fon": 2387,
      "enemigo": 2388,
      "ocas": 2389,
      "durante": 2390,
      "calle": 2391,
      "##tada": 2392,
      "lan": 2393,
      "felig": 2394,
      "Señor": 2395,
      "##LA": 2396,
      "dese": 2397,
      "mucha": 2398,
      "crist": 2399,
      "##alidad": 2400,
      "##tante": 2401,
      "hermos": 2402,
      "difer": 2403,
      "##ór": 2404,
      "cierto": 2405,
      "##uestra": 2406,
      "hijo": 2407,
      "##quier": 2408,
      "contes": 2409,
      "##mento": 2410,
      "herm": 2411,
      "Como": 2412,
      "elec": 2413,
      "tér": 2414,
      "respon": 2415,
      "derecho": 2416,
      "suce": 2417,
      "dicha": 2418,
      "##có": 2419,
      "México": 2420,
      "##ispo": 2421,
      "##yas": 2422,
      "##sión": 2423,
      "##ental": 2424,
      "mui": 2425,
      "quin": 2426,
      "poner": 2427,
      "acab": 2428,
      "##ál": 2429,
      "us": 2430,
      "##eric": 2431,
      "figu": 2432,
      "##val": 2433,
      "##vin": 2434,
      "casas": 2435,
      "Cam": 2436,
      "cien": 2437,
      "pregun": 2438,
      "Nue": 2439,
      "terren": 2440,
      "patria": 2441,
      "envi": 2442,
      "##entar": 2443,
      "nunca": 2444,
      "##ger": 2445,
      "##oro": 2446,
      "##illo": 2447,
      "población": 2448,
      "##iores": 2449,
      "ór": 2450,
      "buena": 2451,
      "##ficio": 2452,
      "##ires": 2453,
      "cele": 2454,
      "##llo": 2455,
      "##ula": 2456,
      "##mar": 2457,
      "##UE": 2458,
      "campo": 2459,
      "tropas": 2460,
      "paz": 2461,
      "opin": 2462,
      "comis": 2463,
      "República": 2464,
      "cara": 2465,
      "terri": 2466,
      "época": 2467,
      "Jun": 2468,
      "Francia": 2469,
      "alma": 2470,
      "HIST": 2471,
      "EL": 2472,
      "capitán": 2473,
      "##íritu": 2474,
      "##cida": 2475,
      "##iro": 2476,
      "##orn": 2477,
      "Qué": 2478,
      "##bas": 2479,
      "##ip": 2480,
      "public": 2481,
      "##ctu": 2482,
      "inte": 2483,
      "23": 2484,
      "hubiera": 2485,
      "mientras": 2486,
      "##ancias": 2487,
      "aquellas": 2488,
      "21": 2489,
      "##gular": 2490,
      "##érica": 2491,
      "##cir": 2492,
      "pag": 2493,
      "estar": 2494,
      "##osas": 2495,
      "podr": 2496,
      "##RIA": 2497,
      "##mit": 2498,
      "##tiv": 2499,
      "razón": 2500,
      "camb": 2501,
      "lab": 2502,
      "24": 2503,
      "algún": 2504,
      "vic": 2505,
      "Mo": 2506,
      "##nas": 2507,
      "Mad": 2508,
      "falta": 2509,
      "saber": 2510,
      "22": 2511,
      "##IL": 2512,
      "vin": 2513,
      "##entas": 2514,
      "sor": 2515,
      "##unci": 2516,
      "##ide": 2517,
      "##dan": 2518,
      "ejecu": 2519,
      "carta": 2520,
      "partido": 2521,
      "##ilidad": 2522,
      "##RE": 2523,
      "##ell": 2524,
      "mí": 2525,
      "éste": 2526,
      "##omo": 2527,
      "ocho": 2528,
      "##et": 2529,
      "##rez": 2530,
      "atra": 2531,
      "mov": 2532,
      "gust": 2533,
      "Luis": 2534,
      "presente": 2535,
      "##guar": 2536,
      "##andon": 2537,
      "int": 2538,
      "##taron": 2539,
      "duda": 2540,
      "Cuando": 2541,
      "villa": 2542,
      "Can": 2543,
      "Sin": 2544,
      "orig": 2545,
      "satis": 2546,
      "veci": 2547,
      "##cta": 2548,
      "ces": 2549,
      "nego": 2550,
      "siglo": 2551,
      "##erdo": 2552,
      "##éndo": 2553,
      "##rid": 2554,
      "indep": 2555,
      "##ju": 2556,
      "preci": 2557,
      "dep": 2558,
      "alcan": 2559,
      "continu": 2560,
      "asi": 2561,
      "refer": 2562,
      "van": 2563,
      "fund": 2564,
      "seme": 2565,
      "puerto": 2566,
      "##ierto": 2567,
      "sur": 2568,
      "##resa": 2569,
      "estudi": 2570,
      "habitantes": 2571,
      "Min": 2572,
      "##esen": 2573,
      "pesos": 2574,
      "##adie": 2575,
      "##inar": 2576,
      "indu": 2577,
      "tenido": 2578,
      "artí": 2579,
      "Ja": 2580,
      "comen": 2581,
      "redu": 2582,
      "abs": 2583,
      "gar": 2584,
      "##pan": 2585,
      "##titud": 2586,
      "manifes": 2587,
      "arm": 2588,
      "gas": 2589,
      "##cid": 2590,
      "##sion": 2591,
      "conce": 2592,
      "declar": 2593,
      "tomar": 2594,
      "##ñana": 2595,
      "nes": 2596,
      "##iego": 2597,
      "mem": 2598,
      "##ús": 2599,
      "asegu": 2600,
      "aguas": 2601,
      "Gar": 2602,
      "circunst": 2603,
      "varios": 2604,
      "##zon": 2605,
      "Vic": 2606,
      "##cidos": 2607,
      "nueva": 2608,
      "trabajo": 2609,
      "##igui": 2610,
      "ejer": 2611,
      "idea": 2612,
      "voz": 2613,
      "desgra": 2614,
      "ello": 2615,
      "dad": 2616,
      "anim": 2617,
      "án": 2618,
      "pasar": 2619,
      "perten": 2620,
      "##eles": 2621,
      "lec": 2622,
      "desc": 2623,
      "triun": 2624,
      "abandon": 2625,
      "##zado": 2626,
      "vas": 2627,
      "##tran": 2628,
      "hijos": 2629,
      "##ban": 2630,
      "volun": 2631,
      "##eran": 2632,
      "##gust": 2633,
      "##onia": 2634,
      "será": 2635,
      "fil": 2636,
      "##ísimo": 2637,
      "divis": 2638,
      "fru": 2639,
      "##ron": 2640,
      "Manuel": 2641,
      "##rada": 2642,
      "luz": 2643,
      "Buenos": 2644,
      "disp": 2645,
      "América": 2646,
      "iglesia": 2647,
      "mad": 2648,
      "semej": 2649,
      "##ítulo": 2650,
      "##eb": 2651,
      "corri": 2652,
      "cit": 2653,
      "dif": 2654,
      "##TU": 2655,
      "DEL": 2656,
      "ejemp": 2657,
      "##rera": 2658,
      "Chile": 2659,
      "pueden": 2660,
      "Jo": 2661,
      "suer": 2662,
      "principio": 2663,
      "administ": 2664,
      "gal": 2665,
      "actu": 2666,
      "##ácter": 2667,
      "enfer": 2668,
      "##ema": 2669,
      "amigo": 2670,
      "nao": 2671,
      "esf": 2672,
      "ind": 2673,
      "ses": 2674,
      "##orme": 2675,
      "clase": 2676,
      "María": 2677,
      "##TO": 2678,
      "Pues": 2679,
      "Perú": 2680,
      "mismos": 2681,
      "coronel": 2682,
      "gu": 2683,
      "##yec": 2684,
      "mañana": 2685,
      "##denes": 2686,
      "lín": 2687,
      "espíritu": 2688,
      "##cto": 2689,
      "familia": 2690,
      "181": 2691,
      "ilust": 2692,
      "##amento": 2693,
      "todavía": 2694,
      "dol": 2695,
      "pesar": 2696,
      "##enci": 2697,
      "hu": 2698,
      "pronto": 2699,
      "##tió": 2700,
      "política": 2701,
      "id": 2702,
      "##ÓN": 2703,
      "pasa": 2704,
      "primeros": 2705,
      "secre": 2706,
      "justicia": 2707,
      "##vidu": 2708,
      "nuestras": 2709,
      "##eció": 2710,
      "bor": 2711,
      "##rim": 2712,
      "unas": 2713,
      "##onso": 2714,
      "##iano": 2715,
      "hacen": 2716,
      "segundo": 2717,
      "público": 2718,
      "Ale": 2719,
      "##éis": 2720,
      "somb": 2721,
      "obras": 2722,
      "##ende": 2723,
      "##rección": 2724,
      "gobernador": 2725,
      "28": 2726,
      "##ización": 2727,
      "##ulio": 2728,
      "pelig": 2729,
      "hos": 2730,
      "##ing": 2731,
      "llegó": 2732,
      "##iado": 2733,
      "26": 2734,
      "##iles": 2735,
      "igual": 2736,
      "sua": 2737,
      "##culos": 2738,
      "bastante": 2739,
      "##tá": 2740,
      "and": 2741,
      "##zó": 2742,
      "##ye": 2743,
      "Aires": 2744,
      "##cuencia": 2745,
      "##diendo": 2746,
      "pad": 2747,
      "condi": 2748,
      "Tor": 2749,
      "español": 2750,
      "palabras": 2751,
      "pasado": 2752,
      "descon": 2753,
      "##unto": 2754,
      "enc": 2755,
      "Pas": 2756,
      "##crip": 2757,
      "enemigos": 2758,
      "##vent": 2759,
      "##gó": 2760,
      "##quil": 2761,
      "sitio": 2762,
      "##ecido": 2763,
      "señal": 2764,
      "##inación": 2765,
      "Estados": 2766,
      "vie": 2767,
      "sangre": 2768,
      "ur": 2769,
      "bal": 2770,
      "obst": 2771,
      "len": 2772,
      "hora": 2773,
      "carácter": 2774,
      "27": 2775,
      "posible": 2776,
      "honor": 2777,
      "cat": 2778,
      "acompañ": 2779,
      "ori": 2780,
      "fo": 2781,
      "##ix": 2782,
      "desem": 2783,
      "##fe": 2784,
      "##óm": 2785,
      "jefe": 2786,
      "Mas": 2787,
      "palabra": 2788,
      "##posición": 2789,
      "Vil": 2790,
      "cie": 2791,
      "conci": 2792,
      "##clam": 2793,
      "aum": 2794,
      "cob": 2795,
      "preten": 2796,
      "individu": 2797,
      "perman": 2798,
      "dich": 2799,
      "deter": 2800,
      "tenía": 2801,
      "Una": 2802,
      "182": 2803,
      "##ola": 2804,
      "jeneral": 2805,
      "##uesta": 2806,
      "##éndose": 2807,
      "cuid": 2808,
      "ninguna": 2809,
      "pudo": 2810,
      "gen": 2811,
      "espa": 2812,
      "exten": 2813,
      "##ást": 2814,
      "marcha": 2815,
      "suerte": 2816,
      "the": 2817,
      "come": 2818,
      "sabe": 2819,
      "##irse": 2820,
      "comba": 2821,
      "fuego": 2822,
      "##ró": 2823,
      "sé": 2824,
      "Real": 2825,
      "##dias": 2826,
      "apre": 2827,
      "##iar": 2828,
      "iba": 2829,
      "##mentos": 2830,
      "noticia": 2831,
      "um": 2832,
      "ao": 2833,
      "prue": 2834,
      "monta": 2835,
      "media": 2836,
      "##atos": 2837,
      "##ilo": 2838,
      "ron": 2839,
      "principal": 2840,
      "lí": 2841,
      "##OL": 2842,
      "pocos": 2843,
      "viv": 2844,
      "##gna": 2845,
      "Du": 2846,
      "Fel": 2847,
      "##ioso": 2848,
      "##ecen": 2849,
      "##empos": 2850,
      "##ono": 2851,
      "estra": 2852,
      "##endencia": 2853,
      "recu": 2854,
      "pág": 2855,
      "halla": 2856,
      "##ciedad": 2857,
      "clar": 2858,
      "esas": 2859,
      "Madrid": 2860,
      "nadie": 2861,
      "leyes": 2862,
      "Ay": 2863,
      "##dem": 2864,
      "##tilla": 2865,
      "##cientos": 2866,
      "Rio": 2867,
      "Do": 2868,
      "costumb": 2869,
      "llan": 2870,
      "##rá": 2871,
      "nacional": 2872,
      "aleg": 2873,
      "arti": 2874,
      "llamado": 2875,
      "dan": 2876,
      "##turas": 2877,
      "##icios": 2878,
      "direc": 2879,
      "constru": 2880,
      "##rido": 2881,
      "din": 2882,
      "##dico": 2883,
      "##ORIA": 2884,
      "##tario": 2885,
      "Desp": 2886,
      "sist": 2887,
      "ren": 2888,
      "puerta": 2889,
      "nación": 2890,
      "Ah": 2891,
      "186": 2892,
      "##fico": 2893,
      "##rag": 2894,
      "har": 2895,
      "Hab": 2896,
      "vino": 2897,
      "##dez": 2898,
      "##ine": 2899,
      "Capit": 2900,
      "185": 2901,
      "##ientes": 2902,
      "##eres": 2903,
      "RE": 2904,
      "alto": 2905,
      "dentro": 2906,
      "##erro": 2907,
      "frances": 2908,
      "tam": 2909,
      "divers": 2910,
      "trans": 2911,
      "podia": 2912,
      "Ten": 2913,
      "Entre": 2914,
      "cómo": 2915,
      "Fe": 2916,
      "trist": 2917,
      "fuerte": 2918,
      "Euro": 2919,
      "Norte": 2920,
      "fuese": 2921,
      "haya": 2922,
      "##toria": 2923,
      "##andante": 2924,
      "Ob": 2925,
      "oficiales": 2926,
      "venta": 2927,
      "##icion": 2928,
      "##vel": 2929,
      "Carlos": 2930,
      "##inado": 2931,
      "tiempos": 2932,
      "HISTORIA": 2933,
      "veinte": 2934,
      "##eral": 2935,
      "expe": 2936,
      "##OM": 2937,
      "proce": 2938,
      "cia": 2939,
      "##rin": 2940,
      "servicio": 2941,
      "ocur": 2942,
      "##iga": 2943,
      "admi": 2944,
      "hechos": 2945,
      "hubo": 2946,
      "señores": 2947,
      "enter": 2948,
      "##íamos": 2949,
      "termin": 2950,
      "CAP": 2951,
      "dejar": 2952,
      "color": 2953,
      "órdenes": 2954,
      "##gal": 2955,
      "cur": 2956,
      "resist": 2957,
      "29": 2958,
      "tales": 2959,
      "motivo": 2960,
      "reco": 2961,
      "pública": 2962,
      "profun": 2963,
      "##cciones": 2964,
      "Pue": 2965,
      "Mig": 2966,
      "ima": 2967,
      "salir": 2968,
      "testi": 2969,
      "hicieron": 2970,
      "cho": 2971,
      "##dios": 2972,
      "horas": 2973,
      "##iva": 2974,
      "corre": 2975,
      "##ecía": 2976,
      "##din": 2977,
      "decre": 2978,
      "pod": 2979,
      "Minist": 2980,
      "##ficios": 2981,
      "gener": 2982,
      "Ori": 2983,
      "Monte": 2984,
      "##imientos": 2985,
      "repar": 2986,
      "pros": 2987,
      "papel": 2988,
      "batal": 2989,
      "ras": 2990,
      "fre": 2991,
      "Pla": 2992,
      "habiendo": 2993,
      "retir": 2994,
      "##efes": 2995,
      "ros": 2996,
      "tin": 2997,
      "pró": 2998,
      "especi": 2999,
      "proyec": 3000,
      "##lem": 3001,
      "terreno": 3002,
      "##quer": 3003,
      "##ridad": 3004,
      "##para": 3005,
      "lit": 3006,
      "Domin": 3007,
      "##ám": 3008,
      "anterior": 3009,
      "provincias": 3010,
      "##stitu": 3011,
      "cé": 3012,
      "az": 3013,
      "Así": 3014,
      "##uda": 3015,
      "pobre": 3016,
      "##laciones": 3017,
      "necesario": 3018,
      "quienes": 3019,
      "##be": 3020,
      "Miguel": 3021,
      "llevar": 3022,
      "Gua": 3023,
      "VI": 3024,
      "jam": 3025,
      "represent": 3026,
      "Tu": 3027,
      "Ta": 3028,
      "##rer": 3029,
      "ga": 3030,
      "bat": 3031,
      "##pt": 3032,
      "cad": 3033,
      "##ich": 3034,
      "Ra": 3035,
      "presidente": 3036,
      "pies": 3037,
      "##rito": 3038,
      "territorio": 3039,
      "propie": 3040,
      "EN": 3041,
      "varias": 3042,
      "##icip": 3043,
      "##yendo": 3044,
      "haciendo": 3045,
      "##TI": 3046,
      "##ror": 3047,
      "##ieran": 3048,
      "autoridad": 3049,
      "Presidente": 3050,
      "ví": 3051,
      "hablar": 3052,
      "ign": 3053,
      "prote": 3054,
      "##tica": 3055,
      "##ándole": 3056,
      "Santo": 3057,
      "Europa": 3058,
      "gol": 3059,
      "recor": 3060,
      "##tín": 3061,
      "necesidad": 3062,
      "vesti": 3063,
      "##tillo": 3064,
      "perfec": 3065,
      "##itas": 3066,
      "##eraciones": 3067,
      "III": 3068,
      "aux": 3069,
      "Fernando": 3070,
      "##ianza": 3071,
      "187": 3072,
      "amigos": 3073,
      "##ído": 3074,
      "##gosto": 3075,
      "##gü": 3076,
      "días": 3077,
      "largo": 3078,
      "##anes": 3079,
      "abund": 3080,
      "plata": 3081,
      "Cub": 3082,
      "comercio": 3083,
      "##rales": 3084,
      "interior": 3085,
      "Cruz": 3086,
      "##tus": 3087,
      "puso": 3088,
      "##ong": 3089,
      "cabo": 3090,
      "##alacio": 3091,
      "reino": 3092,
      "permi": 3093,
      "##icación": 3094,
      "##gáo": 3095,
      "propor": 3096,
      "##tico": 3097,
      "trad": 3098,
      "especie": 3099,
      "50": 3100,
      "puntos": 3101,
      "trib": 3102,
      "corazón": 3103,
      "perió": 3104,
      "##ut": 3105,
      "tas": 3106,
      "tur": 3107,
      "##onz": 3108,
      "##iéndose": 3109,
      "Go": 3110,
      "Her": 3111,
      "Pre": 3112,
      "magn": 3113,
      "31": 3114,
      "##rab": 3115,
      "Era": 3116,
      "sacri": 3117,
      "situación": 3118,
      "suel": 3119,
      "##ges": 3120,
      "##pir": 3121,
      "colum": 3122,
      "184": 3123,
      "americ": 3124,
      "##rey": 3125,
      "nave": 3126,
      "sem": 3127,
      "##ísima": 3128,
      "Desde": 3129,
      "pan": 3130,
      "##iosa": 3131,
      "bos": 3132,
      "##hu": 3133,
      "organ": 3134,
      "fá": 3135,
      "superior": 3136,
      "capa": 3137,
      "tantos": 3138,
      "##taban": 3139,
      "joven": 3140,
      "cuesti": 3141,
      "##DO": 3142,
      "Sur": 3143,
      "Ve": 3144,
      "183": 3145,
      "dign": 3146,
      "acep": 3147,
      "##orio": 3148,
      "##ite": 3149,
      "madre": 3150,
      "Villa": 3151,
      "libre": 3152,
      "cargo": 3153,
      "##tán": 3154,
      "##lores": 3155,
      "bril": 3156,
      "meses": 3157,
      "volver": 3158,
      "simp": 3159,
      "##ipe": 3160,
      "apenas": 3161,
      "eu": 3162,
      "gl": 3163,
      "recur": 3164,
      "expres": 3165,
      "elev": 3166,
      "dom": 3167,
      "impos": 3168,
      "Congreso": 3169,
      "vues": 3170,
      "influ": 3171,
      "##aro": 3172,
      "mais": 3173,
      "Ap": 3174,
      "principales": 3175,
      "##tidad": 3176,
      "##íos": 3177,
      "suelo": 3178,
      "##ortun": 3179,
      "##isa": 3180,
      "siete": 3181,
      "Bol": 3182,
      "##xic": 3183,
      "##CA": 3184,
      "##cimientos": 3185,
      "Qu": 3186,
      "ev": 3187,
      "##tades": 3188,
      "quiere": 3189,
      "##ivo": 3190,
      "##illas": 3191,
      "##dal": 3192,
      "##tivas": 3193,
      "##zan": 3194,
      "rob": 3195,
      "vig": 3196,
      "##inta": 3197,
      "prob": 3198,
      "lig": 3199,
      "##CIÓN": 3200,
      "im": 3201,
      "árb": 3202,
      "debia": 3203,
      "alguno": 3204,
      "##jero": 3205,
      "propio": 3206,
      "##CION": 3207,
      "auxil": 3208,
      "patrio": 3209,
      "corte": 3210,
      "Hist": 3211,
      "ec": 3212,
      "nar": 3213,
      "entrar": 3214,
      "conti": 3215,
      "docu": 3216,
      "ideas": 3217,
      "##ts": 3218,
      "Ver": 3219,
      "aún": 3220,
      "Pal": 3221,
      "##bel": 3222,
      "sue": 3223,
      "concur": 3224,
      "Ci": 3225,
      "##gla": 3226,
      "separ": 3227,
      "segunda": 3228,
      "lin": 3229,
      "mandó": 3230,
      "Gal": 3231,
      "sola": 3232,
      "pen": 3233,
      "lim": 3234,
      "inten": 3235,
      "AL": 3236,
      "seria": 3237,
      "llegado": 3238,
      "##lara": 3239,
      "naturaleza": 3240,
      "##guido": 3241,
      "##mino": 3242,
      "llama": 3243,
      "conquist": 3244,
      "jue": 3245,
      "tengo": 3246,
      "40": 3247,
      "dipu": 3248,
      "adelante": 3249,
      "vecinos": 3250,
      "pra": 3251,
      "##gel": 3252,
      "##lin": 3253,
      "antiguo": 3254,
      "Nueva": 3255,
      "##erra": 3256,
      "revolución": 3257,
      "##ildo": 3258,
      "tribu": 3259,
      "##tismo": 3260,
      "##cipe": 3261,
      "instru": 3262,
      "Lib": 3263,
      "indust": 3264,
      "tanta": 3265,
      "respecto": 3266,
      "##iedo": 3267,
      "empez": 3268,
      "dando": 3269,
      "línea": 3270,
      "hallar": 3271,
      "ense": 3272,
      "##tarse": 3273,
      "##diente": 3274,
      "##jeros": 3275,
      "noble": 3276,
      "##till": 3277,
      "oc": 3278,
      "##pre": 3279,
      "##lico": 3280,
      "ech": 3281,
      "##iere": 3282,
      "jui": 3283,
      "conocer": 3284,
      "amar": 3285,
      "prepar": 3286,
      "##jado": 3287,
      "prove": 3288,
      "##dieron": 3289,
      "maes": 3290,
      "cielo": 3291,
      "Esto": 3292,
      "Cuba": 3293,
      "escla": 3294,
      "podido": 3295,
      "casti": 3296,
      "##ajo": 3297,
      "derechos": 3298,
      "obe": 3299,
      "arte": 3300,
      "##esión": 3301,
      "##adamente": 3302,
      "empe": 3303,
      "##ame": 3304,
      "##rios": 3305,
      "##imas": 3306,
      "perse": 3307,
      "##ctubre": 3308,
      "ningún": 3309,
      "eleg": 3310,
      "sociedad": 3311,
      "Martin": 3312,
      "medios": 3313,
      "viaje": 3314,
      "Provin": 3315,
      "##one": 3316,
      "Diego": 3317,
      "##tiembre": 3318,
      "consigui": 3319,
      "ingles": 3320,
      "mujeres": 3321,
      "sistema": 3322,
      "habl": 3323,
      "distancia": 3324,
      "##terra": 3325,
      "##áp": 3326,
      "oril": 3327,
      "Del": 3328,
      "IV": 3329,
      "conver": 3330,
      "sorp": 3331,
      "##zco": 3332,
      "##ósito": 3333,
      "vio": 3334,
      "sign": 3335,
      "Be": 3336,
      "circunstancias": 3337,
      "##lla": 3338,
      "Después": 3339,
      "añ": 3340,
      "compr": 3341,
      "fácil": 3342,
      "calles": 3343,
      "rode": 3344,
      "He": 3345,
      "Ven": 3346,
      "viol": 3347,
      "movimiento": 3348,
      "##iamente": 3349,
      "conserv": 3350,
      "##pol": 3351,
      "ng̃a": 3352,
      "memoria": 3353,
      "##aso": 3354,
      "##tero": 3355,
      "Jes": 3356,
      "Sus": 3357,
      "gloria": 3358,
      "##quis": 3359,
      "Puer": 3360,
      "Dr": 3361,
      "##arias": 3362,
      "principios": 3363,
      "fondo": 3364,
      "batalla": 3365,
      "esfuer": 3366,
      "za": 3367,
      "arreg": 3368,
      "##ficul": 3369,
      "##didos": 3370,
      "##TULO": 3371,
      "arrib": 3372,
      "Ingla": 3373,
      "ambos": 3374,
      "trabajos": 3375,
      "SE": 3376,
      "##ice": 3377,
      "##rible": 3378,
      "gusto": 3379,
      "##iosos": 3380,
      "voluntad": 3381,
      "Sol": 3382,
      "última": 3383,
      "fort": 3384,
      "centro": 3385,
      "opinión": 3386,
      "libro": 3387,
      "##entado": 3388,
      "##udo": 3389,
      "Ber": 3390,
      "##DI": 3391,
      "absolu": 3392,
      "##cían": 3393,
      "extran": 3394,
      "indic": 3395,
      "dul": 3396,
      "##ill": 3397,
      "defensa": 3398,
      "##esa": 3399,
      "iz": 3400,
      "qual": 3401,
      "inmedia": 3402,
      "##mir": 3403,
      "Domingo": 3404,
      "gui": 3405,
      "Carta": 3406,
      "importancia": 3407,
      "boca": 3408,
      "procur": 3409,
      "##fac": 3410,
      "##ierta": 3411,
      "ado": 3412,
      "lengua": 3413,
      "prision": 3414,
      "vos": 3415,
      "cuyos": 3416,
      "salió": 3417,
      "##tri": 3418,
      "ministro": 3419,
      "colon": 3420,
      "coloc": 3421,
      "piedra": 3422,
      "##ade": 3423,
      "##tera": 3424,
      "##bles": 3425,
      "virtud": 3426,
      "lejos": 3427,
      "determin": 3428,
      "##rero": 3429,
      "contrario": 3430,
      "seguir": 3431,
      "acto": 3432,
      "queda": 3433,
      "avan": 3434,
      "##este": 3435,
      "incon": 3436,
      "##poner": 3437,
      "mez": 3438,
      "Imp": 3439,
      "##arro": 3440,
      "dificul": 3441,
      "##orma": 3442,
      "Julio": 3443,
      "##ivers": 3444,
      "entrada": 3445,
      "menor": 3446,
      "fecha": 3447,
      "tambien": 3448,
      "##erador": 3449,
      "##gación": 3450,
      "quedó": 3451,
      "##erto": 3452,
      "mater": 3453,
      "numeros": 3454,
      "demas": 3455,
      "##tadas": 3456,
      "deber": 3457,
      "vent": 3458,
      "Crist": 3459,
      "##rique": 3460,
      "atre": 3461,
      "ben": 3462,
      "tir": 3463,
      "preciso": 3464,
      "bene": 3465,
      "ocasión": 3466,
      "Gobern": 3467,
      "pelo": 3468,
      "##umb": 3469,
      "noticias": 3470,
      "Felipe": 3471,
      "derro": 3472,
      "##tamiento": 3473,
      "elem": 3474,
      "celeb": 3475,
      "##xo": 3476,
      "expedi": 3477,
      "repe": 3478,
      "##eas": 3479,
      "cole": 3480,
      "moder": 3481,
      "Cór": 3482,
      "antigua": 3483,
      "rique": 3484,
      "##anto": 3485,
      "cañ": 3486,
      "despa": 3487,
      "multi": 3488,
      "Gonz": 3489,
      "ep": 3490,
      "##trar": 3491,
      "adem": 3492,
      "resultado": 3493,
      "##ale": 3494,
      "asist": 3495,
      "según": 3496,
      "quis": 3497,
      "equi": 3498,
      "Inglaterra": 3499,
      "común": 3500,
      "##idor": 3501,
      "caballos": 3502,
      "##UN": 3503,
      "Id": 3504,
      "##EL": 3505,
      "pose": 3506,
      "Ac": 3507,
      "##gía": 3508,
      "cruz": 3509,
      "Guad": 3510,
      "ocul": 3511,
      "único": 3512,
      "##qué": 3513,
      "dieron": 3514,
      "suje": 3515,
      "188": 3516,
      "conte": 3517,
      "altura": 3518,
      "mé": 3519,
      "##lez": 3520,
      "diri": 3521,
      "aj": 3522,
      "##partam": 3523,
      "cau": 3524,
      "lla": 3525,
      "ber": 3526,
      "LOS": 3527,
      "##ianos": 3528,
      "lic": 3529,
      "##ram": 3530,
      "Ram": 3531,
      "Unidos": 3532,
      "conser": 3533,
      "caballo": 3534,
      "##IS": 3535,
      "servir": 3536,
      "##elas": 3537,
      "##ime": 3538,
      "Emp": 3539,
      "##ierro": 3540,
      "##ñar": 3541,
      "avis": 3542,
      "be": 3543,
      "independencia": 3544,
      "Za": 3545,
      "##pl": 3546,
      "##teriores": 3547,
      "##uña": 3548,
      "término": 3549,
      "##III": 3550,
      "próx": 3551,
      "ran": 3552,
      "edad": 3553,
      "ejemplo": 3554,
      "##iana": 3555,
      "rios": 3556,
      "encuentra": 3557,
      "##tería": 3558,
      "##ulo": 3559,
      "amena": 3560,
      "conc": 3561,
      "doctor": 3562,
      "tierras": 3563,
      "ram": 3564,
      "XV": 3565,
      "sust": 3566,
      "gén": 3567,
      "##ablo": 3568,
      "treinta": 3569,
      "uso": 3570,
      "dirección": 3571,
      "arre": 3572,
      "doc": 3573,
      "##idencia": 3574,
      "sober": 3575,
      "inmedi": 3576,
      "mexic": 3577,
      "##pia": 3578,
      "muerto": 3579,
      "##trodu": 3580,
      "además": 3581,
      "##ír": 3582,
      "##nes": 3583,
      "##gl": 3584,
      "imper": 3585,
      "IN": 3586,
      "valle": 3587,
      "##graf": 3588,
      "Ben": 3589,
      "Res": 3590,
      "dicen": 3591,
      "##zones": 3592,
      "reme": 3593,
      "##ERA": 3594,
      "dinero": 3595,
      "Ad": 3596,
      "hom": 3597,
      "mit": 3598,
      "##villa": 3599,
      "sac": 3600,
      "##elos": 3601,
      "demos": 3602,
      "cuyas": 3603,
      "Cap": 3604,
      "##pez": 3605,
      "tomó": 3606,
      "quo": 3607,
      "Ho": 3608,
      "aconte": 3609,
      "##uca": 3610,
      "dur": 3611,
      "Lima": 3612,
      "##ablemente": 3613,
      "camp": 3614,
      "impres": 3615,
      "revolu": 3616,
      "urna": 3617,
      "ésta": 3618,
      "hallaba": 3619,
      "##brero": 3620,
      "bon": 3621,
      "Castilla": 3622,
      "32": 3623,
      "pié": 3624,
      "olvid": 3625,
      "hermano": 3626,
      "##enso": 3627,
      "Cos": 3628,
      "##onse": 3629,
      "oficial": 3630,
      "Cort": 3631,
      "##igu": 3632,
      "comb": 3633,
      "pasó": 3634,
      "río": 3635,
      "pul": 3636,
      "señora": 3637,
      "desapar": 3638,
      "##legio": 3639,
      "Roma": 3640,
      "ín": 3641,
      "pene": 3642,
      "título": 3643,
      "seguida": 3644,
      "extre": 3645,
      "representa": 3646,
      "Vir": 3647,
      "deben": 3648,
      "##poco": 3649,
      "despues": 3650,
      "conducta": 3651,
      "##pecto": 3652,
      "march": 3653,
      "sepul": 3654,
      "podía": 3655,
      "recibir": 3656,
      "Ital": 3657,
      "glor": 3658,
      "nota": 3659,
      "##viembre": 3660,
      "consecuencia": 3661,
      "ignor": 3662,
      "35": 3663,
      "Ser": 3664,
      "naturales": 3665,
      "##ICO": 3666,
      "solem": 3667,
      "##uras": 3668,
      "atención": 3669,
      "##tiles": 3670,
      "due": 3671,
      "agrad": 3672,
      "reales": 3673,
      "facul": 3674,
      "hubiese": 3675,
      "división": 3676,
      "##vio": 3677,
      "Pueb": 3678,
      "##cidas": 3679,
      "cualquiera": 3680,
      "solici": 3681,
      "ciones": 3682,
      "sar": 3683,
      "aus": 3684,
      "campaña": 3685,
      "##ré": 3686,
      "norte": 3687,
      "gru": 3688,
      "##endido": 3689,
      "empren": 3690,
      "##jico": 3691,
      "33": 3692,
      "aqui": 3693,
      "despe": 3694,
      "Dpt": 3695,
      "afec": 3696,
      "Os": 3697,
      "##sul": 3698,
      "Vera": 3699,
      "ple": 3700,
      "exig": 3701,
      "fron": 3702,
      "rebel": 3703,
      "fies": 3704,
      "##iti": 3705,
      "ocupa": 3706,
      "##ardo": 3707,
      "recom": 3708,
      "##ila": 3709,
      "creer": 3710,
      "dig": 3711,
      "##dencia": 3712,
      "pena": 3713,
      "mol": 3714,
      "##lio": 3715,
      "fortuna": 3716,
      "sean": 3717,
      "Todo": 3718,
      "buenos": 3719,
      "titu": 3720,
      "templo": 3721,
      "Mer": 3722,
      "conde": 3723,
      "##rias": 3724,
      "propia": 3725,
      "##isco": 3726,
      "Cha": 3727,
      "Mayo": 3728,
      "tantas": 3729,
      "dolor": 3730,
      "especial": 3731,
      "aprove": 3732,
      "origen": 3733,
      "prueba": 3734,
      "##anzas": 3735,
      "introdu": 3736,
      "admir": 3737,
      "observa": 3738,
      "notable": 3739,
      "Bel": 3740,
      "##zaba": 3741,
      "Ni": 3742,
      "Tom": 3743,
      "colo": 3744,
      "##arlo": 3745,
      "salva": 3746,
      "salud": 3747,
      "hija": 3748,
      "##tivamente": 3749,
      "adqui": 3750,
      "##gent": 3751,
      "allá": 3752,
      "Ce": 3753,
      "##tarios": 3754,
      "##íncipe": 3755,
      "exac": 3756,
      "Guer": 3757,
      "##cados": 3758,
      "##vol": 3759,
      "##ENT": 3760,
      "##th": 3761,
      "##iste": 3762,
      "daba": 3763,
      "##iencia": 3764,
      "##ifica": 3765,
      "##gio": 3766,
      "Tal": 3767,
      "artill": 3768,
      "siguientes": 3769,
      "ass": 3770,
      "##cí": 3771,
      "##bal": 3772,
      "Gobernador": 3773,
      "junto": 3774,
      "Alonso": 3775,
      "cla": 3776,
      "gr": 3777,
      "observ": 3778,
      "CON": 3779,
      "pueda": 3780,
      "##izado": 3781,
      "aire": 3782,
      "tendr": 3783,
      "ens": 3784,
      "##gada": 3785,
      "sentido": 3786,
      "##ciales": 3787,
      "ES": 3788,
      "tenían": 3789,
      "has": 3790,
      "buques": 3791,
      "doce": 3792,
      "Iglesia": 3793,
      "##óse": 3794,
      "naciones": 3795,
      "Hay": 3796,
      "sum": 3797,
      "antiguos": 3798,
      "Gui": 3799,
      "##tidos": 3800,
      "##tenido": 3801,
      "entus": 3802,
      "##jen": 3803,
      "conquista": 3804,
      "actual": 3805,
      "arb": 3806,
      "cantidad": 3807,
      "acción": 3808,
      "regres": 3809,
      "Sta": 3810,
      "Constitu": 3811,
      "Fr": 3812,
      "comisión": 3813,
      "izquier": 3814,
      "solamente": 3815,
      "intelig": 3816,
      "Aust": 3817,
      "##monio": 3818,
      "##lad": 3819,
      "##tón": 3820,
      "Bal": 3821,
      "##icamente": 3822,
      "escuad": 3823,
      "tenian": 3824,
      "##yen": 3825,
      "enci": 3826,
      "Italia": 3827,
      "Ur": 3828,
      "destru": 3829,
      "##zada": 3830,
      "esca": 3831,
      "municip": 3832,
      "Pon": 3833,
      "PA": 3834,
      "##ches": 3835,
      "Bra": 3836,
      "##ERO": 3837,
      "##encio": 3838,
      "##entemente": 3839,
      "histó": 3840,
      "Lor": 3841,
      "compon": 3842,
      "imperio": 3843,
      "buscar": 3844,
      "agu": 3845,
      "##eda": 3846,
      "##tró": 3847,
      "##idi": 3848,
      "##abri": 3849,
      "##bu": 3850,
      "##pado": 3851,
      "Ter": 3852,
      "culti": 3853,
      "impe": 3854,
      "acuerdo": 3855,
      "100": 3856,
      "fus": 3857,
      "dor": 3858,
      "dob": 3859,
      "dejó": 3860,
      "##tem": 3861,
      "presencia": 3862,
      "##dill": 3863,
      "##tales": 3864,
      "##tables": 3865,
      "Lugo": 3866,
      "mayores": 3867,
      "volvió": 3868,
      "Cortés": 3869,
      "tropa": 3870,
      "acos": 3871,
      "##riendo": 3872,
      "Mat": 3873,
      "##tador": 3874,
      "regular": 3875,
      "Mr": 3876,
      "dejando": 3877,
      "##isión": 3878,
      "entra": 3879,
      "36": 3880,
      "##iesen": 3881,
      "formar": 3882,
      "##DA": 3883,
      "exam": 3884,
      "comandante": 3885,
      "resol": 3886,
      "embar": 3887,
      "Aun": 3888,
      "Esc": 3889,
      "asunto": 3890,
      "##gados": 3891,
      "individuos": 3892,
      "Nic": 3893,
      "Esp": 3894,
      "mara": 3895,
      "##jan": 3896,
      "##tur": 3897,
      "Sob": 3898,
      "oscu": 3899,
      "desen": 3900,
      "León": 3901,
      "ale": 3902,
      "bienes": 3903,
      "##tz": 3904,
      "verific": 3905,
      "##ure": 3906,
      "cha": 3907,
      "diferentes": 3908,
      "moral": 3909,
      "semejante": 3910,
      "recibido": 3911,
      "##hib": 3912,
      "Tamb": 3913,
      "viene": 3914,
      "##ted": 3915,
      "divi": 3916,
      "facil": 3917,
      "alta": 3918,
      "##arle": 3919,
      "intereses": 3920,
      "##jó": 3921,
      "pér": 3922,
      "cru": 3923,
      "tratado": 3924,
      "palacio": 3925,
      "contribu": 3926,
      "reti": 3927,
      "cambio": 3928,
      "##ines": 3929,
      "##IA": 3930,
      "Mun": 3931,
      "ast": 3932,
      "nas": 3933,
      "pus": 3934,
      "##ácti": 3935,
      "oficio": 3936,
      "##lante": 3937,
      "jefes": 3938,
      "##tl": 3939,
      "junta": 3940,
      "##cidad": 3941,
      "padres": 3942,
      "lleva": 3943,
      "guarn": 3944,
      "##remos": 3945,
      "##lea": 3946,
      "##té": 3947,
      "pequeña": 3948,
      "convento": 3949,
      "##zob": 3950,
      "ciudades": 3951,
      "espacio": 3952,
      "acerca": 3953,
      "nie": 3954,
      "metros": 3955,
      "##asen": 3956,
      "##ICA": 3957,
      "ases": 3958,
      "infer": 3959,
      "últimos": 3960,
      "faz": 3961,
      "34": 3962,
      "##ori": 3963,
      "##rieron": 3964,
      "existencia": 3965,
      "XX": 3966,
      "##ámara": 3967,
      "presenta": 3968,
      "difí": 3969,
      "##ices": 3970,
      "Pan": 3971,
      "triste": 3972,
      "##uc": 3973,
      "famos": 3974,
      "inmediat": 3975,
      "##uco": 3976,
      "derecha": 3977,
      "escrito": 3978,
      "##tida": 3979,
      "interés": 3980,
      "vd": 3981,
      "All": 3982,
      "delante": 3983,
      "ge": 3984,
      "Méjico": 3985,
      "rum": 3986,
      "dichos": 3987,
      "iban": 3988,
      "180": 3989,
      "Alf": 3990,
      "SAN": 3991,
      "##rano": 3992,
      "##érez": 3993,
      "AN": 3994,
      "##vido": 3995,
      "Cá": 3996,
      "acaso": 3997,
      "##UM": 3998,
      "república": 3999,
      "th": 4000,
      "empresa": 4001,
      "##ocu": 4002,
      "relación": 4003,
      "impor": 4004,
      "##ment": 4005,
      "már": 4006,
      "fer": 4007,
      "Maria": 4008,
      "##sas": 4009,
      "perder": 4010,
      "Ciudad": 4011,
      "##abana": 4012,
      "céle": 4013,
      "pequeño": 4014,
      "Historia": 4015,
      "Indias": 4016,
      "tenemos": 4017,
      "Puerto": 4018,
      "insur": 4019,
      "##are": 4020,
      "##tion": 4021,
      "##cuenta": 4022,
      "##dito": 4023,
      "Va": 4024,
      "pier": 4025,
      "doña": 4026,
      "jamás": 4027,
      "popul": 4028,
      "nombres": 4029,
      "##yeron": 4030,
      "hacienda": 4031,
      "##erías": 4032,
      "decreto": 4033,
      "incl": 4034,
      "Ne": 4035,
      "cel": 4036,
      "publica": 4037,
      "##yor": 4038,
      "nueve": 4039,
      "Hu": 4040,
      "##CO": 4041,
      "pudiera": 4042,
      "concl": 4043,
      "triunfo": 4044,
      "soy": 4045,
      "parecer": 4046,
      "lucha": 4047,
      "mismas": 4048,
      "##dicos": 4049,
      "cura": 4050,
      "cuidado": 4051,
      "##ctos": 4052,
      "ador": 4053,
      "verdadero": 4054,
      "Pr": 4055,
      "##arla": 4056,
      "##DE": 4057,
      "importante": 4058,
      "##IV": 4059,
      "##ezas": 4060,
      "nom": 4061,
      "dedic": 4062,
      "grave": 4063,
      "log": 4064,
      "combate": 4065,
      "juris": 4066,
      "recursos": 4067,
      "quedar": 4068,
      "seu": 4069,
      "##éase": 4070,
      "llen": 4071,
      "##ordin": 4072,
      "islas": 4073,
      "##guay": 4074,
      "prome": 4075,
      "pec": 4076,
      "española": 4077,
      "apoder": 4078,
      "arriba": 4079,
      "##tific": 4080,
      "imag": 4081,
      "juicio": 4082,
      "##cionales": 4083,
      "cualquier": 4084,
      "alar": 4085,
      "institu": 4086,
      "poca": 4087,
      "precis": 4088,
      "terc": 4089,
      "ciento": 4090,
      "batall": 4091,
      "some": 4092,
      "caracter": 4093,
      "Martín": 4094,
      "quiso": 4095,
      "evitar": 4096,
      "45": 4097,
      "##itud": 4098,
      "Oc": 4099,
      "concep": 4100,
      "pagar": 4101,
      "edificio": 4102,
      "tampoco": 4103,
      "##óg": 4104,
      "firm": 4105,
      "Pu": 4106,
      "Dia": 4107,
      "mencion": 4108,
      "Ga": 4109,
      "mg̃a": 4110,
      "##ruir": 4111,
      "##tiendo": 4112,
      "##iéndo": 4113,
      "##cando": 4114,
      "Cat": 4115,
      "consul": 4116,
      "##ibles": 4117,
      "proclam": 4118,
      "##rum": 4119,
      "bur": 4120,
      "nuevas": 4121,
      "##ierra": 4122,
      "gentes": 4123,
      "##ini": 4124,
      "querido": 4125,
      "peligro": 4126,
      "##sp": 4127,
      "costumbres": 4128,
      "recibió": 4129,
      "eter": 4130,
      "37": 4131,
      "repu": 4132,
      "##grá": 4133,
      "felici": 4134,
      "##guen": 4135,
      "Il": 4136,
      "militares": 4137,
      "##up": 4138,
      "ingen": 4139,
      "total": 4140,
      "susp": 4141,
      "##etas": 4142,
      "Mag": 4143,
      "##diencia": 4144,
      "##stas": 4145,
      "cen": 4146,
      "##cés": 4147,
      "##rasil": 4148,
      "nuevos": 4149,
      "encontrar": 4150,
      "añad": 4151,
      "llaman": 4152,
      "materia": 4153,
      "entusias": 4154,
      "Vd": 4155,
      "Todos": 4156,
      "apres": 4157,
      "dió": 4158,
      "##idores": 4159,
      "juz": 4160,
      "compañía": 4161,
      "##venir": 4162,
      "confianza": 4163,
      "necesit": 4164,
      "má": 4165,
      "feliz": 4166,
      "artículo": 4167,
      "##quez": 4168,
      "franceses": 4169,
      "##LE": 4170,
      "siglos": 4171,
      "Portu": 4172,
      "Ros": 4173,
      "figura": 4174,
      "lugares": 4175,
      "##cada": 4176,
      "creo": 4177,
      "##cación": 4178,
      "aspecto": 4179,
      "pode": 4180,
      "##uno": 4181,
      "propósito": 4182,
      "deseo": 4183,
      "tuvieron": 4184,
      "##tol": 4185,
      "div": 4186,
      "obser": 4187,
      "discur": 4188,
      "teniente": 4189,
      "##ane": 4190,
      "euro": 4191,
      "cierta": 4192,
      "larga": 4193,
      "relaciones": 4194,
      "dios": 4195,
      "##onal": 4196,
      "satisfac": 4197,
      "cincuenta": 4198,
      "##minos": 4199,
      "seguro": 4200,
      "espec": 4201,
      "descan": 4202,
      "##dras": 4203,
      "obstante": 4204,
      "mill": 4205,
      "jar": 4206,
      "mala": 4207,
      "artillería": 4208,
      "desarro": 4209,
      "Ministro": 4210,
      "##endiente": 4211,
      "Capitán": 4212,
      "##siones": 4213,
      "##erna": 4214,
      "##quía": 4215,
      "refle": 4216,
      "mag": 4217,
      "##xim": 4218,
      "##vado": 4219,
      "Mal": 4220,
      "sucesos": 4221,
      "##idade": 4222,
      "ayud": 4223,
      "##rán": 4224,
      "Son": 4225,
      "brazos": 4226,
      "Ov": 4227,
      "Abril": 4228,
      "ora": 4229,
      "flores": 4230,
      "fac": 4231,
      "gracias": 4232,
      "montañas": 4233,
      "Coronel": 4234,
      "habla": 4235,
      "ja": 4236,
      "protes": 4237,
      "mist": 4238,
      "resp": 4239,
      "##taciones": 4240,
      "##IO": 4241,
      "##rón": 4242,
      "##chi": 4243,
      "miento": 4244,
      "sufici": 4245,
      "condiciones": 4246,
      "Agosto": 4247,
      "##lada": 4248,
      "sul": 4249,
      "38": 4250,
      "costas": 4251,
      "##gi": 4252,
      "##didas": 4253,
      "##ber": 4254,
      "sigue": 4255,
      "sacar": 4256,
      "conocido": 4257,
      "prácti": 4258,
      "peligros": 4259,
      "declara": 4260,
      "servicios": 4261,
      "supre": 4262,
      "##usión": 4263,
      "sería": 4264,
      "bol": 4265,
      "político": 4266,
      "conclu": 4267,
      "sorpren": 4268,
      "##uestos": 4269,
      "términos": 4270,
      "AR": 4271,
      "alim": 4272,
      "Rec": 4273,
      "##viese": 4274,
      "Bern": 4275,
      "triunf": 4276,
      "##ccion": 4277,
      "Art": 4278,
      "##ph": 4279,
      "suma": 4280,
      "flor": 4281,
      "ninguno": 4282,
      "Valencia": 4283,
      "##tellan": 4284,
      "tú": 4285,
      "Sevilla": 4286,
      "proces": 4287,
      "ejerci": 4288,
      "Granada": 4289,
      "##cerdo": 4290,
      "Estos": 4291,
      "García": 4292,
      "##raba": 4293,
      "discu": 4294,
      "##cepción": 4295,
      "##adora": 4296,
      "blanco": 4297,
      "##au": 4298,
      "60": 4299,
      "deja": 4300,
      "teniendo": 4301,
      "familias": 4302,
      "Có": 4303,
      "##lares": 4304,
      "Au": 4305,
      "éstos": 4306,
      "Tra": 4307,
      "obispo": 4308,
      "manda": 4309,
      "##tuvo": 4310,
      "##quia": 4311,
      "exper": 4312,
      "Conse": 4313,
      "breve": 4314,
      "árboles": 4315,
      "Córdo": 4316,
      "resuel": 4317,
      "##ledo": 4318,
      "imposible": 4319,
      "##ém": 4320,
      "decia": 4321,
      "Dici": 4322,
      "izquierda": 4323,
      "##rico": 4324,
      "##mania": 4325,
      "estuvo": 4326,
      "momentos": 4327,
      "##jada": 4328,
      "fáb": 4329,
      "##rigo": 4330,
      "quiera": 4331,
      "LI": 4332,
      "##endas": 4333,
      "apla": 4334,
      "muertos": 4335,
      "atraves": 4336,
      "género": 4337,
      "adop": 4338,
      "llega": 4339,
      "debía": 4340,
      "campos": 4341,
      "##sar": 4342,
      "siquiera": 4343,
      "Porque": 4344,
      "##iscal": 4345,
      "seguridad": 4346,
      "##íst": 4347,
      "##pira": 4348,
      "murió": 4349,
      "ido": 4350,
      "trata": 4351,
      "##si": 4352,
      "monum": 4353,
      "tomado": 4354,
      "funda": 4355,
      "acord": 4356,
      "proyecto": 4357,
      "42": 4358,
      "generales": 4359,
      "grado": 4360,
      "Bur": 4361,
      "conserva": 4362,
      "europe": 4363,
      "teatro": 4364,
      "##terio": 4365,
      "afir": 4366,
      "pronunci": 4367,
      "Cre": 4368,
      "administración": 4369,
      "arran": 4370,
      "##umbre": 4371,
      "inform": 4372,
      "Pat": 4373,
      "Joa": 4374,
      "mitad": 4375,
      "##ferencia": 4376,
      "enseñ": 4377,
      "sencil": 4378,
      "39": 4379,
      "descono": 4380,
      "remi": 4381,
      "haberse": 4382,
      "méri": 4383,
      "corona": 4384,
      "aver": 4385,
      "conocimiento": 4386,
      "esco": 4387,
      "##itado": 4388,
      "##guna": 4389,
      "manifies": 4390,
      "ali": 4391,
      "##radas": 4392,
      "##abilidad": 4393,
      "##áis": 4394,
      "##jeron": 4395,
      "diciendo": 4396,
      "##endientes": 4397,
      "socor": 4398,
      "desgraci": 4399,
      "Junio": 4400,
      "rem": 4401,
      "##ienen": 4402,
      "##dón": 4403,
      "##dado": 4404,
      "##PA": 4405,
      "##iosas": 4406,
      "##aría": 4407,
      "quién": 4408,
      "ost": 4409,
      "posición": 4410,
      "500": 4411,
      "medida": 4412,
      "hacía": 4413,
      "##inal": 4414,
      "pobres": 4415,
      "conj": 4416,
      "##eren": 4417,
      "##ramos": 4418,
      "##isla": 4419,
      "cuestión": 4420,
      "Blan": 4421,
      "##ático": 4422,
      "acre": 4423,
      "siti": 4424,
      "##lesi": 4425,
      "reclam": 4426,
      "##úb": 4427,
      "##cripción": 4428,
      "ine": 4429,
      "oportun": 4430,
      "bueno": 4431,
      "curso": 4432,
      "edu": 4433,
      "Enero": 4434,
      "caballería": 4435,
      "Octubre": 4436,
      "##guez": 4437,
      "tab": 4438,
      "##uelas": 4439,
      "practi": 4440,
      "Hern": 4441,
      "enga": 4442,
      "##trás": 4443,
      "caballero": 4444,
      "##entan": 4445,
      "tratar": 4446,
      "existe": 4447,
      "causas": 4448,
      "Españ": 4449,
      "Austria": 4450,
      "200": 4451,
      "##unda": 4452,
      "jó": 4453,
      "pedir": 4454,
      "Vi": 4455,
      "lad": 4456,
      "contemp": 4457,
      "miemb": 4458,
      "semb": 4459,
      "##emente": 4460,
      "vuestra": 4461,
      "mandar": 4462,
      "silencio": 4463,
      "##tres": 4464,
      "santa": 4465,
      "industria": 4466,
      "algu": 4467,
      "venido": 4468,
      "cuerpos": 4469,
      "morir": 4470,
      "Sar": 4471,
      "resto": 4472,
      "victoria": 4473,
      "Andr": 4474,
      "negro": 4475,
      "##gues": 4476,
      "Enton": 4477,
      "tus": 4478,
      "cuantos": 4479,
      "##entales": 4480,
      "puertas": 4481,
      "Padre": 4482,
      "fan": 4483,
      "Doña": 4484,
      "hero": 4485,
      "conden": 4486,
      "Sebas": 4487,
      "autoridades": 4488,
      "tomo": 4489,
      "Aquel": 4490,
      "constante": 4491,
      "Oviedo": 4492,
      "48": 4493,
      "impon": 4494,
      "Plata": 4495,
      "dirij": 4496,
      "##uma": 4497,
      "sacerdo": 4498,
      "esperanza": 4499,
      "Alemania": 4500,
      "Pag": 4501,
      "cuarto": 4502,
      "##cad": 4503,
      "golpe": 4504,
      "proporcion": 4505,
      "rig": 4506,
      "perdido": 4507,
      "déla": 4508,
      "dici": 4509,
      "viento": 4510,
      "##tim": 4511,
      "##ífico": 4512,
      "forman": 4513,
      "jur": 4514,
      "venir": 4515,
      "puedo": 4516,
      "Provincia": 4517,
      "vul": 4518,
      "encuentran": 4519,
      "elementos": 4520,
      "##tudes": 4521,
      "portu": 4522,
      "##uf": 4523,
      "conveniente": 4524,
      "comunic": 4525,
      "viejo": 4526,
      "situado": 4527,
      "##uo": 4528,
      "##OB": 4529,
      "hacerse": 4530,
      "periódico": 4531,
      "##qués": 4532,
      "Habana": 4533,
      "Sen": 4534,
      "multitud": 4535,
      "##iros": 4536,
      "frecu": 4537,
      "Isla": 4538,
      "Tar": 4539,
      "41": 4540,
      "humil": 4541,
      "##llas": 4542,
      "Sec": 4543,
      "alcal": 4544,
      "paci": 4545,
      "gobier": 4546,
      "dejado": 4547,
      "consejo": 4548,
      "privi": 4549,
      "actos": 4550,
      "##untamiento": 4551,
      "apa": 4552,
      "##ins": 4553,
      "##veres": 4554,
      "confes": 4555,
      "##eme": 4556,
      "verdadera": 4557,
      "profes": 4558,
      "##yan": 4559,
      "##tase": 4560,
      "desgracia": 4561,
      "enferme": 4562,
      "Entonces": 4563,
      "toma": 4564,
      "##partamento": 4565,
      "efectos": 4566,
      "atribu": 4567,
      "Sil": 4568,
      "sospe": 4569,
      "negocios": 4570,
      "cartas": 4571,
      "terrible": 4572,
      "difícil": 4573,
      "43": 4574,
      "completamente": 4575,
      "costumbre": 4576,
      "Sab": 4577,
      "Da": 4578,
      "##zando": 4579,
      "prom": 4580,
      "primeras": 4581,
      "##rup": 4582,
      "Diciembre": 4583,
      "precios": 4584,
      "cuarenta": 4585,
      "##iales": 4586,
      "##tantes": 4587,
      "ape": 4588,
      "minas": 4589,
      "desempe": 4590,
      "##mites": 4591,
      "respeto": 4592,
      "arras": 4593,
      "suyo": 4594,
      "operaciones": 4595,
      "aca": 4596,
      "##güe": 4597,
      "##GO": 4598,
      "##RAN": 4599,
      "despo": 4600,
      "quiero": 4601,
      "clases": 4602,
      "##iedad": 4603,
      "vivir": 4604,
      "quiz": 4605,
      "inmediatamente": 4606,
      "congreso": 4607,
      "av": 4608,
      "##gon": 4609,
      "niños": 4610,
      "##rea": 4611,
      "##aman": 4612,
      "francés": 4613,
      "##éndole": 4614,
      "casos": 4615,
      "apos": 4616,
      "Paris": 4617,
      "##dores": 4618,
      "##usto": 4619,
      "pensamiento": 4620,
      "razon": 4621,
      "tí": 4622,
      "##rase": 4623,
      "##lados": 4624,
      "##lesiást": 4625,
      "Reg": 4626,
      "completa": 4627,
      "nove": 4628,
      "44": 4629,
      "Oh": 4630,
      "Marzo": 4631,
      "contar": 4632,
      "gastos": 4633,
      "esfuerzos": 4634,
      "##GU": 4635,
      "ciencia": 4636,
      "parro": 4637,
      "##unal": 4638,
      "##osotros": 4639,
      "raza": 4640,
      "monte": 4641,
      "baja": 4642,
      "cuadro": 4643,
      "hallan": 4644,
      "Rom": 4645,
      "descubri": 4646,
      "amist": 4647,
      "Cer": 4648,
      "vuelta": 4649,
      "celebr": 4650,
      "conforme": 4651,
      "infan": 4652,
      "invas": 4653,
      "00": 4654,
      "dispos": 4655,
      "reyes": 4656,
      "mejores": 4657,
      "Riv": 4658,
      "corriente": 4659,
      "##ual": 4660,
      "##gri": 4661,
      "firme": 4662,
      "Vicente": 4663,
      "situada": 4664,
      "hermosa": 4665,
      "llu": 4666,
      "ambas": 4667,
      "##cruz": 4668,
      "entender": 4669,
      "Junta": 4670,
      "santo": 4671,
      "util": 4672,
      "disposición": 4673,
      "confir": 4674,
      "##iden": 4675,
      "resolución": 4676,
      "jóven": 4677,
      "ánimo": 4678,
      "sentimiento": 4679,
      "propos": 4680,
      "nombrado": 4681,
      "digo": 4682,
      "primi": 4683,
      "##abel": 4684,
      "sosten": 4685,
      "ordin": 4686,
      "##quina": 4687,
      "##omas": 4688,
      "Fer": 4689,
      "conciencia": 4690,
      "##teros": 4691,
      "posesión": 4692,
      "##ñado": 4693,
      "Portugal": 4694,
      "indí": 4695,
      "peso": 4696,
      "Cons": 4697,
      "igualmente": 4698,
      "##ys": 4699,
      "públicos": 4700,
      "exclam": 4701,
      "##úa": 4702,
      "contestó": 4703,
      "Brasil": 4704,
      "##orias": 4705,
      "negros": 4706,
      "datos": 4707,
      "fortal": 4708,
      "Toledo": 4709,
      "compañeros": 4710,
      "##dillera": 4711,
      "recuer": 4712,
      "soldado": 4713,
      "revolucion": 4714,
      "adver": 4715,
      "supon": 4716,
      "##aran": 4717,
      "estim": 4718,
      "Sebasti": 4719,
      "influencia": 4720,
      "CAPI": 4721,
      "defender": 4722,
      "prud": 4723,
      "abajo": 4724,
      "retra": 4725,
      "caci": 4726,
      "##ecían": 4727,
      "##cá": 4728,
      "fuertes": 4729,
      "habita": 4730,
      "Fué": 4731,
      "objetos": 4732,
      "minu": 4733,
      "##llos": 4734,
      "gracia": 4735,
      "perio": 4736,
      "precip": 4737,
      "mandado": 4738,
      "##sula": 4739,
      "destin": 4740,
      "Ade": 4741,
      "repro": 4742,
      "pocas": 4743,
      "##viera": 4744,
      "montes": 4745,
      "##aciones": 4746,
      "escas": 4747,
      "##dente": 4748,
      "ocupar": 4749,
      "##tedral": 4750,
      "abra": 4751,
      "Reyes": 4752,
      "prensa": 4753,
      "singular": 4754,
      "traslad": 4755,
      "##zaron": 4756,
      "##CIA": 4757,
      "base": 4758,
      "háb": 4759,
      "virey": 4760,
      "##lon": 4761,
      "##dian": 4762,
      "célebre": 4763,
      "Pol": 4764,
      "tenga": 4765,
      "##juzg": 4766,
      "hospit": 4767,
      "##rí": 4768,
      "consa": 4769,
      "Colomb": 4770,
      "reina": 4771,
      "decía": 4772,
      "llegaron": 4773,
      "mesa": 4774,
      "despre": 4775,
      "##tía": 4776,
      "animales": 4777,
      "propiedad": 4778,
      "##vención": 4779,
      "llamada": 4780,
      "SU": 4781,
      "che": 4782,
      "consiguiente": 4783,
      "documentos": 4784,
      "aplic": 4785,
      "espres": 4786,
      "religión": 4787,
      "##ublic": 4788,
      "##ella": 4789,
      "hermanos": 4790,
      "salida": 4791,
      "ble": 4792,
      "##pó": 4793,
      "econ": 4794,
      "ademas": 4795,
      "parecía": 4796,
      "edificios": 4797,
      "aguar": 4798,
      "##MA": 4799,
      "Fu": 4800,
      "enti": 4801,
      "piedras": 4802,
      "particulares": 4803,
      "##arquía": 4804,
      "##zados": 4805,
      "encom": 4806,
      "haga": 4807,
      "limp": 4808,
      "caer": 4809,
      "digno": 4810,
      "riqueza": 4811,
      "beb": 4812,
      "medidas": 4813,
      "piezas": 4814,
      "entró": 4815,
      "males": 4816,
      "curi": 4817,
      "Barcel": 4818,
      "##uez": 4819,
      "##tua": 4820,
      "ria": 4821,
      "jorn": 4822,
      "##RIO": 4823,
      "poblaciones": 4824,
      "ráp": 4825,
      "desta": 4826,
      "##ática": 4827,
      "prisioneros": 4828,
      "##idal": 4829,
      "dorm": 4830,
      "ciudadanos": 4831,
      "Mel": 4832,
      "47": 4833,
      "hé": 4834,
      "éx": 4835,
      "##iss": 4836,
      "compar": 4837,
      "sostener": 4838,
      "cruel": 4839,
      "infin": 4840,
      "##usa": 4841,
      "castillo": 4842,
      "estudio": 4843,
      "Ang": 4844,
      "Gra": 4845,
      "##óme": 4846,
      "##uncia": 4847,
      "46": 4848,
      "##eto": 4849,
      "tum": 4850,
      "citado": 4851,
      "doctr": 4852,
      "ídem": 4853,
      "human": 4854,
      "##pes": 4855,
      "destino": 4856,
      "Sí": 4857,
      "estando": 4858,
      "##esta": 4859,
      "popular": 4860,
      "sombra": 4861,
      "Enrique": 4862,
      "diputados": 4863,
      "jurisdic": 4864,
      "##RES": 4865,
      "social": 4866,
      "Ara": 4867,
      "fres": 4868,
      "##vera": 4869,
      "Coruña": 4870,
      "Cara": 4871,
      "pecho": 4872,
      "##caba": 4873,
      "remo": 4874,
      "##cib": 4875,
      "Nos": 4876,
      "distrito": 4877,
      "escribir": 4878,
      "Estas": 4879,
      "##tidas": 4880,
      "obede": 4881,
      "ton": 4882,
      "##xto": 4883,
      "##video": 4884,
      "razones": 4885,
      "##rían": 4886,
      "##ij": 4887,
      "LAS": 4888,
      "tol": 4889,
      "esperar": 4890,
      "Noviembre": 4891,
      "conten": 4892,
      "alter": 4893,
      "##edes": 4894,
      "vícti": 4895,
      "##entó": 4896,
      "##ates": 4897,
      "Dos": 4898,
      "##cieron": 4899,
      "##icias": 4900,
      "inú": 4901,
      "compa": 4902,
      "bár": 4903,
      "##ñez": 4904,
      "partida": 4905,
      "Inf": 4906,
      "buenas": 4907,
      "anteriores": 4908,
      "castellan": 4909,
      "mús": 4910,
      "##ábamos": 4911,
      "príncipe": 4912,
      "vapor": 4913,
      "Fa": 4914,
      "espi": 4915,
      "recha": 4916,
      "habría": 4917,
      "Ana": 4918,
      "estran": 4919,
      "MA": 4920,
      "Ban": 4921,
      "vamos": 4922,
      "##uti": 4923,
      "También": 4924,
      "##sado": 4925,
      "##BA": 4926,
      "Véase": 4927,
      "ves": 4928,
      "espl": 4929,
      "completo": 4930,
      "ans": 4931,
      "Rod": 4932,
      "artes": 4933,
      "llevaba": 4934,
      "claro": 4935,
      "diversas": 4936,
      "llamar": 4937,
      "##illos": 4938,
      "##trado": 4939,
      "podrá": 4940,
      "##grafía": 4941,
      "desembar": 4942,
      "non": 4943,
      "consum": 4944,
      "instante": 4945,
      "Em": 4946,
      "55": 4947,
      "Agust": 4948,
      "##amo": 4949,
      "libros": 4950,
      "pare": 4951,
      "hierro": 4952,
      "resistencia": 4953,
      "Puebla": 4954,
      "##ambre": 4955,
      "Veracruz": 4956,
      "ME": 4957,
      "habrá": 4958,
      "madera": 4959,
      "tado": 4960,
      "##untos": 4961,
      "##teca": 4962,
      "foi": 4963,
      "columna": 4964,
      "fle": 4965,
      "reda": 4966,
      "demasiado": 4967,
      "gover": 4968,
      "design": 4969,
      "Córdoba": 4970,
      "hecha": 4971,
      "llegada": 4972,
      "##vios": 4973,
      "Flor": 4974,
      "cabildo": 4975,
      "Catal": 4976,
      "cion": 4977,
      "provis": 4978,
      "##vuel": 4979,
      "supo": 4980,
      "ala": 4981,
      "##dicion": 4982,
      "Consejo": 4983,
      "##eos": 4984,
      "Barcelona": 4985,
      "1a": 4986,
      "##CH": 4987,
      "encan": 4988,
      "##ínsula": 4989,
      "estan": 4990,
      "perj": 4991,
      "##garon": 4992,
      "presentó": 4993,
      "expedición": 4994,
      "límites": 4995,
      "##oral": 4996,
      "ofrece": 4997,
      "establecimiento": 4998,
      "ré": 4999,
      "occid": 5000,
      "fines": 5001,
      "Tan": 5002,
      "precio": 5003,
      "estoy": 5004,
      "##tina": 5005,
      "notables": 5006,
      "compe": 5007,
      "taba": 5008,
      "##garse": 5009,
      "perpe": 5010,
      "Jefe": 5011,
      "especialmente": 5012,
      "##cab": 5013,
      "Nacional": 5014,
      "ul": 5015,
      "Señora": 5016,
      "emperador": 5017,
      "Pérez": 5018,
      "convo": 5019,
      "Febrero": 5020,
      "eclesiást": 5021,
      "##amientos": 5022,
      "##ivamente": 5023,
      "excel": 5024,
      "##dían": 5025,
      "fati": 5026,
      "##amas": 5027,
      "##usos": 5028,
      "entusiasmo": 5029,
      "rin": 5030,
      "oriental": 5031,
      "llor": 5032,
      "##QU": 5033,
      "Pi": 5034,
      "acostumb": 5035,
      "##eramente": 5036,
      "##idamente": 5037,
      "merced": 5038,
      "Montevideo": 5039,
      "avent": 5040,
      "##adic": 5041,
      "puente": 5042,
      "EST": 5043,
      "##emia": 5044,
      "recuerdo": 5045,
      "##ficos": 5046,
      "aprovech": 5047,
      "univers": 5048,
      "som": 5049,
      "Segun": 5050,
      "cerro": 5051,
      "##gando": 5052,
      "##ff": 5053,
      "única": 5054,
      "lej": 5055,
      "CH": 5056,
      "cristianos": 5057,
      "Mayor": 5058,
      "éxito": 5059,
      "local": 5060,
      "##mirante": 5061,
      "viendo": 5062,
      "##sto": 5063,
      "plu": 5064,
      "grues": 5065,
      "pura": 5066,
      "pasos": 5067,
      "mesmo": 5068,
      "##vación": 5069,
      "Th": 5070,
      "##tara": 5071,
      "podría": 5072,
      "##col": 5073,
      "CU": 5074,
      "Aunque": 5075,
      "vel": 5076,
      "##idez": 5077,
      "temor": 5078,
      "cató": 5079,
      "##ortal": 5080,
      "##gena": 5081,
      "Lon": 5082,
      "##iertos": 5083,
      "##zobispo": 5084,
      "NO": 5085,
      "Nues": 5086,
      "##oros": 5087,
      "ingleses": 5088,
      "diz": 5089,
      "bosques": 5090,
      "80": 5091,
      "irre": 5092,
      "placer": 5093,
      "tranquil": 5094,
      "basta": 5095,
      "espan": 5096,
      "##tifica": 5097,
      "elo": 5098,
      "##dó": 5099,
      "cuán": 5100,
      "pone": 5101,
      "Bas": 5102,
      "ferro": 5103,
      "artículos": 5104,
      "Liber": 5105,
      "Conde": 5106,
      "fuesen": 5107,
      "altar": 5108,
      "Jesús": 5109,
      "mel": 5110,
      "establecer": 5111,
      "defens": 5112,
      "Ger": 5113,
      "##ónde": 5114,
      "##tencia": 5115,
      "##CIONES": 5116,
      "histori": 5117,
      "br": 5118,
      "##grado": 5119,
      "ciertos": 5120,
      "capitu": 5121,
      "ministros": 5122,
      "calidad": 5123,
      "##ke": 5124,
      "formado": 5125,
      "##lij": 5126,
      "asal": 5127,
      "nombra": 5128,
      "gun": 5129,
      "superfici": 5130,
      "prohib": 5131,
      "escal": 5132,
      "##ni": 5133,
      "rece": 5134,
      "##ísimos": 5135,
      "ama": 5136,
      "Bor": 5137,
      "punta": 5138,
      "almas": 5139,
      "idem": 5140,
      "estilo": 5141,
      "49": 5142,
      "Bre": 5143,
      "calor": 5144,
      "buque": 5145,
      "ace": 5146,
      "##tecas": 5147,
      "remedio": 5148,
      "##stru": 5149,
      "long": 5150,
      "kil": 5151,
      "##IG": 5152,
      "##andera": 5153,
      "ataque": 5154,
      "ques": 5155,
      "duque": 5156,
      "abrir": 5157,
      "tranqui": 5158,
      "comm": 5159,
      "comision": 5160,
      "conseguir": 5161,
      "sens": 5162,
      "bri": 5163,
      "columnas": 5164,
      "##viendo": 5165,
      "hacían": 5166,
      "alli": 5167,
      "pá": 5168,
      "##arme": 5169,
      "pela": 5170,
      "amp": 5171,
      "##eratura": 5172,
      "##cultura": 5173,
      "##mes": 5174,
      "progres": 5175,
      "##erse": 5176,
      "lhe": 5177,
      "brazo": 5178,
      "##ulas": 5179,
      "Lopez": 5180,
      "diversos": 5181,
      "esposa": 5182,
      "logr": 5183,
      "##gro": 5184,
      "evid": 5185,
      "##ilar": 5186,
      "dispon": 5187,
      "far": 5188,
      "carne": 5189,
      "continua": 5190,
      "Nicol": 5191,
      "##ález": 5192,
      "dulce": 5193,
      "##citos": 5194,
      "##cón": 5195,
      "Fra": 5196,
      "Andrés": 5197,
      "cumplir": 5198,
      "Nada": 5199,
      "CAPITULO": 5200,
      "##allado": 5201,
      "ilustre": 5202,
      "seno": 5203,
      "delic": 5204,
      "amo": 5205,
      "orillas": 5206,
      "mayo": 5207,
      "misión": 5208,
      "##gadas": 5209,
      "elección": 5210,
      "Igna": 5211,
      "suceso": 5212,
      "deses": 5213,
      "##tividad": 5214,
      "##adero": 5215,
      "vac": 5216,
      "52": 5217,
      "##cina": 5218,
      "colores": 5219,
      "##tieron": 5220,
      "Colombia": 5221,
      "##ison": 5222,
      "podían": 5223,
      "mérito": 5224,
      "colonia": 5225,
      "vecin": 5226,
      "orilla": 5227,
      "espada": 5228,
      "##ore": 5229,
      "trono": 5230,
      "anunci": 5231,
      "continuar": 5232,
      "##uri": 5233,
      "aco": 5234,
      "sr": 5235,
      "flo": 5236,
      "restos": 5237,
      "miembros": 5238,
      "procu": 5239,
      "orgu": 5240,
      "##UR": 5241,
      "abril": 5242,
      "##vador": 5243,
      "rej": 5244,
      "pien": 5245,
      "alde": 5246,
      "sentir": 5247,
      "Allí": 5248,
      "apreci": 5249,
      "espal": 5250,
      "subs": 5251,
      "Constitución": 5252,
      "ener": 5253,
      "##plic": 5254,
      "##jando": 5255,
      "vuestro": 5256,
      "consecu": 5257,
      "Ahora": 5258,
      "comunicación": 5259,
      "Casa": 5260,
      "dra": 5261,
      "carrera": 5262,
      "##oración": 5263,
      "comprender": 5264,
      "quedado": 5265,
      "escuela": 5266,
      "lleno": 5267,
      "rendi": 5268,
      "disf": 5269,
      "ganado": 5270,
      "aque": 5271,
      "encer": 5272,
      "51": 5273,
      "Guerra": 5274,
      "Castro": 5275,
      "mira": 5276,
      "deten": 5277,
      "Paz": 5278,
      "##ADO": 5279,
      "Cómo": 5280,
      "persu": 5281,
      "sas": 5282,
      "##eso": 5283,
      "importantes": 5284,
      "honra": 5285,
      "rico": 5286,
      "##ieren": 5287,
      "millones": 5288,
      "nub": 5289,
      "suyos": 5290,
      "indio": 5291,
      "Cent": 5292,
      "##xa": 5293,
      "##eis": 5294,
      "armada": 5295,
      "letras": 5296,
      "instrum": 5297,
      "liberal": 5298,
      "quince": 5299,
      "##hua": 5300,
      "##dula": 5301,
      "semejantes": 5302,
      "##ecieron": 5303,
      "Fil": 5304,
      "##ÍTULO": 5305,
      "agri": 5306,
      "busca": 5307,
      "hubieran": 5308,
      "reconocer": 5309,
      "muger": 5310,
      "##ólo": 5311,
      "Nuevo": 5312,
      "pérdida": 5313,
      "Valle": 5314,
      "##reros": 5315,
      "seus": 5316,
      "azul": 5317,
      "UN": 5318,
      "caminos": 5319,
      "culto": 5320,
      "Eu": 5321,
      "oir": 5322,
      "Audi": 5323,
      "poeta": 5324,
      "legua": 5325,
      "Fé": 5326,
      "Setiembre": 5327,
      "gefe": 5328,
      "Alvar": 5329,
      "vieron": 5330,
      "Dic": 5331,
      "árab": 5332,
      "González": 5333,
      "labor": 5334,
      "conservar": 5335,
      "cadá": 5336,
      "propon": 5337,
      "Sobre": 5338,
      "simple": 5339,
      "Lin": 5340,
      "##álo": 5341,
      "personal": 5342,
      "##her": 5343,
      "Grande": 5344,
      "capilla": 5345,
      "ancho": 5346,
      "sala": 5347,
      "debió": 5348,
      "consideración": 5349,
      "chil": 5350,
      "niño": 5351,
      "inspir": 5352,
      "inteligencia": 5353,
      "sentimientos": 5354,
      "incendi": 5355,
      "caudi": 5356,
      "Az": 5357,
      "torre": 5358,
      "ustedes": 5359,
      "##hos": 5360,
      "ment": 5361,
      "54": 5362,
      "##mina": 5363,
      "respons": 5364,
      "Dist": 5365,
      "conoce": 5366,
      "lago": 5367,
      "bandera": 5368,
      "##pal": 5369,
      "ral": 5370,
      "dá": 5371,
      "miser": 5372,
      "Isabel": 5373,
      "Algun": 5374,
      "##anti": 5375,
      "Pen": 5376,
      "##ele": 5377,
      "podemos": 5378,
      "construcción": 5379,
      "tru": 5380,
      "cuartel": 5381,
      "53": 5382,
      "prodi": 5383,
      "##hor": 5384,
      "fen": 5385,
      "caballeros": 5386,
      "infel": 5387,
      "incor": 5388,
      "##lid": 5389,
      "voy": 5390,
      "Alcal": 5391,
      "aqué": 5392,
      "cré": 5393,
      "Mil": 5394,
      "piso": 5395,
      "Haci": 5396,
      "Ignacio": 5397,
      "##eca": 5398,
      "56": 5399,
      "##enden": 5400,
      "##cao": 5401,
      "##frica": 5402,
      "batallón": 5403,
      "hai": 5404,
      "cortes": 5405,
      "perío": 5406,
      "funcion": 5407,
      "CAPÍTULO": 5408,
      "partidos": 5409,
      "COM": 5410,
      "Jul": 5411,
      "##ím": 5412,
      "ciertas": 5413,
      "diferencia": 5414,
      "amistad": 5415,
      "alf": 5416,
      "suya": 5417,
      "dispu": 5418,
      "179": 5419,
      "esclavos": 5420,
      "##ól": 5421,
      "inj": 5422,
      "##tacion": 5423,
      "principalmente": 5424,
      "empleados": 5425,
      "##genes": 5426,
      "salido": 5427,
      "encontró": 5428,
      "##ses": 5429,
      "consta": 5430,
      "daban": 5431,
      "Conf": 5432,
      "##tamos": 5433,
      "##vedra": 5434,
      "##ezuela": 5435,
      "limit": 5436,
      "##ditos": 5437,
      "##abo": 5438,
      "quedaron": 5439,
      "quería": 5440,
      "pensar": 5441,
      "corta": 5442,
      "##dres": 5443,
      "fiesta": 5444,
      "enteramente": 5445,
      "bah": 5446,
      "cree": 5447,
      "quem": 5448,
      "propios": 5449,
      "gua": 5450,
      "Mis": 5451,
      "##ela": 5452,
      "300": 5453,
      "##gido": 5454,
      "mane": 5455,
      "heridos": 5456,
      "salvar": 5457,
      "##quin": 5458,
      "##ham": 5459,
      "serán": 5460,
      "aquello": 5461,
      "rib": 5462,
      "devo": 5463,
      "Sebastian": 5464,
      "adorn": 5465,
      "Mur": 5466,
      "viva": 5467,
      "autores": 5468,
      "ruinas": 5469,
      "indisp": 5470,
      "terrenos": 5471,
      "dila": 5472,
      "Loren": 5473,
      "quando": 5474,
      "Tiene": 5475,
      "aos": 5476,
      "##leta": 5477,
      "XI": 5478,
      "sirve": 5479,
      "descar": 5480,
      "##diz": 5481,
      "civilización": 5482,
      "70": 5483,
      "coron": 5484,
      "comprome": 5485,
      "matri": 5486,
      "capaz": 5487,
      "apoy": 5488,
      "progreso": 5489,
      "lon": 5490,
      "millas": 5491,
      "hacerlo": 5492,
      "restable": 5493,
      "##adura": 5494,
      "administra": 5495,
      "correr": 5496,
      "países": 5497,
      "formas": 5498,
      "Sierra": 5499,
      "##ii": 5500,
      "mus": 5501,
      "##licos": 5502,
      "Oriente": 5503,
      "##inete": 5504,
      "Quer": 5505,
      "##ívar": 5506,
      "entendi": 5507,
      "##udal": 5508,
      "##enciado": 5509,
      "servido": 5510,
      "mur": 5511,
      "Bien": 5512,
      "Guar": 5513,
      "humana": 5514,
      "Quin": 5515,
      "##jera": 5516,
      "guarnición": 5517,
      "llamó": 5518,
      "##izada": 5519,
      "hues": 5520,
      "depos": 5521,
      "enf": 5522,
      "sel": 5523,
      "ano": 5524,
      "concepto": 5525,
      "impul": 5526,
      "lector": 5527,
      "efica": 5528,
      "dirigió": 5529,
      "##son": 5530,
      "prem": 5531,
      "##rump": 5532,
      "envió": 5533,
      "unión": 5534,
      "rostro": 5535,
      "puestos": 5536,
      "##has": 5537,
      "##iertas": 5538,
      "##iblio": 5539,
      "exa": 5540,
      "pañ": 5541,
      "compos": 5542,
      "vengan": 5543,
      "Asia": 5544,
      "escuadra": 5545,
      "clima": 5546,
      "Luego": 5547,
      "Pablo": 5548,
      "desn": 5549,
      "presi": 5550,
      "##ándoles": 5551,
      "guardia": 5552,
      "##amentos": 5553,
      "Mendo": 5554,
      "religiosos": 5555,
      "##crib": 5556,
      "##allos": 5557,
      "rei": 5558,
      "##MO": 5559,
      "##imen": 5560,
      "rar": 5561,
      "Arag": 5562,
      "##ágri": 5563,
      "carga": 5564,
      "Alfonso": 5565,
      "tiran": 5566,
      "hallaban": 5567,
      "Lle": 5568,
      "dichas": 5569,
      "##amblea": 5570,
      "Hasta": 5571,
      "58": 5572,
      "agosto": 5573,
      "pequeños": 5574,
      "Secre": 5575,
      "Mol": 5576,
      "políticos": 5577,
      "levantar": 5578,
      "leer": 5579,
      "57": 5580,
      "##alu": 5581,
      "##glés": 5582,
      "comenzó": 5583,
      "##INA": 5584,
      "ministerio": 5585,
      "justo": 5586,
      "inqui": 5587,
      "blanca": 5588,
      "##san": 5589,
      "Obispo": 5590,
      "cumplimiento": 5591,
      "fol": 5592,
      "respondió": 5593,
      "##quite": 5594,
      "negocio": 5595,
      "##didad": 5596,
      "geo": 5597,
      "mirada": 5598,
      "Mos": 5599,
      "##uestas": 5600,
      "hayan": 5601,
      "gor": 5602,
      "##VA": 5603,
      "escar": 5604,
      "Doc": 5605,
      "hostil": 5606,
      "##amp": 5607,
      "##amba": 5608,
      "abo": 5609,
      "romp": 5610,
      "POR": 5611,
      "republic": 5612,
      "sierra": 5613,
      "Mientras": 5614,
      "visit": 5615,
      "##arlos": 5616,
      "tercera": 5617,
      "##usia": 5618,
      "##ull": 5619,
      "apren": 5620,
      "condición": 5621,
      "sabido": 5622,
      "lágri": 5623,
      "Vol": 5624,
      "bro": 5625,
      "##dientes": 5626,
      "##rense": 5627,
      "Aquí": 5628,
      "nu": 5629,
      "agra": 5630,
      "##jaba": 5631,
      "menes": 5632,
      "estamos": 5633,
      "maestro": 5634,
      "ais": 5635,
      "escol": 5636,
      "##arcas": 5637,
      "rica": 5638,
      "##pera": 5639,
      "##ándolo": 5640,
      "##anda": 5641,
      "Nicolás": 5642,
      "##tuoso": 5643,
      "##carse": 5644,
      "Jer": 5645,
      "##ramento": 5646,
      "resultados": 5647,
      "acaba": 5648,
      "##MP": 5649,
      "periódicos": 5650,
      "##jara": 5651,
      "canal": 5652,
      "atro": 5653,
      "##cadas": 5654,
      "##igna": 5655,
      "Hacienda": 5656,
      "carre": 5657,
      "debían": 5658,
      "felicidad": 5659,
      "belle": 5660,
      "dificultades": 5661,
      "auxilio": 5662,
      "##cro": 5663,
      "fabri": 5664,
      "##cedentes": 5665,
      "##renta": 5666,
      "candida": 5667,
      "tomando": 5668,
      "##ército": 5669,
      "sale": 5670,
      "secretario": 5671,
      "marido": 5672,
      "arreglo": 5673,
      "##gusto": 5674,
      "Nuestra": 5675,
      "debido": 5676,
      "déb": 5677,
      "extremo": 5678,
      "##uta": 5679,
      "bárbar": 5680,
      "VII": 5681,
      "desper": 5682,
      "suble": 5683,
      "##undo": 5684,
      "##omp": 5685,
      "##enes": 5686,
      "Cortes": 5687,
      "##úcar": 5688,
      "fama": 5689,
      "##dedor": 5690,
      "cá": 5691,
      "##BL": 5692,
      "desor": 5693,
      "libres": 5694,
      "Dis": 5695,
      "Bolívar": 5696,
      "refiere": 5697,
      "realidad": 5698,
      "##DAD": 5699,
      "adi": 5700,
      "Navar": 5701,
      "idi": 5702,
      "Comandante": 5703,
      "cate": 5704,
      "saben": 5705,
      "rein": 5706,
      "asegurar": 5707,
      "##ándola": 5708,
      "deseos": 5709,
      "separa": 5710,
      "##rosa": 5711,
      "actividad": 5712,
      "dilig": 5713,
      "porvenir": 5714,
      "##ló": 5715,
      "quedando": 5716,
      "##vada": 5717,
      "Costa": 5718,
      "mostr": 5719,
      "jurisdicción": 5720,
      "inoc": 5721,
      "andar": 5722,
      "pudieron": 5723,
      "##ular": 5724,
      "PE": 5725,
      "ahí": 5726,
      "contiene": 5727,
      "hermoso": 5728,
      "##roso": 5729,
      "cámara": 5730,
      "rumbo": 5731,
      "Er": 5732,
      "##abil": 5733,
      "especies": 5734,
      "##amen": 5735,
      "CAS": 5736,
      "África": 5737,
      "##ricas": 5738,
      "##ruido": 5739,
      "prime": 5740,
      "178": 5741,
      "##rillo": 5742,
      "referido": 5743,
      "segura": 5744,
      "Cabildo": 5745,
      "brig": 5746,
      "obis": 5747,
      "Zara": 5748,
      "lectores": 5749,
      "salieron": 5750,
      "Torre": 5751,
      "Diaz": 5752,
      "vive": 5753,
      "sesenta": 5754,
      "Compañ": 5755,
      "59": 5756,
      "##glesias": 5757,
      "llevó": 5758,
      "críti": 5759,
      "##caron": 5760,
      "bosque": 5761,
      "Just": 5762,
      "LIB": 5763,
      "##cidente": 5764,
      "PRO": 5765,
      "bru": 5766,
      "##eco": 5767,
      "##guardia": 5768,
      "anci": 5769,
      "formando": 5770,
      "##tiene": 5771,
      "##lia": 5772,
      "cordillera": 5773,
      "##rob": 5774,
      "darle": 5775,
      "##tea": 5776,
      "siguió": 5777,
      "copia": 5778,
      "voto": 5779,
      "mister": 5780,
      "##ard": 5781,
      "##dica": 5782,
      "encontrado": 5783,
      "escena": 5784,
      "pregunta": 5785,
      "150": 5786,
      "existen": 5787,
      "ocasion": 5788,
      "pago": 5789,
      "humanidad": 5790,
      "##chado": 5791,
      "##ónimo": 5792,
      "Quién": 5793,
      "echar": 5794,
      "enero": 5795,
      "superficie": 5796,
      "frutos": 5797,
      "patriotismo": 5798,
      "maravil": 5799,
      "peda": 5800,
      "pequeñas": 5801,
      "##teras": 5802,
      "Direc": 5803,
      "llena": 5804,
      "sim": 5805,
      "pele": 5806,
      "crimin": 5807,
      "argent": 5808,
      "189": 5809,
      "his": 5810,
      "hambre": 5811,
      "##ciente": 5812,
      "##vados": 5813,
      "jóvenes": 5814,
      "Indios": 5815,
      "##donos": 5816,
      "CAR": 5817,
      "##atas": 5818,
      "agre": 5819,
      "Mendoza": 5820,
      "##vier": 5821,
      "profundo": 5822,
      "nobles": 5823,
      "capítulo": 5824,
      "##ísimas": 5825,
      "facultades": 5826,
      "je": 5827,
      "ruido": 5828,
      "##pie": 5829,
      "Rob": 5830,
      "##icía": 5831,
      "Sala": 5832,
      "fiel": 5833,
      "vigor": 5834,
      "##ello": 5835,
      "##árcel": 5836,
      "##ude": 5837,
      "##omé": 5838,
      "sucedió": 5839,
      "esperanzas": 5840,
      "Virgen": 5841,
      "meridi": 5842,
      "julio": 5843,
      "##camente": 5844,
      "testigo": 5845,
      "dispar": 5846,
      "##drá": 5847,
      "conta": 5848,
      "75": 5849,
      "bres": 5850,
      "visita": 5851,
      "asomb": 5852,
      "##ueva": 5853,
      "Audiencia": 5854,
      "fec": 5855,
      "##edor": 5856,
      "necesita": 5857,
      "ventajas": 5858,
      "dibu": 5859,
      "tradu": 5860,
      "moros": 5861,
      "inn": 5862,
      "liter": 5863,
      "héro": 5864,
      "Pin": 5865,
      "inglés": 5866,
      "considerable": 5867,
      "americanos": 5868,
      "Bogo": 5869,
      "talento": 5870,
      "onde": 5871,
      "tron": 5872,
      "##IT": 5873,
      "asuntos": 5874,
      "únicamente": 5875,
      "##crito": 5876,
      "refor": 5877,
      "##onde": 5878,
      "cens": 5879,
      "infantería": 5880,
      "mejic": 5881,
      "Corte": 5882,
      "blo": 5883,
      "##enca": 5884,
      "grito": 5885,
      "líneas": 5886,
      "##grada": 5887,
      "hojas": 5888,
      "comunica": 5889,
      "dignidad": 5890,
      "Sant": 5891,
      "Concepción": 5892,
      "vil": 5893,
      "reca": 5894,
      "pareci": 5895,
      "##teo": 5896,
      "cari": 5897,
      "##reo": 5898,
      "##gao": 5899,
      "##fé": 5900,
      "##unta": 5901,
      "resulta": 5902,
      "modi": 5903,
      "vege": 5904,
      "sión": 5905,
      "pluma": 5906,
      "pár": 5907,
      "excep": 5908,
      "##quen": 5909,
      "Ej": 5910,
      "aman": 5911,
      "región": 5912,
      "cua": 5913,
      "apoyo": 5914,
      "disposiciones": 5915,
      "esté": 5916,
      "explic": 5917,
      "alas": 5918,
      "##cula": 5919,
      "produce": 5920,
      "juez": 5921,
      "genio": 5922,
      "exces": 5923,
      "escribió": 5924,
      "fortaleza": 5925,
      "grupo": 5926,
      "leal": 5927,
      "yer": 5928,
      "##izados": 5929,
      "jes": 5930,
      "montaña": 5931,
      "Colon": 5932,
      "##enen": 5933,
      "quieren": 5934,
      "ciudadano": 5935,
      "Dipu": 5936,
      "##ítulos": 5937,
      "Fuer": 5938,
      "##ensas": 5939,
      "fusil": 5940,
      "glo": 5941,
      "vivo": 5942,
      "##áz": 5943,
      "##acan": 5944,
      "Cristó": 5945,
      "##rores": 5946,
      "perfectamente": 5947,
      "consist": 5948,
      "constitución": 5949,
      "Paraguay": 5950,
      "satisfa": 5951,
      "ñas": 5952,
      "comien": 5953,
      "indispens": 5954,
      "Antes": 5955,
      "JU": 5956,
      "Lleg": 5957,
      "marzo": 5958,
      "alem": 5959,
      "asiento": 5960,
      "extraordin": 5961,
      "##RAS": 5962,
      "obse": 5963,
      "##abal": 5964,
      "cobre": 5965,
      "##omía": 5966,
      "malo": 5967,
      "sufrir": 5968,
      "##uiz": 5969,
      "fruto": 5970,
      "altos": 5971,
      "traer": 5972,
      "ayer": 5973,
      "##ique": 5974,
      "sucede": 5975,
      "##licación": 5976,
      "encima": 5977,
      "monas": 5978,
      "miedo": 5979,
      "Rafa": 5980,
      "período": 5981,
      "Aragón": 5982,
      "llevando": 5983,
      "##zadas": 5984,
      "próximo": 5985,
      "prisión": 5986,
      "satisfe": 5987,
      "##eira": 5988,
      "hol": 5989,
      "##cipa": 5990,
      "alm": 5991,
      "##VI": 5992,
      "tama": 5993,
      "venced": 5994,
      "ee": 5995,
      "pala": 5996,
      "##lal": 5997,
      "##ÍA": 5998,
      "aprob": 5999,
      "daño": 6000,
      "obstá": 6001,
      "empeño": 6002,
      "plantas": 6003,
      "poes": 6004,
      "obtener": 6005,
      "circunstancia": 6006,
      "fundad": 6007,
      "Lorenzo": 6008,
      "##cano": 6009,
      "MAR": 6010,
      "##cán": 6011,
      "alre": 6012,
      "esm": 6013,
      "promo": 6014,
      "detal": 6015,
      "verse": 6016,
      "inconven": 6017,
      "Herrera": 6018,
      "abundancia": 6019,
      "pase": 6020,
      "antiguas": 6021,
      "##nal": 6022,
      "Comp": 6023,
      "puertos": 6024,
      "Calle": 6025,
      "Vallado": 6026,
      "dispuesto": 6027,
      "cano": 6028,
      "##tillas": 6029,
      "Neg": 6030,
      "fui": 6031,
      "qne": 6032,
      "carb": 6033,
      "llevan": 6034,
      "Palacio": 6035,
      "##pole": 6036,
      "vener": 6037,
      "numero": 6038,
      "##ticos": 6039,
      "reflex": 6040,
      "importa": 6041,
      "Var": 6042,
      "##amor": 6043,
      "beneficio": 6044,
      "diver": 6045,
      "preocu": 6046,
      "supremo": 6047,
      "mue": 6048,
      "177": 6049,
      "Ramón": 6050,
      "prosper": 6051,
      "##íz": 6052,
      "62": 6053,
      "manten": 6054,
      "dura": 6055,
      "aparece": 6056,
      "lei": 6057,
      "ensa": 6058,
      "temer": 6059,
      "azo": 6060,
      "ug": 6061,
      "central": 6062,
      "dueño": 6063,
      "debajo": 6064,
      "##uelos": 6065,
      "Hoy": 6066,
      "##gia": 6067,
      "procedi": 6068,
      "HISTÓ": 6069,
      "##ormes": 6070,
      "corto": 6071,
      "puedan": 6072,
      "satisfacción": 6073,
      "aviso": 6074,
      "fundación": 6075,
      "cubierto": 6076,
      "##EZ": 6077,
      "muito": 6078,
      "celo": 6079,
      "horror": 6080,
      "desas": 6081,
      "jamas": 6082,
      "retirada": 6083,
      "mural": 6084,
      "400": 6085,
      "##yes": 6086,
      "virtudes": 6087,
      "##cra": 6088,
      "##gestad": 6089,
      "refu": 6090,
      "brillante": 6091,
      "##gip": 6092,
      "##sen": 6093,
      "##ficas": 6094,
      "Ponte": 6095,
      "##viesen": 6096,
      "humano": 6097,
      "alegría": 6098,
      "Cádiz": 6099,
      "horiz": 6100,
      "##tt": 6101,
      "súb": 6102,
      "espon": 6103,
      "graves": 6104,
      "cias": 6105,
      "lágrimas": 6106,
      "##vir": 6107,
      "ejecución": 6108,
      "confun": 6109,
      "dixo": 6110,
      "##vila": 6111,
      "##endió": 6112,
      "mues": 6113,
      "Med": 6114,
      "ester": 6115,
      "##taña": 6116,
      "##rones": 6117,
      "siguiendo": 6118,
      "DI": 6119,
      "61": 6120,
      "octubre": 6121,
      "vienen": 6122,
      "##reza": 6123,
      "##ómez": 6124,
      "bis": 6125,
      "hogar": 6126,
      "##PAÑ": 6127,
      "grandeza": 6128,
      "vano": 6129,
      "corazon": 6130,
      "##ieza": 6131,
      "mantener": 6132,
      "mento": 6133,
      "##gaba": 6134,
      "HISTÓRI": 6135,
      "pasaba": 6136,
      "##lao": 6137,
      "GU": 6138,
      "inferior": 6139,
      "motivos": 6140,
      "suficiente": 6141,
      "alb": 6142,
      "dije": 6143,
      "interrump": 6144,
      "tribus": 6145,
      "até": 6146,
      "Valladolid": 6147,
      "once": 6148,
      "magist": 6149,
      "pidió": 6150,
      "castigo": 6151,
      "aba": 6152,
      "ejercicio": 6153,
      "famoso": 6154,
      "Pri": 6155,
      "##dición": 6156,
      "poderoso": 6157,
      "error": 6158,
      "perdon": 6159,
      "despren": 6160,
      "Yuca": 6161,
      "reserv": 6162,
      "Orden": 6163,
      "documento": 6164,
      "LE": 6165,
      "vulgar": 6166,
      "##pin": 6167,
      "patr": 6168,
      "elle": 6169,
      "Guz": 6170,
      "riv": 6171,
      "Alb": 6172,
      "cón": 6173,
      "hue": 6174,
      "Fernan": 6175,
      "secreto": 6176,
      "dificultad": 6177,
      "much": 6178,
      "resta": 6179,
      "prece": 6180,
      "vale": 6181,
      "Mem": 6182,
      "##zaban": 6183,
      "##gor": 6184,
      "##tepec": 6185,
      "impedir": 6186,
      "##amar": 6187,
      "quedaba": 6188,
      "junio": 6189,
      "Orense": 6190,
      "##óst": 6191,
      "65": 6192,
      "inútil": 6193,
      "dismin": 6194,
      "disper": 6195,
      "Emperador": 6196,
      "obligado": 6197,
      "productos": 6198,
      "persuad": 6199,
      "encuentro": 6200,
      "##idel": 6201,
      "##igas": 6202,
      "Chi": 6203,
      "Gómez": 6204,
      "mode": 6205,
      "##jestad": 6206,
      "Pad": 6207,
      "extensión": 6208,
      "Dec": 6209,
      "escritor": 6210,
      "##ribuir": 6211,
      "espectá": 6212,
      "halló": 6213,
      "##uto": 6214,
      "##arte": 6215,
      "Anna": 6216,
      "##ze": 6217,
      "encontraba": 6218,
      "capitanes": 6219,
      "gent": 6220,
      "ricos": 6221,
      "set": 6222,
      "revel": 6223,
      "cop": 6224,
      "Amb": 6225,
      "apun": 6226,
      "Const": 6227,
      "liberales": 6228,
      "preso": 6229,
      "##mán": 6230,
      "##ulto": 6231,
      "Sub": 6232,
      "monarca": 6233,
      "varas": 6234,
      "reprodu": 6235,
      "ponerse": 6236,
      "cañones": 6237,
      "ef": 6238,
      "francesa": 6239,
      "menester": 6240,
      "##inda": 6241,
      "quedan": 6242,
      "distingu": 6243,
      "muestra": 6244,
      "##abas": 6245,
      "Ál": 6246,
      "##ay": 6247,
      "derrota": 6248,
      "Rafael": 6249,
      "MÉ": 6250,
      "##fecto": 6251,
      "sujuzg": 6252,
      "altas": 6253,
      "salv": 6254,
      "cib": 6255,
      "##dados": 6256,
      "camin": 6257,
      "vecino": 6258,
      "hospital": 6259,
      "CO": 6260,
      "hoi": 6261,
      "Salvador": 6262,
      "doble": 6263,
      "presa": 6264,
      "sacrific": 6265,
      "69": 6266,
      "##igue": 6267,
      "emin": 6268,
      "Argent": 6269,
      "Cristóbal": 6270,
      "dónde": 6271,
      "empres": 6272,
      "##chez": 6273,
      "nivel": 6274,
      "equivo": 6275,
      "##gura": 6276,
      "oposición": 6277,
      "supuesto": 6278,
      "funciones": 6279,
      "##ERN": 6280,
      "instrucción": 6281,
      "injust": 6282,
      "Oli": 6283,
      "rel": 6284,
      "bordo": 6285,
      "NA": 6286,
      "##ork": 6287,
      "Prin": 6288,
      "prefer": 6289,
      "##ábase": 6290,
      "##cla": 6291,
      "##inch": 6292,
      "letra": 6293,
      "llevado": 6294,
      "proceder": 6295,
      "Trib": 6296,
      "gab": 6297,
      "arquite": 6298,
      "distribu": 6299,
      "insign": 6300,
      "ofrecer": 6301,
      "rentas": 6302,
      "armon": 6303,
      "inmensa": 6304,
      "##pulos": 6305,
      "planta": 6306,
      "marqués": 6307,
      "##ement": 6308,
      "##tum": 6309,
      "Pob": 6310,
      "##lamos": 6311,
      "predic": 6312,
      "cál": 6313,
      "##gios": 6314,
      "indica": 6315,
      "Hernán": 6316,
      "##tándose": 6317,
      "##raban": 6318,
      "##esar": 6319,
      "##ést": 6320,
      "##ANA": 6321,
      "música": 6322,
      "alo": 6323,
      "modes": 6324,
      "comprende": 6325,
      "arch": 6326,
      "entera": 6327,
      "víveres": 6328,
      "árbol": 6329,
      "solemn": 6330,
      "vinieron": 6331,
      "solemne": 6332,
      "Pos": 6333,
      "colonias": 6334,
      "##turb": 6335,
      "elecciones": 6336,
      "individuo": 6337,
      "COR": 6338,
      "serie": 6339,
      "agreg": 6340,
      "##ck": 6341,
      "##uros": 6342,
      "Are": 6343,
      "subl": 6344,
      "acome": 6345,
      "##pois": 6346,
      "##quín": 6347,
      "63": 6348,
      "cria": 6349,
      "Bogotá": 6350,
      "embarca": 6351,
      "pasiones": 6352,
      "Venezuela": 6353,
      "original": 6354,
      "##vista": 6355,
      "##zuela": 6356,
      "legíti": 6357,
      "Supre": 6358,
      "testimonio": 6359,
      "servid": 6360,
      "soberano": 6361,
      "capri": 6362,
      "##iras": 6363,
      "##andro": 6364,
      "##sación": 6365,
      "##ñe": 6366,
      "regal": 6367,
      "##tones": 6368,
      "##titu": 6369,
      "##deral": 6370,
      "llo": 6371,
      "##cs": 6372,
      "valiente": 6373,
      "patri": 6374,
      "peor": 6375,
      "animal": 6376,
      "##bres": 6377,
      "##piración": 6378,
      "guerras": 6379,
      "ries": 6380,
      "preven": 6381,
      "acredi": 6382,
      "pic": 6383,
      "##ades": 6384,
      "empezó": 6385,
      "describ": 6386,
      "mila": 6387,
      "espedicion": 6388,
      "sangri": 6389,
      "París": 6390,
      "impro": 6391,
      "reunión": 6392,
      "parecen": 6393,
      "vid": 6394,
      "vé": 6395,
      "##raron": 6396,
      "Burgos": 6397,
      "##pro": 6398,
      "ruina": 6399,
      "sabia": 6400,
      "Cés": 6401,
      "##taría": 6402,
      "obsequi": 6403,
      "Gre": 6404,
      "ás": 6405,
      "pusieron": 6406,
      "##ampa": 6407,
      "fero": 6408,
      "perteneci": 6409,
      "pasando": 6410,
      "emig": 6411,
      "regiones": 6412,
      "absoluta": 6413,
      "##CE": 6414,
      "##AB": 6415,
      "rocas": 6416,
      "##rilla": 6417,
      "##aderos": 6418,
      "Guadala": 6419,
      "##jal": 6420,
      "chos": 6421,
      "veinti": 6422,
      "alcalde": 6423,
      "Rivera": 6424,
      "há": 6425,
      "excl": 6426,
      "##dis": 6427,
      "llamaba": 6428,
      "mero": 6429,
      "##umen": 6430,
      "##for": 6431,
      "departamento": 6432,
      "sueño": 6433,
      "##mol": 6434,
      "##gem": 6435,
      "##port": 6436,
      "atrás": 6437,
      "##erales": 6438,
      "##ósitos": 6439,
      "cárcel": 6440,
      "##ándolos": 6441,
      "venia": 6442,
      "cuel": 6443,
      "necesidades": 6444,
      "encontra": 6445,
      "mandaba": 6446,
      "antigüe": 6447,
      "##dí": 6448,
      "mexicanos": 6449,
      "adu": 6450,
      "estudios": 6451,
      "##genas": 6452,
      "Sac": 6453,
      "##ivas": 6454,
      "Magdal": 6455,
      "defini": 6456,
      "Tla": 6457,
      "##mada": 6458,
      "verde": 6459,
      "pobl": 6460,
      "labios": 6461,
      "material": 6462,
      "160": 6463,
      "##timos": 6464,
      "##drí": 6465,
      "##tima": 6466,
      "tel": 6467,
      "observar": 6468,
      "quinientos": 6469,
      "Asi": 6470,
      "##rarse": 6471,
      "##alla": 6472,
      "##tla": 6473,
      "##ienda": 6474,
      "constitucional": 6475,
      "pruebas": 6476,
      "presentar": 6477,
      "DO": 6478,
      "##tlan": 6479,
      "producir": 6480,
      "##ibilidad": 6481,
      "ocasiones": 6482,
      "##cau": 6483,
      "consigo": 6484,
      "cerem": 6485,
      "##amá": 6486,
      "guarda": 6487,
      "doscientos": 6488,
      "fuente": 6489,
      "##han": 6490,
      "##vamente": 6491,
      "posi": 6492,
      "Hol": 6493,
      "útil": 6494,
      "pis": 6495,
      "aci": 6496,
      "mision": 6497,
      "homb": 6498,
      "debemos": 6499,
      "terra": 6500,
      "votos": 6501,
      "qua": 6502,
      "inmenso": 6503,
      "Flores": 6504,
      "consign": 6505,
      "emba": 6506,
      "Mira": 6507,
      "Má": 6508,
      "##izas": 6509,
      "labr": 6510,
      "MON": 6511,
      "nacionales": 6512,
      "diciembre": 6513,
      "Reino": 6514,
      "##izó": 6515,
      "##ederación": 6516,
      "##itan": 6517,
      "ger": 6518,
      "seguido": 6519,
      "Agustín": 6520,
      "Muy": 6521,
      "práctica": 6522,
      "##mado": 6523,
      "Cartagena": 6524,
      "##menes": 6525,
      "encargado": 6526,
      "##empla": 6527,
      "here": 6528,
      "Rodrí": 6529,
      "jornada": 6530,
      "##US": 6531,
      "discip": 6532,
      "##cales": 6533,
      "bierno": 6534,
      "dí": 6535,
      "##trando": 6536,
      "Londres": 6537,
      "sabemos": 6538,
      "Capital": 6539,
      "compuesta": 6540,
      "##vora": 6541,
      "##vés": 6542,
      "protección": 6543,
      "fab": 6544,
      "Prim": 6545,
      "Uru": 6546,
      "##fía": 6547,
      "##ALES": 6548,
      "marina": 6549,
      "Reina": 6550,
      "##TRO": 6551,
      "pareció": 6552,
      "inici": 6553,
      "dominio": 6554,
      "luna": 6555,
      "Rodrigo": 6556,
      "imagen": 6557,
      "suas": 6558,
      "##bra": 6559,
      "##inato": 6560,
      "rap": 6561,
      "toca": 6562,
      "##ZA": 6563,
      "68": 6564,
      "Ins": 6565,
      "lados": 6566,
      "##dario": 6567,
      "persecu": 6568,
      "significa": 6569,
      "escritores": 6570,
      "##ológ": 6571,
      "despacho": 6572,
      "magní": 6573,
      "envuel": 6574,
      "##íase": 6575,
      "##jados": 6576,
      "pués": 6577,
      "Cristo": 6578,
      "Vo": 6579,
      "generalmente": 6580,
      "policía": 6581,
      "rid": 6582,
      "##rente": 6583,
      "##bación": 6584,
      "vestido": 6585,
      "aument": 6586,
      "Vel": 6587,
      "##ología": 6588,
      "provo": 6589,
      "##quias": 6590,
      "mayoría": 6591,
      "perjui": 6592,
      "Doctor": 6593,
      "desorden": 6594,
      "bendi": 6595,
      "masa": 6596,
      "##umer": 6597,
      "tiro": 6598,
      "continuó": 6599,
      "acontecimientos": 6600,
      "##dase": 6601,
      "##áticas": 6602,
      "espiritu": 6603,
      "voces": 6604,
      "visitar": 6605,
      "patriotas": 6606,
      "rever": 6607,
      "Castillo": 6608,
      "verdaderamente": 6609,
      "fábrica": 6610,
      "##bos": 6611,
      "##hi": 6612,
      "Ama": 6613,
      "##lando": 6614,
      "##gara": 6615,
      "mina": 6616,
      "digna": 6617,
      "preguntó": 6618,
      "dipl": 6619,
      "##lera": 6620,
      "pú": 6621,
      "torn": 6622,
      "##izarro": 6623,
      "invad": 6624,
      "campamento": 6625,
      "Eso": 6626,
      "hará": 6627,
      "Hon": 6628,
      "bella": 6629,
      "tim": 6630,
      "##ka": 6631,
      "diputado": 6632,
      "176": 6633,
      "investi": 6634,
      "aves": 6635,
      "fom": 6636,
      "colegio": 6637,
      "Ló": 6638,
      "Sim": 6639,
      "Ast": 6640,
      "##mita": 6641,
      "64": 6642,
      "##egas": 6643,
      "ropa": 6644,
      "cír": 6645,
      "confi": 6646,
      "fiestas": 6647,
      "##rie": 6648,
      "##lano": 6649,
      "acor": 6650,
      "formación": 6651,
      "##legios": 6652,
      "Contin": 6653,
      "fas": 6654,
      "##ventud": 6655,
      "discurso": 6656,
      "quizá": 6657,
      "perm": 6658,
      "cabezas": 6659,
      "ital": 6660,
      "artista": 6661,
      "Municip": 6662,
      "continente": 6663,
      "fes": 6664,
      "hablando": 6665,
      "Magdalena": 6666,
      "muros": 6667,
      "##ilio": 6668,
      "##éano": 6669,
      "residencia": 6670,
      "##rino": 6671,
      "cump": 6672,
      "descubrir": 6673,
      "políticas": 6674,
      "crédito": 6675,
      "ara": 6676,
      "levantó": 6677,
      "Ir": 6678,
      "murm": 6679,
      "rebeldes": 6680,
      "prepara": 6681,
      "negra": 6682,
      "Santan": 6683,
      "instituciones": 6684,
      "frecuencia": 6685,
      "curios": 6686,
      "dispuso": 6687,
      "##fera": 6688,
      "asc": 6689,
      "gobiernos": 6690,
      "Ti": 6691,
      "tros": 6692,
      "vigil": 6693,
      "aconse": 6694,
      "otor": 6695,
      "rub": 6696,
      "ald": 6697,
      "mul": 6698,
      "febrero": 6699,
      "dedu": 6700,
      "audiencia": 6701,
      "herido": 6702,
      "desarrollo": 6703,
      "permit": 6704,
      "##ume": 6705,
      "querer": 6706,
      "empleo": 6707,
      "vela": 6708,
      "##rador": 6709,
      "Rosas": 6710,
      "##ivia": 6711,
      "##érida": 6712,
      "velo": 6713,
      "sier": 6714,
      "frag": 6715,
      "Durante": 6716,
      "##ari": 6717,
      "enviado": 6718,
      "Tur": 6719,
      "vari": 6720,
      "eng": 6721,
      "cumb": 6722,
      "pieza": 6723,
      "corresponde": 6724,
      "Rodríguez": 6725,
      "##visión": 6726,
      "##ension": 6727,
      "##bat": 6728,
      "reempla": 6729,
      "om": 6730,
      "superiores": 6731,
      "Tes": 6732,
      "vuelto": 6733,
      "Cada": 6734,
      "##cioso": 6735,
      "fla": 6736,
      "Ag": 6737,
      "públicas": 6738,
      "enfermedad": 6739,
      "peti": 6740,
      "podian": 6741,
      "##PE": 6742,
      "##tará": 6743,
      "cayó": 6744,
      "fatal": 6745,
      "##ándome": 6746,
      "pací": 6747,
      "deu": 6748,
      "espera": 6749,
      "victor": 6750,
      "iguales": 6751,
      "##mamente": 6752,
      "necesaria": 6753,
      "67": 6754,
      "sazón": 6755,
      "PAR": 6756,
      "oficios": 6757,
      "esfuerzo": 6758,
      "Solo": 6759,
      "juzgar": 6760,
      "Mexico": 6761,
      "Teniente": 6762,
      "##itor": 6763,
      "misa": 6764,
      "fís": 6765,
      "Ayuntamiento": 6766,
      "##ler": 6767,
      "##pic": 6768,
      "navios": 6769,
      "##tamen": 6770,
      "Compañía": 6771,
      "fér": 6772,
      "setiembre": 6773,
      "juventud": 6774,
      "romanos": 6775,
      "Rosario": 6776,
      "latitud": 6777,
      "Álvar": 6778,
      "##gamos": 6779,
      "bello": 6780,
      "Jor": 6781,
      "tranquilidad": 6782,
      "merece": 6783,
      "rigor": 6784,
      "##idalgo": 6785,
      "##com": 6786,
      "##mite": 6787,
      "crimen": 6788,
      "##ERAL": 6789,
      "##vida": 6790,
      "##enza": 6791,
      "fur": 6792,
      "##ificación": 6793,
      "Muer": 6794,
      "Guti": 6795,
      "##ADA": 6796,
      "recordar": 6797,
      "##lamento": 6798,
      "Toda": 6799,
      "papeles": 6800,
      "esperaba": 6801,
      "comarca": 6802,
      "presentes": 6803,
      "##ille": 6804,
      "prolon": 6805,
      "escon": 6806,
      "Gonzalo": 6807,
      "conviene": 6808,
      "Hi": 6809,
      "odio": 6810,
      "pasaron": 6811,
      "edific": 6812,
      "##ribles": 6813,
      "guardar": 6814,
      "americano": 6815,
      "66": 6816,
      "pudieran": 6817,
      "decirse": 6818,
      "cron": 6819,
      "Campo": 6820,
      "ii": 6821,
      "##TAL": 6822,
      "Está": 6823,
      "religioso": 6824,
      "##cura": 6825,
      "##gué": 6826,
      "fondos": 6827,
      "Cabo": 6828,
      "##ticas": 6829,
      "experim": 6830,
      "retro": 6831,
      "gre": 6832,
      "Tol": 6833,
      "ia": 6834,
      "Mariano": 6835,
      "baj": 6836,
      "152": 6837,
      "portugues": 6838,
      "subir": 6839,
      "Alej": 6840,
      "probar": 6841,
      "prima": 6842,
      "presos": 6843,
      "Gas": 6844,
      "ris": 6845,
      "quebr": 6846,
      "laguna": 6847,
      "observaciones": 6848,
      "bahía": 6849,
      "vencer": 6850,
      "terror": 6851,
      "falle": 6852,
      "clero": 6853,
      "belleza": 6854,
      "Univers": 6855,
      "marchar": 6856,
      "sentencia": 6857,
      "grados": 6858,
      "##esas": 6859,
      "aper": 6860,
      "Fo": 6861,
      "ofrec": 6862,
      "habria": 6863,
      "Bon": 6864,
      "asim": 6865,
      "cose": 6866,
      "Leon": 6867,
      "Ofici": 6868,
      "##arán": 6869,
      "Núm": 6870,
      "demo": 6871,
      "territor": 6872,
      "tribunal": 6873,
      "Nuestro": 6874,
      "já": 6875,
      "licencia": 6876,
      "och": 6877,
      "##darios": 6878,
      "##cemos": 6879,
      "propias": 6880,
      "acababa": 6881,
      "vuelve": 6882,
      "poderes": 6883,
      "##TES": 6884,
      "interesante": 6885,
      "indígenas": 6886,
      "cacique": 6887,
      "conmo": 6888,
      "Li": 6889,
      "arco": 6890,
      "paga": 6891,
      "coro": 6892,
      "##eciendo": 6893,
      "organización": 6894,
      "López": 6895,
      "arri": 6896,
      "##ázquez": 6897,
      "creyó": 6898,
      "##ómetros": 6899,
      "Guadalajara": 6900,
      "cubierta": 6901,
      "cio": 6902,
      "recog": 6903,
      "##goza": 6904,
      "perpetu": 6905,
      "arma": 6906,
      "72": 6907,
      "divid": 6908,
      "trato": 6909,
      "ulti": 6910,
      "respuesta": 6911,
      "dada": 6912,
      "##tente": 6913,
      "diario": 6914,
      "tuv": 6915,
      "ría": 6916,
      "##XICO": 6917,
      "ramo": 6918,
      "IX": 6919,
      "caba": 6920,
      "oí": 6921,
      "##tanto": 6922,
      "Patria": 6923,
      "record": 6924,
      "##tarle": 6925,
      "Santander": 6926,
      "suscri": 6927,
      "aso": 6928,
      "##teles": 6929,
      "bó": 6930,
      "rue": 6931,
      "hacian": 6932,
      "Napole": 6933,
      "vaci": 6934,
      "destruir": 6935,
      "##TOS": 6936,
      "resistir": 6937,
      "##lina": 6938,
      "perf": 6939,
      "acompañado": 6940,
      "##ernos": 6941,
      "York": 6942,
      "moneda": 6943,
      "##poli": 6944,
      "Santos": 6945,
      "anu": 6946,
      "municipal": 6947,
      "Men": 6948,
      "abierto": 6949,
      "DES": 6950,
      "puro": 6951,
      "opiniones": 6952,
      "cuch": 6953,
      "sao": 6954,
      "tren": 6955,
      "aumento": 6956,
      "Ol": 6957,
      "representación": 6958,
      "vist": 6959,
      "##ariamente": 6960,
      "versos": 6961,
      "figuras": 6962,
      "diga": 6963,
      "##ifa": 6964,
      "contener": 6965,
      "##xi": 6966,
      "penas": 6967,
      "resuelto": 6968,
      "Ud": 6969,
      "zo": 6970,
      "ocupado": 6971,
      "conjunto": 6972,
      "Sud": 6973,
      "correspondiente": 6974,
      "Valdi": 6975,
      "AM": 6976,
      "grad": 6977,
      "marin": 6978,
      "##áticos": 6979,
      "estados": 6980,
      "##rimir": 6981,
      "instrucciones": 6982,
      "##ans": 6983,
      "propa": 6984,
      "exclamó": 6985,
      "Distrito": 6986,
      "ang": 6987,
      "aho": 6988,
      "##tana": 6989,
      "tomaron": 6990,
      "canto": 6991,
      "81": 6992,
      "neral": 6993,
      "miseria": 6994,
      "bomb": 6995,
      "noviembre": 6996,
      "Torres": 6997,
      "doctrina": 6998,
      "riquezas": 6999,
      "fic": 7000,
      "bem": 7001,
      "##ons": 7002,
      "atacar": 7003,
      "nov": 7004,
      "agricultura": 7005,
      "volv": 7006,
      "dejan": 7007,
      "##UEL": 7008,
      "##osamente": 7009,
      "orgullo": 7010,
      "##amanca": 7011,
      "abor": 7012,
      "Hos": 7013,
      "componen": 7014,
      "##taria": 7015,
      "##ulos": 7016,
      "##cáo": 7017,
      "noches": 7018,
      "comerci": 7019,
      "consecuencias": 7020,
      "debo": 7021,
      "sacrificios": 7022,
      "##gata": 7023,
      "plazas": 7024,
      "tempes": 7025,
      "##chada": 7026,
      "entregar": 7027,
      "Victoria": 7028,
      "ampl": 7029,
      "153": 7030,
      "##ezca": 7031,
      "longitud": 7032,
      "garant": 7033,
      "Ejército": 7034,
      "##CU": 7035,
      "##arnos": 7036,
      "judi": 7037,
      "##áronse": 7038,
      "Martínez": 7039,
      "##cara": 7040,
      "##canos": 7041,
      "profunda": 7042,
      "llano": 7043,
      "reac": 7044,
      "extranjeros": 7045,
      "tendrá": 7046,
      "horrible": 7047,
      "vía": 7048,
      "##cr": 7049,
      "silla": 7050,
      "Blanco": 7051,
      "obediencia": 7052,
      "habido": 7053,
      "ejércitos": 7054,
      "Pac": 7055,
      "arru": 7056,
      "ciu": 7057,
      "71": 7058,
      "alturas": 7059,
      "particip": 7060,
      "##AY": 7061,
      "Cuzco": 7062,
      "reunir": 7063,
      "##chor": 7064,
      "precisamente": 7065,
      "suele": 7066,
      "##quete": 7067,
      "guard": 7068,
      "frontera": 7069,
      "##bio": 7070,
      "Jane": 7071,
      "Oriental": 7072,
      "blancos": 7073,
      "lá": 7074,
      "mercan": 7075,
      "minutos": 7076,
      "##rue": 7077,
      "##vez": 7078,
      "invierno": 7079,
      "fácilmente": 7080,
      "##anía": 7081,
      "##riz": 7082,
      "##ermo": 7083,
      "##ense": 7084,
      "PRI": 7085,
      "vuestros": 7086,
      "exclus": 7087,
      "tocar": 7088,
      "consol": 7089,
      "publicado": 7090,
      "depois": 7091,
      "regist": 7092,
      "gritos": 7093,
      "descubierto": 7094,
      "reno": 7095,
      "Ministerio": 7096,
      "viven": 7097,
      "Oeste": 7098,
      "##caban": 7099,
      "notar": 7100,
      "##lantes": 7101,
      "juntos": 7102,
      "sacrificio": 7103,
      "traje": 7104,
      "occidental": 7105,
      "##zca": 7106,
      "escep": 7107,
      "Tres": 7108,
      "Lis": 7109,
      "zar": 7110,
      "##adier": 7111,
      "Caball": 7112,
      "necesarios": 7113,
      "jardin": 7114,
      "Pontevedra": 7115,
      "estación": 7116,
      "matar": 7117,
      "universal": 7118,
      "vemos": 7119,
      "175": 7120,
      "fuga": 7121,
      "bia": 7122,
      "##od": 7123,
      "155": 7124,
      "della": 7125,
      "compla": 7126,
      "sirven": 7127,
      "##RU": 7128,
      "piedad": 7129,
      "salvo": 7130,
      "Fray": 7131,
      "veo": 7132,
      "culpa": 7133,
      "##inarias": 7134,
      "distinguido": 7135,
      "Cámara": 7136,
      "rato": 7137,
      "conocida": 7138,
      "tipo": 7139,
      "caudal": 7140,
      "Vie": 7141,
      "ago": 7142,
      "publicó": 7143,
      "##chó": 7144,
      "Guana": 7145,
      "tenta": 7146,
      "82": 7147,
      "##tuosa": 7148,
      "templos": 7149,
      "publico": 7150,
      "##aná": 7151,
      "Rusia": 7152,
      "##cumb": 7153,
      "plano": 7154,
      "##MERO": 7155,
      "cient": 7156,
      "##inosa": 7157,
      "idioma": 7158,
      "##fes": 7159,
      "fueran": 7160,
      "##ey": 7161,
      "debian": 7162,
      "niña": 7163,
      "##bro": 7164,
      "nú": 7165,
      "arroyo": 7166,
      "Oro": 7167,
      "Cuer": 7168,
      "confer": 7169,
      "##icho": 7170,
      "##dice": 7171,
      "cuantas": 7172,
      "##ctura": 7173,
      "españolas": 7174,
      "abandonar": 7175,
      "Galicia": 7176,
      "arena": 7177,
      "saque": 7178,
      "considera": 7179,
      "PARA": 7180,
      "espar": 7181,
      "Algunos": 7182,
      "90": 7183,
      "##acion": 7184,
      "##ctores": 7185,
      "##tirse": 7186,
      "habiéndose": 7187,
      "abundante": 7188,
      "##urado": 7189,
      "hermana": 7190,
      "ferrocar": 7191,
      "Agui": 7192,
      "Ese": 7193,
      "través": 7194,
      "pira": 7195,
      "juego": 7196,
      "##fos": 7197,
      "Quito": 7198,
      "Dista": 7199,
      "socorro": 7200,
      "valles": 7201,
      "pobla": 7202,
      "éstas": 7203,
      "Jal": 7204,
      "Rosa": 7205,
      "##dadas": 7206,
      "##taro": 7207,
      "sabio": 7208,
      "ajust": 7209,
      "sorpresa": 7210,
      "##vias": 7211,
      "##umas": 7212,
      "##JO": 7213,
      "Lan": 7214,
      "concluir": 7215,
      "Br": 7216,
      "gig": 7217,
      "##ridos": 7218,
      "sun": 7219,
      "nacido": 7220,
      "dejaba": 7221,
      "Zaragoza": 7222,
      "Joaquín": 7223,
      "disfru": 7224,
      "##gle": 7225,
      "exci": 7226,
      "actitud": 7227,
      "denomin": 7228,
      "Greg": 7229,
      "##ída": 7230,
      "mineral": 7231,
      "##risto": 7232,
      "ilum": 7233,
      "##vam": 7234,
      "útiles": 7235,
      "alcanzar": 7236,
      "elevado": 7237,
      "Guill": 7238,
      "humilde": 7239,
      "78": 7240,
      "VIL": 7241,
      "facilidad": 7242,
      "Director": 7243,
      "darse": 7244,
      "hechas": 7245,
      "huer": 7246,
      "supl": 7247,
      "industri": 7248,
      "verti": 7249,
      "##ili": 7250,
      "entero": 7251,
      "pudiese": 7252,
      "pudiendo": 7253,
      "Lic": 7254,
      "cun": 7255,
      "caudillo": 7256,
      "fuere": 7257,
      "alegre": 7258,
      "queb": 7259,
      "educación": 7260,
      "Uno": 7261,
      "mort": 7262,
      "consent": 7263,
      "157": 7264,
      "##del": 7265,
      "##DU": 7266,
      "Janeiro": 7267,
      "Ru": 7268,
      "ord": 7269,
      "##abia": 7270,
      "insul": 7271,
      "legisla": 7272,
      "cristian": 7273,
      "##iel": 7274,
      "##amarca": 7275,
      "reba": 7276,
      "nombramiento": 7277,
      "VIII": 7278,
      "citada": 7279,
      "redon": 7280,
      "##int": 7281,
      "últimas": 7282,
      "establecido": 7283,
      "somos": 7284,
      "unif": 7285,
      "tradición": 7286,
      "baile": 7287,
      "inh": 7288,
      "##entro": 7289,
      "Bernardo": 7290,
      "##ÁN": 7291,
      "156": 7292,
      "154": 7293,
      "##cible": 7294,
      "peru": 7295,
      "intento": 7296,
      "##ste": 7297,
      "Parece": 7298,
      "##deras": 7299,
      "cuestiones": 7300,
      "Pizarro": 7301,
      "cubrir": 7302,
      "aust": 7303,
      "mío": 7304,
      "76": 7305,
      "##sal": 7306,
      "74": 7307,
      "ore": 7308,
      "argu": 7309,
      "XVI": 7310,
      "##laron": 7311,
      "desierto": 7312,
      "##cedente": 7313,
      "conmigo": 7314,
      "chas": 7315,
      "irri": 7316,
      "73": 7317,
      "##MB": 7318,
      "ultra": 7319,
      "##sb": 7320,
      "dez": 7321,
      "cama": 7322,
      "##tiz": 7323,
      "Nar": 7324,
      "##ciles": 7325,
      "inclin": 7326,
      "necesarias": 7327,
      "vieja": 7328,
      "sera": 7329,
      "##grama": 7330,
      "Andes": 7331,
      "espantos": 7332,
      "##leo": 7333,
      "auto": 7334,
      "recuerdos": 7335,
      "##elo": 7336,
      "distante": 7337,
      "conceb": 7338,
      "##cero": 7339,
      "memor": 7340,
      "Io": 7341,
      "mexicano": 7342,
      "ochenta": 7343,
      "##nto": 7344,
      "##iu": 7345,
      "mares": 7346,
      "vasallos": 7347,
      "ina": 7348,
      "Rica": 7349,
      "##nador": 7350,
      "##hia": 7351,
      "delito": 7352,
      "##ellos": 7353,
      "espectáculo": 7354,
      "lun": 7355,
      "CAL": 7356,
      "ausencia": 7357,
      "iglesias": 7358,
      "movimientos": 7359,
      "##ides": 7360,
      "filas": 7361,
      "pide": 7362,
      "##grad": 7363,
      "hablado": 7364,
      "une": 7365,
      "indud": 7366,
      "158": 7367,
      "Vega": 7368,
      "tercer": 7369,
      "director": 7370,
      "gos": 7371,
      "Nin": 7372,
      "reinado": 7373,
      "##tez": 7374,
      "recibe": 7375,
      "abrió": 7376,
      "utilidad": 7377,
      "subsist": 7378,
      "TE": 7379,
      "navegación": 7380,
      "guarde": 7381,
      "víctimas": 7382,
      "alcance": 7383,
      "##edores": 7384,
      "enér": 7385,
      "llevaban": 7386,
      "##indo": 7387,
      "cabe": 7388,
      "demon": 7389,
      "novedad": 7390,
      "deman": 7391,
      "Benito": 7392,
      "épocas": 7393,
      "pintores": 7394,
      "gros": 7395,
      "cris": 7396,
      "clam": 7397,
      "averi": 7398,
      "vosotros": 7399,
      "600": 7400,
      "contaba": 7401,
      "cristiana": 7402,
      "pertenece": 7403,
      "grab": 7404,
      "carn": 7405,
      "##turo": 7406,
      "vestidos": 7407,
      "##lana": 7408,
      "##randa": 7409,
      "Poco": 7410,
      "77": 7411,
      "##ecida": 7412,
      "Señores": 7413,
      "84": 7414,
      "##íso": 7415,
      "paredes": 7416,
      "##deros": 7417,
      "Dice": 7418,
      "efectu": 7419,
      "civiles": 7420,
      "##iqui": 7421,
      "arcos": 7422,
      "destac": 7423,
      "##MI": 7424,
      "##rillos": 7425,
      "playa": 7426,
      "produjo": 7427,
      "83": 7428,
      "moles": 7429,
      "ramos": 7430,
      "##ux": 7431,
      "##yn": 7432,
      "##cientas": 7433,
      "alum": 7434,
      "Fernandez": 7435,
      "Fal": 7436,
      "grav": 7437,
      "exterior": 7438,
      "##boa": 7439,
      "##ENTE": 7440,
      "Tre": 7441,
      "levanta": 7442,
      "##góes": 7443,
      "ordinario": 7444,
      "hubiesen": 7445,
      "trabajar": 7446,
      "##ificar": 7447,
      "mensa": 7448,
      "##GA": 7449,
      "franque": 7450,
      "##CCIÓN": 7451,
      "Poder": 7452,
      "malos": 7453,
      "##hon": 7454,
      "compañero": 7455,
      "apell": 7456,
      "opon": 7457,
      "cargos": 7458,
      "testigos": 7459,
      "catedral": 7460,
      "descubrimiento": 7461,
      "Puente": 7462,
      "reve": 7463,
      "hiciese": 7464,
      "Yucatán": 7465,
      "consiste": 7466,
      "numerosos": 7467,
      "Pie": 7468,
      "imprenta": 7469,
      "vender": 7470,
      "##ficación": 7471,
      "pit": 7472,
      "Catedral": 7473,
      "##aré": 7474,
      "ilus": 7475,
      "TO": 7476,
      "fri": 7477,
      "rie": 7478,
      "provincial": 7479,
      "##éramos": 7480,
      "##pú": 7481,
      "Vire": 7482,
      "auda": 7483,
      "emprender": 7484,
      "jud": 7485,
      "##iero": 7486,
      "85": 7487,
      "obrar": 7488,
      "Sociedad": 7489,
      "declaración": 7490,
      "escul": 7491,
      "empu": 7492,
      "Adem": 7493,
      "Je": 7494,
      "Lie": 7495,
      "151": 7496,
      "conducir": 7497,
      "maríti": 7498,
      "calma": 7499,
      "enfermos": 7500,
      "hun": 7501,
      "acciones": 7502,
      "Mej": 7503,
      "usur": 7504,
      "inmediato": 7505,
      "nombrar": 7506,
      "segui": 7507,
      "lista": 7508,
      "declaró": 7509,
      "CI": 7510,
      "agradable": 7511,
      "##ex": 7512,
      "##ROS": 7513,
      "Ib": 7514,
      "##ademia": 7515,
      "ainda": 7516,
      "##ife": 7517,
      "incorpor": 7518,
      "mia": 7519,
      "venganza": 7520,
      "admirable": 7521,
      "Estre": 7522,
      "flu": 7523,
      "##ituir": 7524,
      "sól": 7525,
      "esla": 7526,
      "##rian": 7527,
      "oido": 7528,
      "Arti": 7529,
      "inmediaciones": 7530,
      "Caracas": 7531,
      "##arde": 7532,
      "lat": 7533,
      "energía": 7534,
      "##iblioteca": 7535,
      "##ciosos": 7536,
      "##asi": 7537,
      "##LAS": 7538,
      "árabes": 7539,
      "161": 7540,
      "Quien": 7541,
      "Bolivia": 7542,
      "##uitas": 7543,
      "exal": 7544,
      "tono": 7545,
      "Exc": 7546,
      "159": 7547,
      "Bartol": 7548,
      "bes": 7549,
      "délos": 7550,
      "copi": 7551,
      "grupos": 7552,
      "Príncipe": 7553,
      "##jarse": 7554,
      "caza": 7555,
      "##amin": 7556,
      "pasan": 7557,
      "coo": 7558,
      "conocimientos": 7559,
      "final": 7560,
      "##sem": 7561,
      "lum": 7562,
      "presti": 7563,
      "##gulo": 7564,
      "##ington": 7565,
      "explo": 7566,
      "estrecho": 7567,
      "erig": 7568,
      "infeliz": 7569,
      "Secretario": 7570,
      "suplic": 7571,
      "Cla": 7572,
      "monasterio": 7573,
      "ahor": 7574,
      "enfermo": 7575,
      "##mó": 7576,
      "##ENTOS": 7577,
      "Nación": 7578,
      "##chs": 7579,
      "circular": 7580,
      "Potos": 7581,
      "prudencia": 7582,
      "caracteres": 7583,
      "SO": 7584,
      "##orce": 7585,
      "aproxim": 7586,
      "inex": 7587,
      "dientes": 7588,
      "presentado": 7589,
      "dioses": 7590,
      "Otro": 7591,
      "eno": 7592,
      "ayuntamiento": 7593,
      "semana": 7594,
      "gefes": 7595,
      "##har": 7596,
      "cultivo": 7597,
      "llegando": 7598,
      "##unció": 7599,
      "Todas": 7600,
      "patrió": 7601,
      "Trin": 7602,
      "turb": 7603,
      "##ugo": 7604,
      "hice": 7605,
      "##ricos": 7606,
      "##terrán": 7607,
      "Plaza": 7608,
      "##icioso": 7609,
      "bién": 7610,
      "##erío": 7611,
      "##pio": 7612,
      "##forma": 7613,
      "sobres": 7614,
      "MS": 7615,
      "juramento": 7616,
      "Además": 7617,
      "Alm": 7618,
      "habt": 7619,
      "pelos": 7620,
      "europeos": 7621,
      "sufrido": 7622,
      "operación": 7623,
      "cuello": 7624,
      "fieles": 7625,
      "indispensable": 7626,
      "poniendo": 7627,
      "79": 7628,
      "Medina": 7629,
      "##pula": 7630,
      "matrimonio": 7631,
      "tercero": 7632,
      "detalles": 7633,
      "condes": 7634,
      "tengan": 7635,
      "largas": 7636,
      "ciencias": 7637,
      "inci": 7638,
      "poses": 7639,
      "Salamanca": 7640,
      "particularmente": 7641,
      "nobleza": 7642,
      "puesta": 7643,
      "kilómetros": 7644,
      "Sán": 7645,
      "conform": 7646,
      "correspondencia": 7647,
      "Escu": 7648,
      "presentan": 7649,
      "monumento": 7650,
      "inmediata": 7651,
      "Cl": 7652,
      "negocia": 7653,
      "acá": 7654,
      "romano": 7655,
      "Valdivia": 7656,
      "luces": 7657,
      "##éc": 7658,
      "ganados": 7659,
      "##quera": 7660,
      "trabaj": 7661,
      "bando": 7662,
      "nem": 7663,
      "soberan": 7664,
      "jueces": 7665,
      "pur": 7666,
      "##posicion": 7667,
      "contento": 7668,
      "Imperio": 7669,
      "discre": 7670,
      "escritos": 7671,
      "aceptar": 7672,
      "sacerdotes": 7673,
      "Arch": 7674,
      "ayuda": 7675,
      "cidade": 7676,
      "prisionero": 7677,
      "oper": 7678,
      "diese": 7679,
      "##ensión": 7680,
      "César": 7681,
      "##andal": 7682,
      "calum": 7683,
      "fé": 7684,
      "imperial": 7685,
      "##atorio": 7686,
      "anda": 7687,
      "96": 7688,
      "obligación": 7689,
      "Península": 7690,
      "monumentos": 7691,
      "##ate": 7692,
      "mención": 7693,
      "##uh": 7694,
      "##entados": 7695,
      "realistas": 7696,
      "Cató": 7697,
      "huel": 7698,
      "desesper": 7699,
      "##ko": 7700,
      "Ejecu": 7701,
      "fie": 7702,
      "dueños": 7703,
      "##idencias": 7704,
      "vientos": 7705,
      "barrio": 7706,
      "##damente": 7707,
      "##anse": 7708,
      "paral": 7709,
      "agentes": 7710,
      "bóve": 7711,
      "##rida": 7712,
      "##unt": 7713,
      "origin": 7714,
      "Mac": 7715,
      "dados": 7716,
      "Arro": 7717,
      "cou": 7718,
      "extranjero": 7719,
      "deberes": 7720,
      "reforma": 7721,
      "independiente": 7722,
      "Sres": 7723,
      "cuadros": 7724,
      "##entri": 7725,
      "suelen": 7726,
      "suponer": 7727,
      "##manas": 7728,
      "chac": 7729,
      "partidarios": 7730,
      "exe": 7731,
      "marques": 7732,
      "ardiente": 7733,
      "pereg": 7734,
      "Cel": 7735,
      "##jio": 7736,
      "compuesto": 7737,
      "##egos": 7738,
      "nombró": 7739,
      "##adoras": 7740,
      "setenta": 7741,
      "##iforn": 7742,
      "papa": 7743,
      "canón": 7744,
      "naves": 7745,
      "##alco": 7746,
      "Cerv": 7747,
      "escuelas": 7748,
      "ventaja": 7749,
      "Papa": 7750,
      "municiones": 7751,
      "uma": 7752,
      "cog": 7753,
      "insurrec": 7754,
      "Gregorio": 7755,
      "terminar": 7756,
      "fenóm": 7757,
      "sucedido": 7758,
      "##ji": 7759,
      "materiales": 7760,
      "arbit": 7761,
      "construir": 7762,
      "##cordia": 7763,
      "recinto": 7764,
      "caja": 7765,
      "correg": 7766,
      "fuentes": 7767,
      "char": 7768,
      "##quinas": 7769,
      "manus": 7770,
      "escala": 7771,
      "Bat": 7772,
      "interpre": 7773,
      "##ps": 7774,
      "##cua": 7775,
      "retirarse": 7776,
      "pastor": 7777,
      "débil": 7778,
      "seda": 7779,
      "abre": 7780,
      "trató": 7781,
      "ensan": 7782,
      "cima": 7783,
      "reconocimiento": 7784,
      "reducido": 7785,
      "café": 7786,
      "ner": 7787,
      "part": 7788,
      "lecho": 7789,
      "Cuar": 7790,
      "ordenó": 7791,
      "satisfacer": 7792,
      "tratados": 7793,
      "pintura": 7794,
      "combatir": 7795,
      "Vamos": 7796,
      "##dría": 7797,
      "invasión": 7798,
      "caridad": 7799,
      "fos": 7800,
      "religiosas": 7801,
      "sombrero": 7802,
      "secun": 7803,
      "empleado": 7804,
      "esti": 7805,
      "prosperidad": 7806,
      "Már": 7807,
      "conces": 7808,
      "lectura": 7809,
      "lluvia": 7810,
      "compara": 7811,
      "gene": 7812,
      "##QUE": 7813,
      "162": 7814,
      "pasados": 7815,
      "##tible": 7816,
      "##emin": 7817,
      "##OG": 7818,
      "dijeron": 7819,
      "##ciosa": 7820,
      "trataba": 7821,
      "rayos": 7822,
      "ríos": 7823,
      "eres": 7824,
      "nuevamente": 7825,
      "logró": 7826,
      "viajero": 7827,
      "Bretaña": 7828,
      "##jón": 7829,
      "sole": 7830,
      "cédula": 7831,
      "ps": 7832,
      "barbar": 7833,
      "dij": 7834,
      "Ge": 7835,
      "veía": 7836,
      "##izan": 7837,
      "##ator": 7838,
      "clara": 7839,
      "gabinete": 7840,
      "tall": 7841,
      "Marina": 7842,
      "aven": 7843,
      "brin": 7844,
      "fantas": 7845,
      "estad": 7846,
      "polvo": 7847,
      "Hemos": 7848,
      "romper": 7849,
      "económ": 7850,
      "Rel": 7851,
      "desl": 7852,
      "##ritos": 7853,
      "navio": 7854,
      "Tam": 7855,
      "suceder": 7856,
      "estension": 7857,
      "Bartolomé": 7858,
      "lujo": 7859,
      "Medi": 7860,
      "##seo": 7861,
      "##íes": 7862,
      "reserva": 7863,
      "manifestar": 7864,
      "Total": 7865,
      "nacimiento": 7866,
      "armados": 7867,
      "enorme": 7868,
      "arzobispo": 7869,
      "sesión": 7870,
      "Tri": 7871,
      "##hes": 7872,
      "Nosotros": 7873,
      "encargo": 7874,
      "demostra": 7875,
      "fidel": 7876,
      "comida": 7877,
      "patio": 7878,
      "artíst": 7879,
      "codi": 7880,
      "informe": 7881,
      "Napoleón": 7882,
      "monarquía": 7883,
      "manifiesta": 7884,
      "dirigir": 7885,
      "sever": 7886,
      "Administ": 7887,
      "Hua": 7888,
      "Oa": 7889,
      "derrib": 7890,
      "ai": 7891,
      "##udos": 7892,
      "esl": 7893,
      "nació": 7894,
      "sitios": 7895,
      "ines": 7896,
      "##larse": 7897,
      "cí": 7898,
      "##arato": 7899,
      "##ensos": 7900,
      "##cázar": 7901,
      "Hé": 7902,
      "PER": 7903,
      "sacu": 7904,
      "vaya": 7905,
      "dose": 7906,
      "##inaciones": 7907,
      "trigo": 7908,
      "Figu": 7909,
      "Nor": 7910,
      "##ipo": 7911,
      "abierta": 7912,
      "cristiano": 7913,
      "86": 7914,
      "estima": 7915,
      "##jido": 7916,
      "lenguaje": 7917,
      "hermosura": 7918,
      "elector": 7919,
      "##ñó": 7920,
      "médico": 7921,
      "##olas": 7922,
      "##él": 7923,
      "##lase": 7924,
      "comunes": 7925,
      "concurr": 7926,
      "Hor": 7927,
      "bala": 7928,
      "Zaca": 7929,
      "enla": 7930,
      "##dencias": 7931,
      "sedu": 7932,
      "facultad": 7933,
      "##ejo": 7934,
      "bergan": 7935,
      "precipit": 7936,
      "dejaron": 7937,
      "nace": 7938,
      "elegante": 7939,
      "DON": 7940,
      "anno": 7941,
      "Diario": 7942,
      "Esa": 7943,
      "tempo": 7944,
      "reli": 7945,
      "establecimientos": 7946,
      "Viz": 7947,
      "##uato": 7948,
      "Valpara": 7949,
      "ponen": 7950,
      "oriente": 7951,
      "retrato": 7952,
      "Más": 7953,
      "dies": 7954,
      "probable": 7955,
      "##TAS": 7956,
      "destinado": 7957,
      "Tomás": 7958,
      "hallarse": 7959,
      "pera": 7960,
      "entrega": 7961,
      "creemos": 7962,
      "antigüedad": 7963,
      "mio": 7964,
      "rara": 7965,
      "##vit": 7966,
      "descripción": 7967,
      "aumentar": 7968,
      "##leto": 7969,
      "nor": 7970,
      "##identes": 7971,
      "cadáver": 7972,
      "##dera": 7973,
      "mirar": 7974,
      "referir": 7975,
      "##alia": 7976,
      "trae": 7977,
      "##cedes": 7978,
      "Pueblo": 7979,
      "entrado": 7980,
      "producido": 7981,
      "Inde": 7982,
      "Justicia": 7983,
      "nal": 7984,
      "premio": 7985,
      "pedido": 7986,
      "Bust": 7987,
      "Cant": 7988,
      "colocado": 7989,
      "##use": 7990,
      "Sor": 7991,
      "##urar": 7992,
      "Navarra": 7993,
      "asimismo": 7994,
      "cuidados": 7995,
      "federal": 7996,
      "caz": 7997,
      "enseñanza": 7998,
      "##jue": 7999,
      "##orado": 8000,
      "volvieron": 8001,
      "santos": 8002,
      "174": 8003,
      "justa": 8004,
      "ocupaba": 8005,
      "Cob": 8006,
      "legal": 8007,
      "##esto": 8008,
      "##quito": 8009,
      "custo": 8010,
      "ignorancia": 8011,
      "##TOR": 8012,
      "##chan": 8013,
      "vice": 8014,
      "esfor": 8015,
      "posterior": 8016,
      "##menta": 8017,
      "presen": 8018,
      "cuentas": 8019,
      "intención": 8020,
      "poesía": 8021,
      "##dero": 8022,
      "Bri": 8023,
      "tiem": 8024,
      "Dol": 8025,
      "destro": 8026,
      "celebrar": 8027,
      "ído": 8028,
      "grie": 8029,
      "cola": 8030,
      "metal": 8031,
      "favorable": 8032,
      "respetable": 8033,
      "Ala": 8034,
      "sed": 8035,
      "formó": 8036,
      "sirvió": 8037,
      "culp": 8038,
      "eman": 8039,
      "##ash": 8040,
      "acus": 8041,
      "nubes": 8042,
      "prete": 8043,
      "planes": 8044,
      "incom": 8045,
      "provecho": 8046,
      "88": 8047,
      "cuál": 8048,
      "defendi": 8049,
      "largos": 8050,
      "REV": 8051,
      "Les": 8052,
      "##erta": 8053,
      "admiración": 8054,
      "##gráfica": 8055,
      "reh": 8056,
      "hagan": 8057,
      "barran": 8058,
      "mercad": 8059,
      "queria": 8060,
      "Villar": 8061,
      "tesoro": 8062,
      "bue": 8063,
      "##vidad": 8064,
      "##entamente": 8065,
      "##teza": 8066,
      "Sánchez": 8067,
      "Cuenca": 8068,
      "cristal": 8069,
      "Departamento": 8070,
      "renta": 8071,
      "##bia": 8072,
      "##ubo": 8073,
      "conocidos": 8074,
      "gratitud": 8075,
      "##ANO": 8076,
      "resplan": 8077,
      "Ata": 8078,
      "##trio": 8079,
      "intent": 8080,
      "proceso": 8081,
      "##AJ": 8082,
      "##rantes": 8083,
      "Duque": 8084,
      "proyectos": 8085,
      "##temala": 8086,
      "riesgo": 8087,
      "##amora": 8088,
      "##endía": 8089,
      "Hidalgo": 8090,
      "errores": 8091,
      "representantes": 8092,
      "cán": 8093,
      "Blas": 8094,
      "trá": 8095,
      "encontramos": 8096,
      "enviar": 8097,
      "compañías": 8098,
      "inquie": 8099,
      "##todo": 8100,
      "semp": 8101,
      "almirante": 8102,
      "filoso": 8103,
      "die": 8104,
      "llamados": 8105,
      "invi": 8106,
      "negar": 8107,
      "defensores": 8108,
      "##gh": 8109,
      "Silva": 8110,
      "Án": 8111,
      "cerros": 8112,
      "numerosas": 8113,
      "algodón": 8114,
      "recomp": 8115,
      "For": 8116,
      "derram": 8117,
      "##cripciones": 8118,
      "Rib": 8119,
      "##gentes": 8120,
      "##tural": 8121,
      "finalmente": 8122,
      "quie": 8123,
      "Cura": 8124,
      "salvajes": 8125,
      "sumamente": 8126,
      "siguen": 8127,
      "moderna": 8128,
      "##diese": 8129,
      "precau": 8130,
      "valeros": 8131,
      "fundó": 8132,
      "##bi": 8133,
      "##into": 8134,
      "##timo": 8135,
      "estatu": 8136,
      "tele": 8137,
      "cercan": 8138,
      "ambición": 8139,
      "nome": 8140,
      "reta": 8141,
      "Casas": 8142,
      "lanza": 8143,
      "contradic": 8144,
      "hered": 8145,
      "eficaz": 8146,
      "##peración": 8147,
      "##sele": 8148,
      "fundar": 8149,
      "conflic": 8150,
      "Adelan": 8151,
      "98": 8152,
      "corr": 8153,
      "Mes": 8154,
      "##ución": 8155,
      "Potosí": 8156,
      "llos": 8157,
      "##fectos": 8158,
      "haciendas": 8159,
      "Alejandro": 8160,
      "##ENCIA": 8161,
      "tante": 8162,
      "ESPAÑ": 8163,
      "valientes": 8164,
      "Cho": 8165,
      "Argentina": 8166,
      "##ilas": 8167,
      "descanso": 8168,
      "sensa": 8169,
      "paseo": 8170,
      "roca": 8171,
      "crea": 8172,
      "materias": 8173,
      "##áns": 8174,
      "corp": 8175,
      "escrita": 8176,
      "comprar": 8177,
      "continuo": 8178,
      "resolvió": 8179,
      "enfermedades": 8180,
      "Nie": 8181,
      "detener": 8182,
      "##cala": 8183,
      "Guerrero": 8184,
      "##unales": 8185,
      "contras": 8186,
      "bases": 8187,
      "ánimos": 8188,
      "abri": 8189,
      "llanura": 8190,
      "plomo": 8191,
      "americana": 8192,
      "tamaño": 8193,
      "fuegos": 8194,
      "##dura": 8195,
      "sepulcro": 8196,
      "barra": 8197,
      "quel": 8198,
      "levantado": 8199,
      "resolver": 8200,
      "rival": 8201,
      "##rua": 8202,
      "Sancho": 8203,
      "Arzobispo": 8204,
      "asegura": 8205,
      "afirma": 8206,
      "aldea": 8207,
      "nado": 8208,
      "ocurrido": 8209,
      "encarn": 8210,
      "respectivos": 8211,
      "mono": 8212,
      "##DIC": 8213,
      "concer": 8214,
      "##tines": 8215,
      "Uruguay": 8216,
      "catorce": 8217,
      "##tuario": 8218,
      "dista": 8219,
      "ejercer": 8220,
      "Tru": 8221,
      "vincia": 8222,
      "800": 8223,
      "##RICA": 8224,
      "histórico": 8225,
      "rea": 8226,
      "87": 8227,
      "cléri": 8228,
      "violencia": 8229,
      "bras": 8230,
      "quitar": 8231,
      "Almirante": 8232,
      "quanto": 8233,
      "arrebat": 8234,
      "##lus": 8235,
      "espalda": 8236,
      "fundado": 8237,
      "bondad": 8238,
      "QU": 8239,
      "llegan": 8240,
      "dores": 8241,
      "The": 8242,
      "curiosidad": 8243,
      "AP": 8244,
      "##alupe": 8245,
      "dire": 8246,
      "##cola": 8247,
      "##OLU": 8248,
      "artistas": 8249,
      "regreso": 8250,
      "##cillo": 8251,
      "164": 8252,
      "##piraciones": 8253,
      "sacerdote": 8254,
      "##xima": 8255,
      "límite": 8256,
      "cita": 8257,
      "historiador": 8258,
      "regla": 8259,
      "círculo": 8260,
      "tena": 8261,
      "sop": 8262,
      "Lar": 8263,
      "conoci": 8264,
      "##ers": 8265,
      "##tadores": 8266,
      "Ul": 8267,
      "constantemente": 8268,
      "172": 8269,
      "hallaron": 8270,
      "tá": 8271,
      "##trópoli": 8272,
      "pasión": 8273,
      "podria": 8274,
      "QUE": 8275,
      "jente": 8276,
      "##gol": 8277,
      "##dol": 8278,
      "inver": 8279,
      "Guatemala": 8280,
      "zona": 8281,
      "fijar": 8282,
      "olvido": 8283,
      "continuación": 8284,
      "parroquia": 8285,
      "producto": 8286,
      "Leg": 8287,
      "azúcar": 8288,
      "Senado": 8289,
      "bron": 8290,
      "163": 8291,
      "art": 8292,
      "llamaban": 8293,
      "tembl": 8294,
      "gana": 8295,
      "dominación": 8296,
      "Pam": 8297,
      "incre": 8298,
      "##umo": 8299,
      "tea": 8300,
      "##icidad": 8301,
      "acuer": 8302,
      "Maes": 8303,
      "ganar": 8304,
      "instrumentos": 8305,
      "porción": 8306,
      "formal": 8307,
      "ocupación": 8308,
      "corrientes": 8309,
      "piados": 8310,
      "banda": 8311,
      "inglesa": 8312,
      "XIV": 8313,
      "##ENERAL": 8314,
      "explica": 8315,
      "Libertador": 8316,
      "desemb": 8317,
      "adquirir": 8318,
      "reinos": 8319,
      "impo": 8320,
      "##XX": 8321,
      "##gica": 8322,
      "estatua": 8323,
      "prestar": 8324,
      "indis": 8325,
      "Egip": 8326,
      "dó": 8327,
      "trastor": 8328,
      "oído": 8329,
      "##ley": 8330,
      "disim": 8331,
      "menores": 8332,
      "víctima": 8333,
      "89": 8334,
      "desf": 8335,
      "Álvarez": 8336,
      "nó": 8337,
      "##ute": 8338,
      "ene": 8339,
      "conquistadores": 8340,
      "verano": 8341,
      "robust": 8342,
      "Guillermo": 8343,
      "títulos": 8344,
      "##chando": 8345,
      "At": 8346,
      "Academia": 8347,
      "moradores": 8348,
      "Californ": 8349,
      "sublime": 8350,
      "##idió": 8351,
      "Mara": 8352,
      "Callao": 8353,
      "soberanía": 8354,
      "fragata": 8355,
      "trescientos": 8356,
      "##ICI": 8357,
      "##ñada": 8358,
      "##amante": 8359,
      "##ladas": 8360,
      "ios": 8361,
      "reo": 8362,
      "governo": 8363,
      "Rico": 8364,
      "##itación": 8365,
      "##érrez": 8366,
      "fundada": 8367,
      "##jadas": 8368,
      "entraron": 8369,
      "Moreno": 8370,
      "Provincias": 8371,
      "bárbaros": 8372,
      "##gente": 8373,
      "imaginación": 8374,
      "experiencia": 8375,
      "detrás": 8376,
      "dignos": 8377,
      "colocar": 8378,
      "hala": 8379,
      "haz": 8380,
      "ahi": 8381,
      "tó": 8382,
      "intr": 8383,
      "obten": 8384,
      "propuso": 8385,
      "Teo": 8386,
      "honrado": 8387,
      "religiosa": 8388,
      "cum": 8389,
      "cantar": 8390,
      "NÚ": 8391,
      "Cuán": 8392,
      "actualmente": 8393,
      "reparti": 8394,
      "verá": 8395,
      "probablemente": 8396,
      "povo": 8397,
      "accid": 8398,
      "cónsul": 8399,
      "monstru": 8400,
      "170": 8401,
      "165": 8402,
      "antecedentes": 8403,
      "perdió": 8404,
      "Jorge": 8405,
      "poderosa": 8406,
      "escribe": 8407,
      "proposición": 8408,
      "partir": 8409,
      "juntas": 8410,
      "maravillos": 8411,
      "##urias": 8412,
      "##ise": 8413,
      "deser": 8414,
      "##grafo": 8415,
      "páginas": 8416,
      "bajar": 8417,
      "adonde": 8418,
      "Vas": 8419,
      "departam": 8420,
      "ofreció": 8421,
      "##tzin": 8422,
      "##tag": 8423,
      "##álogo": 8424,
      "ridí": 8425,
      "comi": 8426,
      "tuve": 8427,
      "absoluto": 8428,
      "lien": 8429,
      "zas": 8430,
      "ei": 8431,
      "##ns": 8432,
      "todavia": 8433,
      "radic": 8434,
      "##ética": 8435,
      "173": 8436,
      "##uz": 8437,
      "acta": 8438,
      "domingo": 8439,
      "obtuvo": 8440,
      "renunci": 8441,
      "arist": 8442,
      "contestación": 8443,
      "Fre": 8444,
      "pom": 8445,
      "##elle": 8446,
      "Panamá": 8447,
      "parecido": 8448,
      "ventura": 8449,
      "lluvias": 8450,
      "drama": 8451,
      "distintas": 8452,
      "171": 8453,
      "hiciera": 8454,
      "zapa": 8455,
      "arbi": 8456,
      "desgraciado": 8457,
      "indicado": 8458,
      "impresión": 8459,
      "atender": 8460,
      "fiscal": 8461,
      "Peña": 8462,
      "duró": 8463,
      "Duran": 8464,
      "Españoles": 8465,
      "##vangel": 8466,
      "dominios": 8467,
      "ejecutar": 8468,
      "fras": 8469,
      "hel": 8470,
      "mentos": 8471,
      "oyó": 8472,
      "hijas": 8473,
      "absolutamente": 8474,
      "destinos": 8475,
      "realizar": 8476,
      "incur": 8477,
      "##gaciones": 8478,
      "histórica": 8479,
      "##igne": 8480,
      "pico": 8481,
      "Morales": 8482,
      "##alter": 8483,
      "discusión": 8484,
      "vier": 8485,
      "##jon": 8486,
      "Asamblea": 8487,
      "extraño": 8488,
      "pidiendo": 8489,
      "caña": 8490,
      "elemento": 8491,
      "descen": 8492,
      "Exmo": 8493,
      "circu": 8494,
      "llegaba": 8495,
      "conservación": 8496,
      "Guzman": 8497,
      "unidad": 8498,
      "grandi": 8499,
      "libras": 8500,
      "##ider": 8501,
      "sagrado": 8502,
      "creyendo": 8503,
      "suprema": 8504,
      "verdaderos": 8505,
      "torno": 8506,
      "Pom": 8507,
      "outros": 8508,
      "penos": 8509,
      "vencido": 8510,
      "120": 8511,
      "escribano": 8512,
      "encontraron": 8513,
      "relacion": 8514,
      "historiadores": 8515,
      "Nun": 8516,
      "convers": 8517,
      "agora": 8518,
      "##ercio": 8519,
      "preguntas": 8520,
      "habéis": 8521,
      "palo": 8522,
      "informes": 8523,
      "servi": 8524,
      "venga": 8525,
      "señales": 8526,
      "proporción": 8527,
      "castellano": 8528,
      "Jose": 8529,
      "Bravo": 8530,
      "Clara": 8531,
      "denom": 8532,
      "crí": 8533,
      "Acu": 8534,
      "Marqués": 8535,
      "romana": 8536,
      "Ia": 8537,
      "quatro": 8538,
      "viejos": 8539,
      "Apenas": 8540,
      "tabaco": 8541,
      "advers": 8542,
      "literatura": 8543,
      "##ENS": 8544,
      "Indep": 8545,
      "##zgo": 8546,
      "quisiera": 8547,
      "impar": 8548,
      "Aben": 8549,
      "Alba": 8550,
      "insurrección": 8551,
      "eva": 8552,
      "##orro": 8553,
      "nen": 8554,
      "##ñal": 8555,
      "dim": 8556,
      "##ensiones": 8557,
      "Anti": 8558,
      "partidas": 8559,
      "permiso": 8560,
      "eru": 8561,
      "ojo": 8562,
      "##idro": 8563,
      "##tienen": 8564,
      "##ceder": 8565,
      "sincer": 8566,
      "Ruiz": 8567,
      "lia": 8568,
      "##riles": 8569,
      "responsabilidad": 8570,
      "retiró": 8571,
      "cualidades": 8572,
      "ocupan": 8573,
      "Excmo": 8574,
      "ea": 8575,
      "tuviese": 8576,
      "derra": 8577,
      "sesiones": 8578,
      "hablaba": 8579,
      "##minación": 8580,
      "rodi": 8581,
      "esperando": 8582,
      "repugn": 8583,
      "toler": 8584,
      "aques": 8585,
      "gres": 8586,
      "sucesor": 8587,
      "Tras": 8588,
      "##gento": 8589,
      "Juana": 8590,
      "##unción": 8591,
      "hablan": 8592,
      "Ilust": 8593,
      "rego": 8594,
      "sabía": 8595,
      "##ónica": 8596,
      "XXX": 8597,
      "disciplina": 8598,
      "despreci": 8599,
      "##dro": 8600,
      "recomend": 8601,
      "cariño": 8602,
      "##geros": 8603,
      "bellas": 8604,
      "Guadalupe": 8605,
      "Otra": 8606,
      "minerales": 8607,
      "oy": 8608,
      "##ID": 8609,
      "porte": 8610,
      "##lix": 8611,
      "vencedor": 8612,
      "Fernán": 8613,
      "Pir": 8614,
      "uni": 8615,
      "XII": 8616,
      "plen": 8617,
      "notas": 8618,
      "On": 8619,
      "desm": 8620,
      "producen": 8621,
      "Aca": 8622,
      "tend": 8623,
      "fortifica": 8624,
      "fren": 8625,
      "concil": 8626,
      "reform": 8627,
      "##áy": 8628,
      "recob": 8629,
      "##éndoles": 8630,
      "cae": 8631,
      "##LOS": 8632,
      "vió": 8633,
      "distra": 8634,
      "##ry": 8635,
      "salen": 8636,
      "poetas": 8637,
      "##ranza": 8638,
      "##iers": 8639,
      "nerv": 8640,
      "Gutiérrez": 8641,
      "dictamen": 8642,
      "venían": 8643,
      "dro": 8644,
      "Colegio": 8645,
      "absur": 8646,
      "empresas": 8647,
      "##cionario": 8648,
      "costado": 8649,
      "fazer": 8650,
      "odi": 8651,
      "tráns": 8652,
      "barro": 8653,
      "Alvarado": 8654,
      "publicar": 8655,
      "disponer": 8656,
      "domést": 8657,
      "ave": 8658,
      "cumplido": 8659,
      "##rupción": 8660,
      "Ejecutivo": 8661,
      "habíamos": 8662,
      "impa": 8663,
      "constancia": 8664,
      "eterna": 8665,
      "##resión": 8666,
      "rebelión": 8667,
      "gado": 8668,
      "##izadas": 8669,
      "##nia": 8670,
      "contenido": 8671,
      "vimos": 8672,
      "persegu": 8673,
      "##ou": 8674,
      "168": 8675,
      "párra": 8676,
      "##rú": 8677,
      "alt": 8678,
      "intervención": 8679,
      "ira": 8680,
      "mía": 8681,
      "##unas": 8682,
      "Wash": 8683,
      "compatrio": 8684,
      "##erial": 8685,
      "enamor": 8686,
      "##cones": 8687,
      "próxima": 8688,
      "##cipes": 8689,
      "sueldo": 8690,
      "##bamos": 8691,
      "impuesto": 8692,
      "cultura": 8693,
      "##tte": 8694,
      "muestras": 8695,
      "cólera": 8696,
      "Ill": 8697,
      "expresión": 8698,
      "##ián": 8699,
      "elevación": 8700,
      "Catalina": 8701,
      "Colonia": 8702,
      "##ernación": 8703,
      "ilustres": 8704,
      "Amp": 8705,
      "lograr": 8706,
      "##ística": 8707,
      "seres": 8708,
      "XIII": 8709,
      "##CAS": 8710,
      "presup": 8711,
      "dades": 8712,
      "93": 8713,
      "##eamente": 8714,
      "embara": 8715,
      "formada": 8716,
      "elevada": 8717,
      "##tencias": 8718,
      "poli": 8719,
      "limos": 8720,
      "cañón": 8721,
      "ingra": 8722,
      "cortar": 8723,
      "Virey": 8724,
      "ricas": 8725,
      "loco": 8726,
      "tarea": 8727,
      "circuns": 8728,
      "Supremo": 8729,
      "##laga": 8730,
      "península": 8731,
      "##iri": 8732,
      "ciertamente": 8733,
      "##ñoz": 8734,
      "REVOLU": 8735,
      "##ILE": 8736,
      "perjuicio": 8737,
      "horizonte": 8738,
      "eleva": 8739,
      "consideraciones": 8740,
      "##iación": 8741,
      "Cir": 8742,
      "manifestó": 8743,
      "héroe": 8744,
      "portugueses": 8745,
      "##ceres": 8746,
      "ofrecen": 8747,
      "92": 8748,
      "acabar": 8749,
      "##ecidos": 8750,
      "Aqui": 8751,
      "##jaron": 8752,
      "conocen": 8753,
      "##len": 8754,
      "grueso": 8755,
      "gobernadores": 8756,
      "Española": 8757,
      "expor": 8758,
      "sufri": 8759,
      "##medi": 8760,
      "reducir": 8761,
      "##ang": 8762,
      "pensaba": 8763,
      "podrían": 8764,
      "##tlán": 8765,
      "improvis": 8766,
      "ramas": 8767,
      "##obo": 8768,
      "##inte": 8769,
      "Majestad": 8770,
      "sacó": 8771,
      "Hig": 8772,
      "##ly": 8773,
      "aventur": 8774,
      "AI": 8775,
      "##cante": 8776,
      "llenar": 8777,
      "eme": 8778,
      "cadena": 8779,
      "temperatura": 8780,
      "variedad": 8781,
      "mugeres": 8782,
      "##gida": 8783,
      "decirlo": 8784,
      "manifiesto": 8785,
      "miserable": 8786,
      "propiedades": 8787,
      "tumba": 8788,
      "persecución": 8789,
      "paises": 8790,
      "##ance": 8791,
      "formaban": 8792,
      "91": 8793,
      "vicios": 8794,
      "##ublica": 8795,
      "##tillos": 8796,
      "Fin": 8797,
      "oportunidad": 8798,
      "Sep": 8799,
      "##digo": 8800,
      "##caso": 8801,
      "Mundo": 8802,
      "bisan": 8803,
      "##pores": 8804,
      "dal": 8805,
      "aren": 8806,
      "escandal": 8807,
      "socie": 8808,
      "hallado": 8809,
      "Cataluña": 8810,
      "tig": 8811,
      "Af": 8812,
      "mientos": 8813,
      "fortific": 8814,
      "##cilla": 8815,
      "Océano": 8816,
      "gozar": 8817,
      "quedaban": 8818,
      "posiciones": 8819,
      "BA": 8820,
      "acar": 8821,
      "##dando": 8822,
      "##osidad": 8823,
      "exti": 8824,
      "veremos": 8825,
      "##inada": 8826,
      "diablo": 8827,
      "##ieros": 8828,
      "vuestras": 8829,
      "solicitud": 8830,
      "##tasen": 8831,
      "Trinidad": 8832,
      "Marcos": 8833,
      "adelantado": 8834,
      "Cin": 8835,
      "salón": 8836,
      "tributo": 8837,
      "relij": 8838,
      "diré": 8839,
      "Río": 8840,
      "fundamento": 8841,
      "assim": 8842,
      "anciano": 8843,
      "dama": 8844,
      "##ñan": 8845,
      "##usieron": 8846,
      "pájar": 8847,
      "wh": 8848,
      "elles": 8849,
      "Pra": 8850,
      "archi": 8851,
      "habitación": 8852,
      "bay": 8853,
      "examen": 8854,
      "Juez": 8855,
      "modelo": 8856,
      "revuel": 8857,
      "inmortal": 8858,
      "Ferro": 8859,
      "##uy": 8860,
      "reunido": 8861,
      "exactitud": 8862,
      "oscuro": 8863,
      "piel": 8864,
      "##LES": 8865,
      "##maras": 8866,
      "Die": 8867,
      "Pach": 8868,
      "cesar": 8869,
      "##cedía": 8870,
      "miras": 8871,
      "frecuentes": 8872,
      "DOC": 8873,
      "Universidad": 8874,
      "acces": 8875,
      "progresos": 8876,
      "sagr": 8877,
      "fidelidad": 8878,
      "##ija": 8879,
      "permite": 8880,
      "95": 8881,
      "flan": 8882,
      "##hui": 8883,
      "elel": 8884,
      "entendido": 8885,
      "IL": 8886,
      "meter": 8887,
      "sociales": 8888,
      "repente": 8889,
      "##imento": 8890,
      "señoras": 8891,
      "Habia": 8892,
      "orí": 8893,
      "querían": 8894,
      "anima": 8895,
      "llenos": 8896,
      "esle": 8897,
      "##ple": 8898,
      "resolu": 8899,
      "insist": 8900,
      "mármol": 8901,
      "ame": 8902,
      "mediante": 8903,
      "marchó": 8904,
      "advertir": 8905,
      "##anca": 8906,
      "Pacífico": 8907,
      "prev": 8908,
      "abst": 8909,
      "acha": 8910,
      "Buena": 8911,
      "Mir": 8912,
      "China": 8913,
      "det": 8914,
      "##cana": 8915,
      "ocupó": 8916,
      "usar": 8917,
      "##ÑO": 8918,
      "149": 8919,
      "sección": 8920,
      "números": 8921,
      "##gaban": 8922,
      "tad": 8923,
      "Zamora": 8924,
      "hacerle": 8925,
      "##TICA": 8926,
      "deste": 8927,
      "##fu": 8928,
      "##anim": 8929,
      "##ánd": 8930,
      "prudente": 8931,
      "##iendas": 8932,
      "criado": 8933,
      "estremo": 8934,
      "mejicanos": 8935,
      "##cn": 8936,
      "criminal": 8937,
      "Andal": 8938,
      "equival": 8939,
      "##cita": 8940,
      "Muñoz": 8941,
      "ejemplar": 8942,
      "dormir": 8943,
      "hú": 8944,
      "declarado": 8945,
      "Otros": 8946,
      "##onas": 8947,
      "##guer": 8948,
      "venida": 8949,
      "beneficios": 8950,
      "añadió": 8951,
      "aquél": 8952,
      "chis": 8953,
      "esclam": 8954,
      "compone": 8955,
      "naturalmente": 8956,
      "rég": 8957,
      "bené": 8958,
      "##óes": 8959,
      "##iencias": 8960,
      "166": 8961,
      "Iturb": 8962,
      "termina": 8963,
      "extin": 8964,
      "privilegio": 8965,
      "consejos": 8966,
      "Lisboa": 8967,
      "Chil": 8968,
      "últimamente": 8969,
      "penetrar": 8970,
      "incendio": 8971,
      "##laba": 8972,
      "##cus": 8973,
      "##ule": 8974,
      "alianza": 8975,
      "##fin": 8976,
      "##cesa": 8977,
      "sentado": 8978,
      "cometido": 8979,
      "##juato": 8980,
      "##ENTO": 8981,
      "##porte": 8982,
      "furor": 8983,
      "##fort": 8984,
      "perro": 8985,
      "presidencia": 8986,
      "crey": 8987,
      "honores": 8988,
      "primo": 8989,
      "amante": 8990,
      "ración": 8991,
      "##ivos": 8992,
      "rojo": 8993,
      "dente": 8994,
      "aparecer": 8995,
      "evidente": 8996,
      "sín": 8997,
      "##bara": 8998,
      "divina": 8999,
      "reformas": 9000,
      "lee": 9001,
      "veia": 9002,
      "Rojas": 9003,
      "renuncia": 9004,
      "conservan": 9005,
      "sabios": 9006,
      "magnífico": 9007,
      "villas": 9008,
      "obligados": 9009,
      "órg": 9010,
      "humo": 9011,
      "aficion": 9012,
      "obstáculos": 9013,
      "diplom": 9014,
      "Cerro": 9015,
      "apareció": 9016,
      "estableció": 9017,
      "##fra": 9018,
      "mula": 9019,
      "rayo": 9020,
      "castigar": 9021,
      "Lim": 9022,
      "Garcia": 9023,
      "Ella": 9024,
      "##jeras": 9025,
      "ingenio": 9026,
      "Jalisco": 9027,
      "##ites": 9028,
      "espes": 9029,
      "99": 9030,
      "Plan": 9031,
      "vire": 9032,
      "##iéndole": 9033,
      "impulso": 9034,
      "bio": 9035,
      "sonri": 9036,
      "mó": 9037,
      "##lim": 9038,
      "##ambo": 9039,
      "reconocido": 9040,
      "Filip": 9041,
      "bajas": 9042,
      "it": 9043,
      "MÉXICO": 9044,
      "##RIAS": 9045,
      "deseaba": 9046,
      "AB": 9047,
      "Tem": 9048,
      "pál": 9049,
      "Magestad": 9050,
      "directamente": 9051,
      "considerar": 9052,
      "recoger": 9053,
      "cuesta": 9054,
      "consuelo": 9055,
      "Igu": 9056,
      "tie": 9057,
      "##abor": 9058,
      "Tro": 9059,
      "atras": 9060,
      "lev": 9061,
      "sombras": 9062,
      "Adelantado": 9063,
      "razas": 9064,
      "abandonado": 9065,
      "regoci": 9066,
      "terribles": 9067,
      "LIBRO": 9068,
      "traición": 9069,
      "sensible": 9070,
      "##gase": 9071,
      "curioso": 9072,
      "##CRI": 9073,
      "tercio": 9074,
      "casu": 9075,
      "vivos": 9076,
      "licenciado": 9077,
      "apresur": 9078,
      "Sul": 9079,
      "##oraciones": 9080,
      "indigna": 9081,
      "harto": 9082,
      "parle": 9083,
      "##abell": 9084,
      "##rillas": 9085,
      "paciencia": 9086,
      "Artigas": 9087,
      "##iciosa": 9088,
      "sáb": 9089,
      "##dedores": 9090,
      "discí": 9091,
      "Jaime": 9092,
      "tránsito": 9093,
      "inven": 9094,
      "golfo": 9095,
      "##ribe": 9096,
      "creación": 9097,
      "dedos": 9098,
      "raro": 9099,
      "##riga": 9100,
      "pude": 9101,
      "bajos": 9102,
      "Tribunal": 9103,
      "yor": 9104,
      "##éronse": 9105,
      "claridad": 9106,
      "encomend": 9107,
      "armonía": 9108,
      "Carmen": 9109,
      "##tli": 9110,
      "Soto": 9111,
      "publicación": 9112,
      "providencias": 9113,
      "consiguió": 9114,
      "EX": 9115,
      "##entación": 9116,
      "reglas": 9117,
      "##tamento": 9118,
      "legis": 9119,
      "Lsb": 9120,
      "esposo": 9121,
      "Dar": 9122,
      "inca": 9123,
      "recurso": 9124,
      "Palma": 9125,
      "afecto": 9126,
      "necesitaba": 9127,
      "parecia": 9128,
      "solos": 9129,
      "satisfecho": 9130,
      "Rev": 9131,
      "numerosa": 9132,
      "Gil": 9133,
      "posee": 9134,
      "Vis": 9135,
      "dele": 9136,
      "vapores": 9137,
      "esperim": 9138,
      "olor": 9139,
      "##daba": 9140,
      "tío": 9141,
      "Málaga": 9142,
      "##fre": 9143,
      "maíz": 9144,
      "citar": 9145,
      "Alto": 9146,
      "tristes": 9147,
      "quizás": 9148,
      "rs": 9149,
      "Esper": 9150,
      "devol": 9151,
      "nacion": 9152,
      "##quipa": 9153,
      "Banco": 9154,
      "vá": 9155,
      "pesca": 9156,
      "brillantes": 9157,
      "examinar": 9158,
      "estru": 9159,
      "colonos": 9160,
      "instal": 9161,
      "##ecto": 9162,
      "hoja": 9163,
      "##liar": 9164,
      "opinion": 9165,
      "Apar": 9166,
      "suave": 9167,
      "divino": 9168,
      "exer": 9169,
      "reunidos": 9170,
      "Despues": 9171,
      "NUE": 9172,
      "sepa": 9173,
      "comprom": 9174,
      "abol": 9175,
      "diligencia": 9176,
      "Gib": 9177,
      "Har": 9178,
      "ferrocarril": 9179,
      "desat": 9180,
      "##vitud": 9181,
      "lison": 9182,
      "vn": 9183,
      "apoderarse": 9184,
      "mirando": 9185,
      "Grecia": 9186,
      "comenzaron": 9187,
      "##iende": 9188,
      "ventajos": 9189,
      "régimen": 9190,
      "MAN": 9191,
      "##icis": 9192,
      "##quista": 9193,
      "frailes": 9194,
      "signific": 9195,
      "Bajo": 9196,
      "##valle": 9197,
      "presentaba": 9198,
      "famosa": 9199,
      "Jeneral": 9200,
      "##ampar": 9201,
      "nieve": 9202,
      "milag": 9203,
      "lodo": 9204,
      "simpat": 9205,
      "Córtes": 9206,
      "Cm": 9207,
      "cuarta": 9208,
      "##dirse": 9209,
      "contor": 9210,
      "creen": 9211,
      "ña": 9212,
      "peñas": 9213,
      "estor": 9214,
      "sempre": 9215,
      "torres": 9216,
      "pendiente": 9217,
      "Habiendo": 9218,
      "delib": 9219,
      "##yu": 9220,
      "ino": 9221,
      "asalto": 9222,
      "alguns": 9223,
      "estuvieron": 9224,
      "tiros": 9225,
      "felices": 9226,
      "convir": 9227,
      "melan": 9228,
      "caprichos": 9229,
      "acierto": 9230,
      "vidas": 9231,
      "lealtad": 9232,
      "súbditos": 9233,
      "llegamos": 9234,
      "97": 9235,
      "viajeros": 9236,
      "##abe": 9237,
      "##igar": 9238,
      "##izos": 9239,
      "dará": 9240,
      "Lope": 9241,
      "trece": 9242,
      "##cencia": 9243,
      "cabec": 9244,
      "confusión": 9245,
      "ideal": 9246,
      "esse": 9247,
      "podrán": 9248,
      "sendo": 9249,
      "coste": 9250,
      "canoas": 9251,
      "Tierra": 9252,
      "agit": 9253,
      "Gom": 9254,
      "##reras": 9255,
      "California": 9256,
      "##gin": 9257,
      "inju": 9258,
      "informa": 9259,
      "Washington": 9260,
      "##NDIC": 9261,
      "##ví": 9262,
      "##entaba": 9263,
      "despob": 9264,
      "##entada": 9265,
      "##bol": 9266,
      "##ép": 9267,
      "regimiento": 9268,
      "demanda": 9269,
      "##oba": 9270,
      "Salazar": 9271,
      "Alar": 9272,
      "relie": 9273,
      "BU": 9274,
      "señalado": 9275,
      "##gante": 9276,
      "sois": 9277,
      "conversación": 9278,
      "##teres": 9279,
      "conocía": 9280,
      "viajes": 9281,
      "empieza": 9282,
      "sobresal": 9283,
      "io": 9284,
      "red": 9285,
      "proble": 9286,
      "##erona": 9287,
      "criados": 9288,
      "concurso": 9289,
      "venía": 9290,
      "acordó": 9291,
      "convic": 9292,
      "centa": 9293,
      "tados": 9294,
      "##clu": 9295,
      "prín": 9296,
      "llevaron": 9297,
      "##mós": 9298,
      "desdic": 9299,
      "interna": 9300,
      "página": 9301,
      "contempor": 9302,
      "Punta": 9303,
      "tio": 9304,
      "diera": 9305,
      "adj": 9306,
      "acabó": 9307,
      "Gabri": 9308,
      "oeste": 9309,
      "invo": 9310,
      "cip": 9311,
      "duro": 9312,
      "sete": 9313,
      "contrar": 9314,
      "hil": 9315,
      "inspec": 9316,
      "##diar": 9317,
      "vencidos": 9318,
      "triunfos": 9319,
      "trajo": 9320,
      "Tú": 9321,
      "Alma": 9322,
      "##ALA": 9323,
      "1810": 9324,
      "tap": 9325,
      "frutas": 9326,
      "canti": 9327,
      "##ILLA": 9328,
      "independientes": 9329,
      "nist": 9330,
      "Ante": 9331,
      "##óso": 9332,
      "Iturbide": 9333,
      "hda": 9334,
      "ceder": 9335,
      "imagin": 9336,
      "lament": 9337,
      "##vita": 9338,
      "169": 9339,
      "demostrar": 9340,
      "Jac": 9341,
      "propuesto": 9342,
      "frase": 9343,
      "hago": 9344,
      "amores": 9345,
      "permitir": 9346,
      "dito": 9347,
      "revol": 9348,
      "##íme": 9349,
      "Guanajuato": 9350,
      "Dem": 9351,
      "queriendo": 9352,
      "sujeto": 9353,
      "##blas": 9354,
      "angust": 9355,
      "inser": 9356,
      "##ith": 9357,
      "Tener": 9358,
      "enca": 9359,
      "pensamientos": 9360,
      "##ISTA": 9361,
      "##quisición": 9362,
      "Aran": 9363,
      "asamblea": 9364,
      "doncel": 9365,
      "blancas": 9366,
      "batallones": 9367,
      "##duras": 9368,
      "##vero": 9369,
      "XVII": 9370,
      "deposit": 9371,
      "Egipto": 9372,
      "auxilios": 9373,
      "bols": 9374,
      "distintos": 9375,
      "##ericor": 9376,
      "##vento": 9377,
      "formid": 9378,
      "parroqui": 9379,
      "expon": 9380,
      "167": 9381,
      "abrigo": 9382,
      "Dan": 9383,
      "desgracias": 9384,
      "Pala": 9385,
      "##iamos": 9386,
      "Deb": 9387,
      "Comisión": 9388,
      "dir": 9389,
      "##vian": 9390,
      "Calder": 9391,
      "##tela": 9392,
      "aut": 9393,
      "cuento": 9394,
      "consi": 9395,
      "tuviera": 9396,
      "conseguido": 9397,
[...]
