[MASK]
[PAD]
[UNK]
[CLS]
[SEP]
!
"
#
$
%
&
'
(
)
*
+
,
-
.
/
0
1
2
3
4
5
6
7
8
9
:
;
<
=
>
?
@
A
B
C
D
E
F
G
H
I
J
K
L
M
N
O
P
Q
R
S
T
U
V
W
X
Y
Z
[
\
]
^
_
`
a
b
c
d
e
f
g
h
i
j
k
l
m
n
o
p
q
r
s
t
u
v
w
x
y
z
{
|
}
~
¡
¢
£
¤
¥
¦
§
¨
©
ª
«
®
°
±
²
³
´
¶
·
¸
¹
º
»
¼
½
¾
¿
À
Á
Â
Ã
Ä
Å
Æ
Ç
È
É
Ê
Ì
Í
Î
Ï
Ñ
Ò
Ó
Ô
Õ
Ö
×
Ø
Ù
Ú
Û
Ü
Ý
ß
à
á
â
ã
ä
å
æ
ç
è
é
ê
ë
ì
í
î
ï
ñ
ò
ó
ô
õ
ö
ø
ù
ú
û
ü
ý
þ
ā
Ą
ą
Ć
ć
Č
č
ď
đ
ē
Ę
ę
Ě
ě
Ğ
ğ
ī
İ
ı
Ł
ł
Ń
ń
Ň
ň
ō
Ő
ő
Œ
œ
Ř
ř
ś
Ş
ş
Š
š
ť
ū
Ů
ů
ű
ź
Ż
ż
Ž
ž
ʳ
ʻ
ʼ
́
̃
̄
̧
ͬ
Α
Γ
Δ
Θ
Ι
Κ
Λ
Μ
Π
Ρ
Σ
Τ
Υ
Φ
Χ
ά
έ
ή
ί
α
β
γ
δ
ε
ζ
η
θ
ι
κ
λ
μ
ν
ξ
ο
π
ρ
ς
σ
τ
υ
φ
χ
ψ
ω
ϊ
ό
ύ
ώ
А
Б
В
Г
Д
Е
Ж
З
И
К
Л
М
Н
О
П
Р
С
Т
У
Ф
Х
Ч
Ш
Ы
Ь
Э
Ю
Я
а
б
в
г
д
е
з
и
й
к
л
м
н
о
п
р
с
т
х
ч
ш
ъ
ы
ь
э
ю
я
і
א
ך
כ
ל
מ
ר
ת
ة
ت
د
س
ـ
ف
م
ن
و
ي
٠
٢
क
ष
स
ी
्
৳
฿
៛
ᵃ
ᵉ
ᵒ
ỳ
ἀ
ἄ
Ἀ
ἐ
ἑ
ἔ
Ἐ
Ἑ
Ἕ
ἡ
ἢ
ἰ
ἱ
ἴ
ἵ
ἶ
Ἰ
ὀ
ὁ
ὅ
ὐ
ὔ
ὤ
ὥ
ὦ
Ὦ
Ὧ
ὰ
ά
ὲ
έ
ὴ
ή
ὶ
ί
ὸ
ό
ὺ
ύ
ᾶ
ᾷ
ῃ
ῆ
ῇ
ῖ
ῥ
ῦ
Ῥ
ῶ
ῷ
–
—
―
‘
’
‛
“
”
„
†
•
…
′
‹
›
※
⁄
⁴
₁
₂
₅
₆
₡
₥
₦
₩
₪
₫
€
₭
₱
₲
₴
₸
₹
₺
₽
₾
℃
™
⅔
⅛
→
∪
≤
≥
⊙
⑈
─
│
║
■
□
▲
►
▼
★
☨
♦
✓
✚
❖
お
が
ご
す
ま
れ
ゼ
ミ
一
三
中
串
京
出
化
北
十
單
多
安
家
專
山
年
徽
效
文
星
時
業
止
汁
江
生
第
美
老
萬
配
金
長
黃
##o
##l
##s
##t
##a
##n
##d
##b
##i
##e
##c
##u
##m
##X
##I
##3
##r
##E
##z
##ó
##g
##R
##M
##Ó
##P
##L
##h
##j
##p
##á
##A
##B
##x
##é
##T
##N
##V
##y
##í
##ú
##q
##v
##U
##O
##S
##f
##k
##ñ
##D
##J
##æ
##G
##C
##Y
##1
##ü
##Í
##w
##0
##5
##2
##6
##7
##Z
##H
##Á
##F
##Ü
##9
##Q
##©
##8
##W
##̃
##°
##Ñ
##â
##ç
##à
##î
##É
##4
##K
##ò
##º
##ę
##±
##£
##Ã
##³
##å
##Ú
##■
##®
##è
##€
##ã
##û
##ν
##ω
##σ
##τ
##ο
##ὶ
##™
##ū
##¦
##ı
##¥
##ů
##ï
##Ç
##ë
##ª
##ě
##α
##ρ
##π
##ῶ
##ê
##λ
##έ
##õ
##ì
##а
##ш
##д
##ί
##υ
##ς
##ô
##×
##ű
##ć
##ő
##ł
##θ
##ῦ
##ş
##ś
##ň
##ὐ
##ε
##ῖ
##κ
##ι
##і
##е
##о
##È
##ō
##ā
##≤
##œ
##ä
##ά
##μ
##Е
##Н
##И
##Р
##ö
##н
##з
##и
##г
##ᵒ
##İ
##с
##ž
##ῆ
##ό
##ż
##ø
##ù
##Â
##Č
##ń
##¼
##Å
##ą
##ό
##Ń
##б
##ť
##ы
##℃
##ל
##א
##ך
##Т
##О
##Г
##Ő
##´
##ύ
##γ
##Æ
##Ň
##♦
##ч
##έ
##Ь
##²
##ē
##й
##Ì
##À
##̄
##β
##ί
##ύ
##ξ
##Ø
##т
##¨
##ά
##₡
##Ą
##ᵉ
##ď
##¾
##ζ
##р
##п
##¹
##к
##δ
##В
##А
##З
##М
##Я
##χ
##Ж
##в
##Ł
##½
##ὴ
##č
##η
##ь
##Ê
##ר
##ת
##ὔ
##⁄
##₂
##ğ
##я
##л
##Ř
##₹
##ή
##ᾷ
##ミ
##Î
##Ě
##φ
##و
##د
##ὸ
##ἶ
##►
##₾
##Ä
##❖
##ἰ
##¤
##Э
##Л
##ῷ
##Ć
##Ş
##С
##š
##¢
##Ш
##Ù
##Ę
##Ч
##К
##Ö
##́
##₺
##Ğ
##ͬ
##ま
##す
##м
##が
##ὺ
##ř
##ή
##э
##ὰ
##Œ
##₁
##₆
##٠
##ώ
##Χ
##Θ
##Υ
##Σ
##ي
##ن
##ـ
##ý
##Д
##ź
##ß
##ἱ
##ᾶ
##Ï
##ī
##Ů
##⑈
##Õ
##ϊ
##⅔
##ψ
##Ż
##ἴ
##₽
##Б
##Ю
##ῃ
##̧
##Û
##ὅ
##│
##ῇ
##Ы
##đ
##Ò
##ὲ
##║
##П
##₫
##ी
##स
##क
##्
##ष
##ю
##Х
##س
##ف
##ت
##ة
de
##os
##er
##en
##as
##es
##on
##ar
##an
##ue
##or
##ci
##ad
que
la
en
##al
el
##st
##ent
##in
con
##do
##re
##ab
se
##om
su
##ra
los
##ri
##ro
##ti
un
##am
al
##ón
##ic
es
del
por
##to
##un
est
##ta
re
##le
##ado
##di
##la
##te
las
##is
par
no
in
##ol
##id
##ia
com
##ente
##ch
cu
##de
##ción
##ui
##em
di
##res
si
##lo
##ía
des
##cu
##io
##il
##que
##ran
##tu
##cia
ha
para
##ero
to
##ec
##ada
pro
lo
##el
##ues
##go
##ob
le
##tr
una
##da
##ier
##gu
##cion
##ca
hab
##se
##ando
##uer
##ien
##ir
sus
##it
##aba
me
##mp
##ist
mu
##co
##ados
##im
##era
como
##pa
##ce
##at
an
##ig
##dos
##dad
##za
ca
##los
##ento
##tes
ar
##mo
ex
per
##án
##us
##tra
po
##ter
##tos
##po
##ué
##ales
##ma
##ios
##gun
sin
##idad
##ici
##pe
##ás
El
##ores
mas
##ul
ac
##ciones
##omb
ser
##ie
res
##ras
mis
pr
##jo
man
##ica
tan
##ib
##encia
##um
as
ma
##les
##las
cor
ent
pa
ob
##tar
##vo
ci
##amente
##va
##ido
##cho
do
##ara
En
esta
pre
na
ten
##tro
##ga
##lan
##quel
##tas
cas
San
##ez
##én
##aban
pue
este
##qui
La
aquel
##tor
##der
##mi
##ru
##cer
##me
mi
##lar
##ten
##das
ap
sob
##du
pri
##ante
##tros
##ión
##ico
dos
ab
##ur
ver
##iz
##ces
##ve
##pañ
don
##gar
##ían
##no
car
pas
lle
ni
esp
pres
dic
gran
##ina
##ub
Est
##adas
imp
más
sol
ti
##ones
##vi
qui
Al
mo
##ver
##endo
cons
##able
##ida
Es
##mb
##ens
##asta
##entes
sa
fuer
##ino
pero
##den
##aron
##ener
sobre
##ano
esc
##je
for
sal
##entos
18
Por
##amb
nos
##mos
entre
era
pe
Con
##rib
##lam
##ño
##ust
mar
Re
Se
nues
##mente
##ora
##emp
algun
todo
comp
##enta
##na
cos
he
tra
deb
##con
hasta
dis
##cio
##eros
##ana
##amos
ya
##cha
co
ter
##ed
ba
##qu
todos
so
cab
am
son
desp
##eneral
prov
##ador
##cas
pues
##ias
ad
##uel
muy
##cias
##ros
ve
##ren
medi
##so
or
vi
cam
rep
##car
##gui
##ven
##ian
##ena
prim
señ
lu
porque
##ho
DE
No
##mas
##fici
##enos
cap
Mar
ra
##ombre
mismo
da
##arse
parte
fué
te
cal
##ér
##des
prop
emp
##ario
##eces
##eron
##all
##ís
au
ven
tien
qu
##ya
##ués
col
##udad
bien
##ja
An
##ién
##emos
tr
##ba
##ños
##tado
##ió
##if
cuando
##antes
##tras
##jos
habia
bu
donde
##cip
cual
pueb
lib
##cos
##fer
##ierno
tu
aun
mil
gob
##ña
##ern
les
##chos
##ac
han
pu
In
##gua
du
##empo
##yo
##iento
##min
mon
##eg
cre
##iendo
##bl
##par
ciudad
##tad
##ion
indi
De
##ín
desde
pos
inter
##ala
##pon
##til
##tin
Los
##00
tiempo
ch
toda
él
dist
fa
sab
tom
##ria
##fec
##ort
##lti
tamb
hacer
llam
Ch
##ún
##anos
cer
##bre
##ies
Ma
prin
parti
nue
inf
her
##eci
##oso
may
##dose
##per
##úbl
otros
ej
##zo
##idos
os
##endi
Ju
general
##cur
##ito
ju
##gos
##zas
fin
después
can
ella
vol
todas
Ca
##és
##van
const
##lic
contra
conf
##oria
##illa
##ona
esto
dia
##var
##pos
otro
quien
##ieron
##lig
##and
##ral
##ías
##itu
Car
val
##gn
pers
##dia
princip
yo
tal
cono
pes
pla
##rig
##ior
##can
hay
Ar
deci
##sa
uno
##rado
otra
##ril
##man
hi
##RI
ho
##tó
##li
pun
##OS
mayor
dec
##uar
dej
sino
##tura
está
##esti
dest
##ombres
neces
pob
Fran
tres
ro
solo
op
va
##rist
##arios
reci
ag
ellos
segun
también
##iones
##lu
##uego
san
tiene
##osa
dar
ay
pon
##ancia
min
emb
##RA
tier
##ua
ins
rec
menos
vez
había
##ita
fun
Com
##paña
pueblo
##tre
##che
##dic
guer
señor
##nos
capit
##dr
estos
Juan
haber
##vid
hub
##gan
##ista
##vos
fal
mal
años
##ase
aquella
pol
pal
año
Cor
sido
##ES
ce
reg
##tal
así
all
##cción
##cil
##ha
##miento
##ud
##tan
sent
of
##ima
##áo
##ef
##eo
##cen
##eza
nombre
##empre
mes
##dido
dicho
anti
cada
Cu
orden
tanto
##rar
vo
##ece
15
muer
gra
##ición
##íti
ocu
hombres
##fic
##guas
##AS
##atro
espe
##itar
fi
gobierno
Cas
##gra
##olu
ele
siempre
##oles
últi
##adores
##chas
poco
##ton
hecho
poder
##izo
mer
lleg
##cido
provin
verdad
tro
algunos
españ
##vas
Pero
mor
##dar
antes
##adre
##úm
cuan
lugar
em
##cis
inst
pat
puede
##CI
dem
sigui
otras
##EN
##ON
##lación
mun
mej
medio
caus
##ár
Mon
##II
##almente
serv
puer
Que
17
Pa
Su
##ío
##eno
casa
exp
recib
Des
##tivo
pi
##tir
estas
ne
Un
España
cier
##pu
estaba
Las
##cri
##imo
ade
##jas
##cep
##pec
##ene
To
aunque
form
tar
##tud
Si
guerra
##dió
mucho
tierra
vida
##ura
fe
##ER
##gles
sub
decir
##gen
natu
Lu
encon
hizo
##gún
hombre
den
segu
ese
##ese
##quí
##cal
autor
##ible
ofici
##argo
hon
Jos
##cito
##ública
allí
traba
##omin
tor
ref
##lor
pie
nin
Gob
##AN
ah
##ves
dere
##he
##vis
hist
##eras
16
entr
Sr
núm
##tis
def
##pi
##iera
enem
real
##idades
mat
qué
##onces
##imiento
##udi
##end
##ándo
qued
bar
ta
bo
efec
##rio
rey
Dios
fel
Lo
##ques
##zar
##éri
##vil
##ándose
ést
men
fr
is
af
##ería
liber
10
As
bas
guar
##iente
go
hal
ide
contin
##zos
##ea
##zón
nuestro
ley
dice
##enas
cin
Santa
entonces
Le
##ST
##ensa
conse
Par
nuestra
##inas
muchos
bajo
et
tras
##AL
produ
var
nada
misma
##áb
fueron
hace
##oc
Per
esper
##icos
##ables
sig
rev
cir
rio
Na
quer
eran
jun
##pas
esa
##cios
fran
##cial
hor
##tam
##icia
##erv
##ome
##gres
inc
##tados
dijo
##jer
consid
##ge
sos
José
12
mand
Me
Val
Ped
ejér
plan
tem
grande
il
just
##idas
situ
##gas
Man
dias
##iv
Co
##imos
ir
##inos
punto
##lica
grandes
##vers
indios
##igo
temp
##tores
cuatro
##ord
##rante
##ne
Am
pub
haci
encontr
cuer
acu
apar
luego
aquí
modo
##embre
##uso
##tamente
sup
##ribu
##AR
Pedro
##rió
##cie
noche
##zg
hacia
##cul
exist
##ñas
aquellos
##br
##igos
##rec
políti
hum
pron
Francis
mejor
demás
present
tri
##vor
hoy
at
Gu
##gr
person
ll
##tia
fam
estado
Pro
tran
llev
11
##ll
número
##ecer
natural
LA
##orte
on
Este
##cional
##orm
cuanto
estable
palab
obje
casi
Bar
##sted
Mé
##cel
condu
prof
Sal
cont
Francisco
cri
##cimiento
14
ante
pueblos
##ruz
##bo
conven
forma
habian
país
Para
veces
Ha
##cular
ejército
##tiva
cr
##leg
sea
mom
escri
##jar
##reg
primera
alguna
obs
fue
##idente
nuestros
##iza
sí
Don
algunas
resul
##ile
usted
##uir
só
Señ
##OR
##bar
Bu
##uro
der
via
cuya
pens
import
##ración
cuyo
##una
Cal
##isto
000
##icas
pudi
unos
##efe
##cía
provincia
cuar
causa
recon
##aria
##IC
dio
noti
##ced
13
mundo
cosa
##ere
##ció
ellas
##sta
comun
Ba
fuerza
edi
peque
descu
##erio
##encias
tre
hall
mujer
Ro
##atal
##ira
##oma
fu
camino
Po
##cun
distin
armas
públ
##cti
repres
##pit
##tí
dé
##rir
##ientos
habit
obra
##via
super
Gobierno
nuevo
tener
##mpl
levan
tes
##culo
manera
##jes
agua
sold
##mon
encu
##yos
ahora
gobern
##ación
20
amb
desa
mos
##onel
Rep
sen
conv
##ific
##vió
Estado
mano
Rey
tienen
ban
Col
##fica
##ama
##tel
##anza
##uesto
igu
debe
cuales
nomb
inde
comer
arro
clas
vis
##ant
##ág
##glesia
capital
pel
##men
muerte
##sos
Ab
famil
##ble
##dir
##cre
##greso
reun
dirig
caso
##icio
contr
ningun
comple
hici
ofre
apro
##tación
##pul
cosas
primer
hemos
li
están
neg
##AD
##ós
vir
juzg
Esta
##cter
muchas
##g̃
bus
ción
##uelo
embargo
Di
cl
##día
##cin
padre
##dio
favor
eso
##dida
Mu
vista
##tando
efecto
bra
manif
##taba
##IST
españoles
escrib
##fo
minist
Ex
##gre
oblig
Qui
rom
cent
##amiento
Te
ol
có
##iso
ún
rela
tenia
##gado
##vía
fra
##dades
siguiente
último
llegar
inm
algo
Gran
parece
suces
##tio
estre
tuvo
Anton
##guir
cabal
libertad
##tido
##LO
##respon
General
dado
##entras
gri
CA
seis
##xico
apo
buen
##gue
día
noso
##ritu
##eración
##ete
fuera
relig
##lado
ri
gente
emple
bre
encuent
##rad
##tiago
##uela
historia
ou
cora
##áti
diez
##dra
cub
mir
acom
Sa
escu
##table
circun
pin
II
lado
##enda
adelan
objeto
blan
épo
##rando
##und
puesto
caball
compañ
##tener
nosotros
visto
##ares
das
encar
tarde
##dor
25
Santiago
pl
oro
bel
Antonio
gan
consider
##don
##terior
##ender
Or
partes
particular
ata
##itos
amor
leg
inme
##ará
##cado
##yó
siendo
##olución
antigu
##IN
ru
##alo
ocup
##erva
ase
##uido
correspon
##torio
##ign
inv
cabeza
##minist
sir
aten
##ial
##ire
##iene
##tumb
##pel
cerca
interes
cinco
paso
##ctor
Bo
extra
descub
estu
primero
habían
pais
cuerpo
Ya
nun
respec
##emb
estaban
So
civil
##ítu
tos
suf
Cab
##eta
militar
personas
##jecu
##fa
##anas
##char
##ría
##TA
##cl
leguas
##ris
##cor
##rb
Pres
##mientos
##onte
jo
compren
plaza
constitu
cuad
##por
sólo
conqui
19
##fi
Is
frente
##olo
##RO
isla
mente
er
##iciones
soldados
persona
domin
Mi
##tivos
##osos
Pe
acer
momento
recono
##migo
##ismo
Fern
Yo
cul
costa
lar
sil
mando
##rica
vuel
##izar
etc
##eria
##ciendo
fir
fues
respe
##arca
##g̃a
##quiera
ojos
valor
##rados
30
vein
Mor
num
manos
esos
cuenta
##iese
##istas
cumpl
fuerzas
##TE
##vieron
fon
enemigo
ocas
durante
calle
##tada
lan
felig
Señor
##LA
dese
mucha
crist
##alidad
##tante
hermos
difer
##ór
cierto
##uestra
hijo
##quier
contes
##mento
herm
Como
elec
tér
respon
derecho
suce
dicha
##có
México
##ispo
##yas
##sión
##ental
mui
quin
poner
acab
##ál
us
##eric
figu
##val
##vin
casas
Cam
cien
pregun
Nue
terren
patria
envi
##entar
nunca
##ger
##oro
##illo
población
##iores
ór
buena
##ficio
##ires
cele
##llo
##ula
##mar
##UE
campo
tropas
paz
opin
comis
República
cara
terri
época
Jun
Francia
alma
HIST
EL
capitán
##íritu
##cida
##iro
##orn
Qué
##bas
##ip
public
##ctu
inte
23
hubiera
mientras
##ancias
aquellas
21
##gular
##érica
##cir
pag
estar
##osas
podr
##RIA
##mit
##tiv
razón
camb
lab
24
algún
vic
Mo
##nas
Mad
falta
saber
22
##IL
vin
##entas
sor
##unci
##ide
##dan
ejecu
carta
partido
##ilidad
##RE
##ell
mí
éste
##omo
ocho
##et
##rez
atra
mov
gust
Luis
presente
##guar
##andon
int
##taron
duda
Cuando
villa
Can
Sin
orig
satis
veci
##cta
ces
nego
siglo
##erdo
##éndo
##rid
indep
##ju
preci
dep
alcan
continu
asi
refer
van
fund
seme
puerto
##ierto
sur
##resa
estudi
habitantes
Min
##esen
pesos
##adie
##inar
indu
tenido
artí
Ja
comen
redu
abs
gar
##pan
##titud
manifes
arm
gas
##cid
##sion
conce
declar
tomar
##ñana
nes
##iego
mem
##ús
asegu
aguas
Gar
circunst
varios
##zon
Vic
##cidos
nueva
trabajo
##igui
ejer
idea
voz
desgra
ello
dad
anim
án
pasar
perten
##eles
lec
desc
triun
abandon
##zado
vas
##tran
hijos
##ban
volun
##eran
##gust
##onia
será
fil
##ísimo
divis
fru
##ron
Manuel
##rada
luz
Buenos
disp
América
iglesia
mad
semej
##ítulo
##eb
corri
cit
dif
##TU
DEL
ejemp
##rera
Chile
pueden
Jo
suer
principio
administ
gal
actu
##ácter
enfer
##ema
amigo
nao
esf
ind
ses
##orme
clase
María
##TO
Pues
Perú
mismos
coronel
gu
##yec
mañana
##denes
lín
espíritu
##cto
familia
181
ilust
##amento
todavía
dol
pesar
##enci
hu
pronto
##tió
política
id
##ÓN
pasa
primeros
secre
justicia
##vidu
nuestras
##eció
bor
##rim
unas
##onso
##iano
hacen
segundo
público
Ale
##éis
somb
obras
##ende
##rección
gobernador
28
##ización
##ulio
pelig
hos
##ing
llegó
##iado
26
##iles
igual
sua
##culos
bastante
##tá
and
##zó
##ye
Aires
##cuencia
##diendo
pad
condi
Tor
español
palabras
pasado
descon
##unto
enc
Pas
##crip
enemigos
##vent
##gó
##quil
sitio
##ecido
señal
##inación
Estados
vie
sangre
ur
bal
obst
len
hora
carácter
27
posible
honor
cat
acompañ
ori
fo
##ix
desem
##fe
##óm
jefe
Mas
palabra
##posición
Vil
cie
conci
##clam
aum
cob
preten
individu
perman
dich
deter
tenía
Una
182
##ola
jeneral
##uesta
##éndose
cuid
ninguna
pudo
gen
espa
exten
##ást
marcha
suerte
the
come
sabe
##irse
comba
fuego
##ró
sé
Real
##dias
apre
##iar
iba
##mentos
noticia
um
ao
prue
monta
media
##atos
##ilo
ron
principal
lí
##OL
pocos
viv
##gna
Du
Fel
##ioso
##ecen
##empos
##ono
estra
##endencia
recu
pág
halla
##ciedad
clar
esas
Madrid
nadie
leyes
Ay
##dem
##tilla
##cientos
Rio
Do
costumb
llan
##rá
nacional
aleg
arti
llamado
dan
##turas
##icios
direc
constru
##rido
din
##dico
##ORIA
##tario
Desp
sist
ren
puerta
nación
Ah
186
##fico
##rag
har
Hab
vino
##dez
##ine
Capit
185
##ientes
##eres
RE
alto
dentro
##erro
frances
tam
divers
trans
podia
Ten
Entre
cómo
Fe
trist
fuerte
Euro
Norte
fuese
haya
##toria
##andante
Ob
oficiales
venta
##icion
##vel
Carlos
##inado
tiempos
HISTORIA
veinte
##eral
expe
##OM
proce
cia
##rin
servicio
ocur
##iga
admi
hechos
hubo
señores
enter
##íamos
termin
CAP
dejar
color
órdenes
##gal
cur
resist
29
tales
motivo
reco
pública
profun
##cciones
Pue
Mig
ima
salir
testi
hicieron
cho
##dios
horas
##iva
corre
##ecía
##din
decre
pod
Minist
##ficios
gener
Ori
Monte
##imientos
repar
pros
papel
batal
ras
fre
Pla
habiendo
retir
##efes
ros
tin
pró
especi
proyec
##lem
terreno
##quer
##ridad
##para
lit
Domin
##ám
anterior
provincias
##stitu
cé
az
Así
##uda
pobre
##laciones
necesario
quienes
##be
Miguel
llevar
Gua
VI
jam
represent
Tu
Ta
##rer
ga
bat
##pt
cad
##ich
Ra
presidente
pies
##rito
territorio
propie
EN
varias
##icip
##yendo
haciendo
##TI
##ror
##ieran
autoridad
Presidente
ví
hablar
ign
prote
##tica
##ándole
Santo
Europa
gol
recor
##tín
necesidad
vesti
##tillo
perfec
##itas
##eraciones
III
aux
Fernando
##ianza
187
amigos
##ído
##gosto
##gü
días
largo
##anes
abund
plata
Cub
comercio
##rales
interior
Cruz
##tus
puso
##ong
cabo
##alacio
reino
permi
##icación
##gáo
propor
##tico
trad
especie
50
puntos
trib
corazón
perió
##ut
tas
tur
##onz
##iéndose
Go
Her
Pre
magn
31
##rab
Era
sacri
situación
suel
##ges
##pir
colum
184
americ
##rey
nave
sem
##ísima
Desde
pan
##iosa
bos
##hu
organ
fá
superior
capa
tantos
##taban
joven
cuesti
##DO
Sur
Ve
183
dign
acep
##orio
##ite
madre
Villa
libre
cargo
##tán
##lores
bril
meses
volver
simp
##ipe
apenas
eu
gl
recur
expres
elev
dom
impos
Congreso
vues
influ
##aro
mais
Ap
principales
##tidad
##íos
suelo
##ortun
##isa
siete
Bol
##xic
##CA
##cimientos
Qu
ev
##tades
quiere
##ivo
##illas
##dal
##tivas
##zan
rob
vig
##inta
prob
lig
##CIÓN
im
árb
debia
alguno
##jero
propio
##CION
auxil
patrio
corte
Hist
ec
nar
entrar
conti
docu
ideas
##ts
Ver
aún
Pal
##bel
sue
concur
Ci
##gla
separ
segunda
lin
mandó
Gal
sola
pen
lim
inten
AL
seria
llegado
##lara
naturaleza
##guido
##mino
llama
conquist
jue
tengo
40
dipu
adelante
vecinos
pra
##gel
##lin
antiguo
Nueva
##erra
revolución
##ildo
tribu
##tismo
##cipe
instru
Lib
indust
tanta
respecto
##iedo
empez
dando
línea
hallar
ense
##tarse
##diente
##jeros
noble
##till
oc
##pre
##lico
ech
##iere
jui
conocer
amar
prepar
##jado
prove
##dieron
maes
cielo
Esto
Cuba
escla
podido
casti
##ajo
derechos
obe
arte
##esión
##adamente
empe
##ame
##rios
##imas
perse
##ctubre
ningún
eleg
sociedad
Martin
medios
viaje
Provin
##one
Diego
##tiembre
consigui
ingles
mujeres
sistema
habl
distancia
##terra
##áp
oril
Del
IV
conver
sorp
##zco
##ósito
vio
sign
Be
circunstancias
##lla
Después
añ
compr
fácil
calles
rode
He
Ven
viol
movimiento
##iamente
conserv
##pol
ng̃a
memoria
##aso
##tero
Jes
Sus
gloria
##quis
Puer
Dr
##arias
principios
fondo
batalla
esfuer
za
arreg
##ficul
##didos
##TULO
arrib
Ingla
ambos
trabajos
SE
##ice
##rible
gusto
##iosos
voluntad
Sol
última
fort
centro
opinión
libro
##entado
##udo
Ber
##DI
absolu
##cían
extran
indic
dul
##ill
defensa
##esa
iz
qual
inmedia
##mir
Domingo
gui
Carta
importancia
boca
procur
##fac
##ierta
ado
lengua
prision
vos
cuyos
salió
##tri
ministro
colon
coloc
piedra
##ade
##tera
##bles
virtud
lejos
determin
##rero
contrario
seguir
acto
queda
avan
##este
incon
##poner
mez
Imp
##arro
dificul
##orma
Julio
##ivers
entrada
menor
fecha
tambien
##erador
##gación
quedó
##erto
mater
numeros
demas
##tadas
deber
vent
Crist
##rique
atre
ben
tir
preciso
bene
ocasión
Gobern
pelo
##umb
noticias
Felipe
derro
##tamiento
elem
celeb
##xo
expedi
repe
##eas
cole
moder
Cór
antigua
rique
##anto
cañ
despa
multi
Gonz
ep
##trar
adem
resultado
##ale
asist
según
quis
equi
Inglaterra
común
##idor
caballos
##UN
Id
##EL
pose
Ac
##gía
cruz
Guad
ocul
único
##qué
dieron
suje
188
conte
altura
mé
##lez
diri
aj
##partam
cau
lla
ber
LOS
##ianos
lic
##ram
Ram
Unidos
conser
caballo
##IS
servir
##elas
##ime
Emp
##ierro
##ñar
avis
be
independencia
Za
##pl
##teriores
##uña
término
##III
próx
ran
edad
ejemplo
##iana
rios
encuentra
##tería
##ulo
amena
conc
doctor
tierras
ram
XV
sust
gén
##ablo
treinta
uso
dirección
arre
doc
##idencia
sober
inmedi
mexic
##pia
muerto
##trodu
además
##ír
##nes
##gl
imper
IN
valle
##graf
Ben
Res
dicen
##zones
reme
##ERA
dinero
Ad
hom
mit
##villa
sac
##elos
demos
cuyas
Cap
##pez
tomó
quo
Ho
aconte
##uca
dur
Lima
##ablemente
camp
impres
revolu
urna
ésta
hallaba
##brero
bon
Castilla
32
pié
olvid
hermano
##enso
Cos
##onse
oficial
Cort
##igu
comb
pasó
río
pul
señora
desapar
##legio
Roma
ín
pene
título
seguida
extre
representa
Vir
deben
##poco
despues
conducta
##pecto
march
sepul
podía
recibir
Ital
glor
nota
##viembre
consecuencia
ignor
35
Ser
naturales
##ICO
solem
##uras
atención
##tiles
due
agrad
reales
facul
hubiese
división
##vio
Pueb
##cidas
cualquiera
solici
ciones
sar
aus
campaña
##ré
norte
gru
##endido
empren
##jico
33
aqui
despe
Dpt
afec
Os
##sul
Vera
ple
exig
fron
rebel
fies
##iti
ocupa
##ardo
recom
##ila
creer
dig
##dencia
pena
mol
##lio
fortuna
sean
Todo
buenos
titu
templo
Mer
conde
##rias
propia
##isco
Cha
Mayo
tantas
dolor
especial
aprove
origen
prueba
##anzas
introdu
admir
observa
notable
Bel
##zaba
Ni
Tom
colo
##arlo
salva
salud
hija
##tivamente
adqui
##gent
allá
Ce
##tarios
##íncipe
exac
Guer
##cados
##vol
##ENT
##th
##iste
daba
##iencia
##ifica
##gio
Tal
artill
siguientes
ass
##cí
##bal
Gobernador
junto
Alonso
cla
gr
observ
CON
pueda
##izado
aire
tendr
ens
##gada
sentido
##ciales
ES
tenían
has
buques
doce
Iglesia
##óse
naciones
Hay
sum
antiguos
Gui
##tidos
##tenido
entus
##jen
conquista
actual
arb
cantidad
acción
regres
Sta
Constitu
Fr
comisión
izquier
solamente
intelig
Aust
##monio
##lad
##tón
Bal
##icamente
escuad
tenian
##yen
enci
Italia
Ur
destru
##zada
esca
municip
Pon
PA
##ches
Bra
##ERO
##encio
##entemente
histó
Lor
compon
imperio
buscar
agu
##eda
##tró
##idi
##abri
##bu
##pado
Ter
culti
impe
acuerdo
100
fus
dor
dob
dejó
##tem
presencia
##dill
##tales
##tables
Lugo
mayores
volvió
Cortés
tropa
acos
##riendo
Mat
##tador
regular
Mr
dejando
##isión
entra
36
##iesen
formar
##DA
exam
comandante
resol
embar
Aun
Esc
asunto
##gados
individuos
Nic
Esp
mara
##jan
##tur
Sob
oscu
desen
León
ale
bienes
##tz
verific
##ure
cha
diferentes
moral
semejante
recibido
##hib
Tamb
viene
##ted
divi
facil
alta
##arle
intereses
##jó
pér
cru
tratado
palacio
contribu
reti
cambio
##ines
##IA
Mun
ast
nas
pus
##ácti
oficio
##lante
jefes
##tl
junta
##cidad
padres
lleva
guarn
##remos
##lea
##té
pequeña
convento
##zob
ciudades
espacio
acerca
nie
metros
##asen
##ICA
ases
infer
últimos
faz
34
##ori
##rieron
existencia
XX
##ámara
presenta
difí
##ices
Pan
triste
##uc
famos
inmediat
##uco
derecha
escrito
##tida
interés
vd
All
delante
ge
Méjico
rum
dichos
iban
180
Alf
SAN
##rano
##érez
AN
##vido
Cá
acaso
##UM
república
th
empresa
##ocu
relación
impor
##ment
már
fer
Maria
##sas
perder
Ciudad
##abana
céle
pequeño
Historia
Indias
tenemos
Puerto
insur
##are
##tion
##cuenta
##dito
Va
pier
doña
jamás
popul
nombres
##yeron
hacienda
##erías
decreto
incl
Ne
cel
publica
##yor
nueve
Hu
##CO
pudiera
concl
triunfo
soy
parecer
lucha
mismas
##dicos
cura
cuidado
##ctos
ador
verdadero
Pr
##arla
##DE
importante
##IV
##ezas
nom
dedic
grave
log
combate
juris
recursos
quedar
seu
##éase
llen
##ordin
islas
##guay
prome
pec
española
apoder
arriba
##tific
imag
juicio
##cionales
cualquier
alar
institu
poca
precis
terc
ciento
batall
some
caracter
Martín
quiso
evitar
45
##itud
Oc
concep
pagar
edificio
tampoco
##óg
firm
Pu
Dia
mencion
Ga
mg̃a
##ruir
##tiendo
##iéndo
##cando
Cat
consul
##ibles
proclam
##rum
bur
nuevas
##ierra
gentes
##ini
querido
peligro
##sp
costumbres
recibió
eter
37
repu
##grá
felici
##guen
Il
militares
##up
ingen
total
susp
##etas
Mag
##diencia
##stas
cen
##cés
##rasil
nuevos
encontrar
añad
llaman
materia
entusias
Vd
Todos
apres
dió
##idores
juz
compañía
##venir
confianza
necesit
má
feliz
artículo
##quez
franceses
##LE
siglos
Portu
Ros
figura
lugares
##cada
creo
##cación
aspecto
pode
##uno
propósito
deseo
tuvieron
##tol
div
obser
discur
teniente
##ane
euro
cierta
larga
relaciones
dios
##onal
satisfac
cincuenta
##minos
seguro
espec
descan
##dras
obstante
mill
jar
mala
artillería
desarro
Ministro
##endiente
Capitán
##siones
##erna
##quía
refle
mag
##xim
##vado
Mal
sucesos
##idade
ayud
##rán
Son
brazos
Ov
Abril
ora
flores
fac
gracias
montañas
Coronel
habla
ja
protes
mist
resp
##taciones
##IO
##rón
##chi
miento
sufici
condiciones
Agosto
##lada
sul
38
costas
##gi
##didas
##ber
sigue
sacar
conocido
prácti
peligros
declara
servicios
supre
##usión
sería
bol
político
conclu
sorpren
##uestos
términos
AR
alim
Rec
##viese
Bern
triunf
##ccion
Art
##ph
suma
flor
ninguno
Valencia
##tellan
tú
Sevilla
proces
ejerci
Granada
##cerdo
Estos
García
##raba
discu
##cepción
##adora
blanco
##au
60
deja
teniendo
familias
Có
##lares
Au
éstos
Tra
obispo
manda
##tuvo
##quia
exper
Conse
breve
árboles
Córdo
resuel
##ledo
imposible
##ém
decia
Dici
izquierda
##rico
##mania
estuvo
momentos
##jada
fáb
##rigo
quiera
LI
##endas
apla
muertos
atraves
género
adop
llega
debía
campos
##sar
siquiera
Porque
##iscal
seguridad
##íst
##pira
murió
ido
trata
##si
monum
tomado
funda
acord
proyecto
42
generales
grado
Bur
conserva
europe
teatro
##terio
afir
pronunci
Cre
administración
arran
##umbre
inform
Pat
Joa
mitad
##ferencia
enseñ
sencil
39
descono
remi
haberse
méri
corona
aver
conocimiento
esco
##itado
##guna
manifies
ali
##radas
##abilidad
##áis
##jeron
diciendo
##endientes
socor
desgraci
Junio
rem
##ienen
##dón
##dado
##PA
##iosas
##aría
quién
ost
posición
500
medida
hacía
##inal
pobres
conj
##eren
##ramos
##isla
cuestión
Blan
##ático
acre
siti
##lesi
reclam
##úb
##cripción
ine
oportun
bueno
curso
edu
Enero
caballería
Octubre
##guez
tab
##uelas
practi
Hern
enga
##trás
caballero
##entan
tratar
existe
causas
Españ
Austria
200
##unda
jó
pedir
Vi
lad
contemp
miemb
semb
##emente
vuestra
mandar
silencio
##tres
santa
industria
algu
venido
cuerpos
morir
Sar
resto
victoria
Andr
negro
##gues
Enton
tus
cuantos
##entales
puertas
Padre
fan
Doña
hero
conden
Sebas
autoridades
tomo
Aquel
constante
Oviedo
48
impon
Plata
dirij
##uma
sacerdo
esperanza
Alemania
Pag
cuarto
##cad
golpe
proporcion
rig
perdido
déla
dici
viento
##tim
##ífico
forman
jur
venir
puedo
Provincia
vul
encuentran
elementos
##tudes
portu
##uf
conveniente
comunic
viejo
situado
##uo
##OB
hacerse
periódico
##qués
Habana
Sen
multitud
##iros
frecu
Isla
Tar
41
humil
##llas
Sec
alcal
paci
gobier
dejado
consejo
privi
actos
##untamiento
apa
##ins
##veres
confes
##eme
verdadera
profes
##yan
##tase
desgracia
enferme
Entonces
toma
##partamento
efectos
atribu
Sil
sospe
negocios
cartas
terrible
difícil
43
completamente
costumbre
Sab
Da
##zando
prom
primeras
##rup
Diciembre
precios
cuarenta
##iales
##tantes
ape
minas
desempe
##mites
respeto
arras
suyo
operaciones
aca
##güe
##GO
##RAN
despo
quiero
clases
##iedad
vivir
quiz
inmediatamente
congreso
av
##gon
niños
##rea
##aman
francés
##éndole
casos
apos
Paris
##dores
##usto
pensamiento
razon
tí
##rase
##lados
##lesiást
Reg
completa
nove
44
Oh
Marzo
contar
gastos
esfuerzos
##GU
ciencia
parro
##unal
##osotros
raza
monte
baja
cuadro
hallan
Rom
descubri
amist
Cer
vuelta
celebr
conforme
infan
invas
00
dispos
reyes
mejores
Riv
corriente
##ual
##gri
firme
Vicente
situada
hermosa
llu
ambas
##cruz
entender
Junta
santo
util
disposición
confir
##iden
resolución
jóven
ánimo
sentimiento
propos
nombrado
digo
primi
##abel
sosten
ordin
##quina
##omas
Fer
conciencia
##teros
posesión
##ñado
Portugal
indí
peso
Cons
igualmente
##ys
públicos
exclam
##úa
contestó
Brasil
##orias
negros
datos
fortal
Toledo
compañeros
##dillera
recuer
soldado
revolucion
adver
supon
##aran
estim
Sebasti
influencia
CAPI
defender
prud
abajo
retra
caci
##ecían
##cá
fuertes
habita
Fué
objetos
minu
##llos
gracia
perio
precip
mandado
##sula
destin
Ade
repro
pocas
##viera
montes
##aciones
escas
##dente
ocupar
##tedral
abra
Reyes
prensa
singular
traslad
##zaron
##CIA
base
háb
virey
##lon
##dian
célebre
Pol
tenga
##juzg
hospit
##rí
consa
Colomb
reina
decía
llegaron
mesa
despre
##tía
animales
propiedad
##vención
llamada
SU
che
consiguiente
documentos
aplic
espres
religión
##ublic
##ella
hermanos
salida
ble
##pó
econ
ademas
parecía
edificios
aguar
##MA
Fu
enti
piedras
particulares
##arquía
##zados
encom
haga
limp
caer
digno
riqueza
beb
medidas
piezas
entró
males
curi
Barcel
##uez
##tua
ria
jorn
##RIO
poblaciones
ráp
desta
##ática
prisioneros
##idal
dorm
ciudadanos
Mel
47
hé
éx
##iss
compar
sostener
cruel
infin
##usa
castillo
estudio
Ang
Gra
##óme
##uncia
46
##eto
tum
citado
doctr
ídem
human
##pes
destino
Sí
estando
##esta
popular
sombra
Enrique
diputados
jurisdic
##RES
social
Ara
fres
##vera
Coruña
Cara
pecho
##caba
remo
##cib
Nos
distrito
escribir
Estas
##tidas
obede
ton
##xto
##video
razones
##rían
##ij
LAS
tol
esperar
Noviembre
conten
alter
##edes
vícti
##entó
##ates
Dos
##cieron
##icias
inú
compa
bár
##ñez
partida
Inf
buenas
anteriores
castellan
mús
##ábamos
príncipe
vapor
Fa
espi
recha
habría
Ana
estran
MA
Ban
vamos
##uti
También
##sado
##BA
Véase
ves
espl
completo
ans
Rod
artes
llevaba
claro
diversas
llamar
##illos
##trado
podrá
##grafía
desembar
non
consum
instante
Em
55
Agust
##amo
libros
pare
hierro
resistencia
Puebla
##ambre
Veracruz
ME
habrá
madera
tado
##untos
##teca
foi
columna
fle
reda
demasiado
gover
design
Córdoba
hecha
llegada
##vios
Flor
cabildo
Catal
cion
provis
##vuel
supo
ala
##dicion
Consejo
##eos
Barcelona
1a
##CH
encan
##ínsula
estan
perj
##garon
presentó
expedición
límites
##oral
ofrece
establecimiento
ré
occid
fines
Tan
precio
estoy
##tina
notables
compe
taba
##garse
perpe
Jefe
especialmente
##cab
Nacional
ul
Señora
emperador
Pérez
convo
Febrero
eclesiást
##amientos
##ivamente
excel
##dían
fati
##amas
##usos
entusiasmo
rin
oriental
llor
##QU
Pi
acostumb
##eramente
##idamente
merced
Montevideo
avent
##adic
puente
EST
##emia
recuerdo
##ficos
aprovech
univers
som
Segun
cerro
##gando
##ff
única
lej
CH
cristianos
Mayor
éxito
local
##mirante
viendo
##sto
plu
grues
pura
pasos
mesmo
##vación
Th
##tara
podría
##col
CU
Aunque
vel
##idez
temor
cató
##ortal
##gena
Lon
##iertos
##zobispo
NO
Nues
##oros
ingleses
diz
bosques
80
irre
placer
tranquil
basta
espan
##tifica
elo
##dó
cuán
pone
Bas
ferro
artículos
Liber
Conde
fuesen
altar
Jesús
mel
establecer
defens
Ger
##ónde
##tencia
##CIONES
histori
br
##grado
ciertos
capitu
ministros
calidad
##ke
formado
##lij
asal
nombra
gun
superfici
prohib
escal
##ni
rece
##ísimos
ama
Bor
punta
almas
idem
estilo
49
Bre
calor
buque
ace
##tecas
remedio
##stru
long
kil
##IG
##andera
ataque
ques
duque
abrir
tranqui
comm
comision
conseguir
sens
bri
columnas
##viendo
hacían
alli
pá
##arme
pela
amp
##eratura
##cultura
##mes
progres
##erse
lhe
brazo
##ulas
Lopez
diversos
esposa
logr
##gro
evid
##ilar
dispon
far
carne
continua
Nicol
##ález
dulce
##citos
##cón
Fra
Andrés
cumplir
Nada
CAPITULO
##allado
ilustre
seno
delic
amo
orillas
mayo
misión
##gadas
elección
Igna
suceso
deses
##tividad
##adero
vac
52
##cina
colores
##tieron
Colombia
##ison
podían
mérito
colonia
vecin
orilla
espada
##ore
trono
anunci
continuar
##uri
aco
sr
flo
restos
miembros
procu
orgu
##UR
abril
##vador
rej
pien
alde
sentir
Allí
apreci
espal
subs
Constitución
ener
##plic
##jando
vuestro
consecu
Ahora
comunicación
Casa
dra
carrera
##oración
comprender
quedado
escuela
lleno
rendi
disf
ganado
aque
encer
51
Guerra
Castro
mira
deten
Paz
##ADO
Cómo
persu
sas
##eso
importantes
honra
rico
##ieren
millones
nub
suyos
indio
Cent
##xa
##eis
armada
letras
instrum
liberal
quince
##hua
##dula
semejantes
##ecieron
Fil
##ÍTULO
agri
busca
hubieran
reconocer
muger
##ólo
Nuevo
pérdida
Valle
##reros
seus
azul
UN
caminos
culto
Eu
oir
Audi
poeta
legua
Fé
Setiembre
gefe
Alvar
vieron
Dic
árab
González
labor
conservar
cadá
propon
Sobre
simple
Lin
##álo
personal
##her
Grande
capilla
ancho
sala
debió
consideración
chil
niño
inspir
inteligencia
sentimientos
incendi
caudi
Az
torre
ustedes
##hos
ment
54
##mina
respons
Dist
conoce
lago
bandera
##pal
ral
dá
miser
Isabel
Algun
##anti
Pen
##ele
podemos
construcción
tru
cuartel
53
prodi
##hor
fen
caballeros
infel
incor
##lid
voy
Alcal
aqué
cré
Mil
piso
Haci
Ignacio
##eca
56
##enden
##cao
##frica
batallón
hai
cortes
perío
funcion
CAPÍTULO
partidos
COM
Jul
##ím
ciertas
diferencia
amistad
alf
suya
dispu
179
esclavos
##ól
inj
##tacion
principalmente
empleados
##genes
salido
encontró
##ses
consta
daban
Conf
##tamos
##vedra
##ezuela
limit
##ditos
##abo
quedaron
quería
pensar
corta
##dres
fiesta
enteramente
bah
cree
quem
propios
gua
Mis
##ela
300
##gido
mane
heridos
salvar
##quin
##ham
serán
aquello
rib
devo
Sebastian
adorn
Mur
viva
autores
ruinas
indisp
terrenos
dila
Loren
quando
Tiene
aos
##leta
XI
sirve
descar
##diz
civilización
70
coron
comprome
matri
capaz
apoy
progreso
lon
millas
hacerlo
restable
##adura
administra
correr
países
formas
Sierra
##ii
mus
##licos
Oriente
##inete
Quer
##ívar
entendi
##udal
##enciado
servido
mur
Bien
Guar
humana
Quin
##jera
guarnición
llamó
##izada
hues
depos
enf
sel
ano
concepto
impul
lector
efica
dirigió
##son
prem
##rump
envió
unión
rostro
puestos
##has
##iertas
##iblio
exa
pañ
compos
vengan
Asia
escuadra
clima
Luego
Pablo
desn
presi
##ándoles
guardia
##amentos
Mendo
religiosos
##crib
##allos
rei
##MO
##imen
rar
Arag
##ágri
carga
Alfonso
tiran
hallaban
Lle
dichas
##amblea
Hasta
58
agosto
pequeños
Secre
Mol
políticos
levantar
leer
57
##alu
##glés
comenzó
##INA
ministerio
justo
inqui
blanca
##san
Obispo
cumplimiento
fol
respondió
##quite
negocio
##didad
geo
mirada
Mos
##uestas
hayan
gor
##VA
escar
Doc
hostil
##amp
##amba
abo
romp
POR
republic
sierra
Mientras
visit
##arlos
tercera
##usia
##ull
apren
condición
sabido
lágri
Vol
bro
##dientes
##rense
Aquí
nu
agra
##jaba
menes
estamos
maestro
ais
escol
##arcas
rica
##pera
##ándolo
##anda
Nicolás
##tuoso
##carse
Jer
##ramento
resultados
acaba
##MP
periódicos
##jara
canal
atro
##cadas
##igna
Hacienda
carre
debían
felicidad
belle
dificultades
auxilio
##cro
fabri
##cedentes
##renta
candida
tomando
##ército
sale
secretario
marido
arreglo
##gusto
Nuestra
debido
déb
extremo
##uta
bárbar
VII
desper
suble
##undo
##omp
##enes
Cortes
##úcar
fama
##dedor
cá
##BL
desor
libres
Dis
Bolívar
refiere
realidad
##DAD
adi
Navar
idi
Comandante
cate
saben
rein
asegurar
##ándola
deseos
separa
##rosa
actividad
dilig
porvenir
##ló
quedando
##vada
Costa
mostr
jurisdicción
inoc
andar
pudieron
##ular
PE
ahí
contiene
hermoso
##roso
cámara
rumbo
Er
##abil
especies
##amen
CAS
África
##ricas
##ruido
prime
178
##rillo
referido
segura
Cabildo
brig
obis
Zara
lectores
salieron
Torre
Diaz
vive
sesenta
Compañ
59
##glesias
llevó
críti
##caron
bosque
Just
LIB
##cidente
PRO
bru
##eco
##guardia
anci
formando
##tiene
##lia
cordillera
##rob
darle
##tea
siguió
copia
voto
mister
##ard
##dica
encontrado
escena
pregunta
150
existen
ocasion
pago
humanidad
##chado
##ónimo
Quién
echar
enero
superficie
frutos
patriotismo
maravil
peda
pequeñas
##teras
Direc
llena
sim
pele
crimin
argent
189
his
hambre
##ciente
##vados
jóvenes
Indios
##donos
CAR
##atas
agre
Mendoza
##vier
profundo
nobles
capítulo
##ísimas
facultades
je
ruido
##pie
Rob
##icía
Sala
fiel
vigor
##ello
##árcel
##ude
##omé
sucedió
esperanzas
Virgen
meridi
julio
##camente
testigo
dispar
##drá
conta
75
bres
visita
asomb
##ueva
Audiencia
fec
##edor
necesita
ventajas
dibu
tradu
moros
inn
liter
héro
Pin
inglés
considerable
americanos
Bogo
talento
onde
tron
##IT
asuntos
únicamente
##crito
refor
##onde
cens
infantería
mejic
Corte
blo
##enca
grito
líneas
##grada
hojas
comunica
dignidad
Sant
Concepción
vil
reca
pareci
##teo
cari
##reo
##gao
##fé
##unta
resulta
modi
vege
sión
pluma
pár
excep
##quen
Ej
aman
región
cua
apoyo
disposiciones
esté
explic
alas
##cula
produce
juez
genio
exces
escribió
fortaleza
grupo
leal
yer
##izados
jes
montaña
Colon
##enen
quieren
ciudadano
Dipu
##ítulos
Fuer
##ensas
fusil
glo
vivo
##áz
##acan
Cristó
##rores
perfectamente
consist
constitución
Paraguay
satisfa
ñas
comien
indispens
Antes
JU
Lleg
marzo
alem
asiento
extraordin
##RAS
obse
##abal
cobre
##omía
malo
sufrir
##uiz
fruto
altos
traer
ayer
##ique
sucede
##licación
encima
monas
miedo
Rafa
período
Aragón
llevando
##zadas
próximo
prisión
satisfe
##eira
hol
##cipa
alm
##VI
tama
venced
ee
pala
##lal
##ÍA
aprob
daño
obstá
empeño
plantas
poes
obtener
circunstancia
fundad
Lorenzo
##cano
MAR
##cán
alre
esm
promo
detal
verse
inconven
Herrera
abundancia
pase
antiguas
##nal
Comp
puertos
Calle
Vallado
dispuesto
cano
##tillas
Neg
fui
qne
carb
llevan
Palacio
##pole
vener
numero
##ticos
reflex
importa
Var
##amor
beneficio
diver
preocu
supremo
mue
177
Ramón
prosper
##íz
62
manten
dura
aparece
lei
ensa
temer
azo
ug
central
dueño
debajo
##uelos
Hoy
##gia
procedi
HISTÓ
##ormes
corto
puedan
satisfacción
aviso
fundación
cubierto
##EZ
muito
celo
horror
desas
jamas
retirada
mural
400
##yes
virtudes
##cra
##gestad
refu
brillante
##gip
##sen
##ficas
Ponte
##viesen
humano
alegría
Cádiz
horiz
##tt
súb
espon
graves
cias
lágrimas
##vir
ejecución
confun
dixo
##vila
##endió
mues
Med
ester
##taña
##rones
siguiendo
DI
61
octubre
vienen
##reza
##ómez
bis
hogar
##PAÑ
grandeza
vano
corazon
##ieza
mantener
mento
##gaba
HISTÓRI
pasaba
##lao
GU
inferior
motivos
suficiente
alb
dije
interrump
tribus
até
Valladolid
once
magist
pidió
castigo
aba
ejercicio
famoso
Pri
##dición
poderoso
error
perdon
despren
Yuca
reserv
Orden
documento
LE
vulgar
##pin
patr
elle
Guz
riv
Alb
cón
hue
Fernan
secreto
dificultad
much
resta
prece
vale
Mem
##zaban
##gor
##tepec
impedir
##amar
quedaba
junio
Orense
##óst
65
inútil
dismin
disper
Emperador
obligado
productos
persuad
encuentro
##idel
##igas
Chi
Gómez
mode
##jestad
Pad
extensión
Dec
escritor
##ribuir
espectá
halló
##uto
##arte
Anna
##ze
encontraba
capitanes
gent
ricos
set
revel
cop
Amb
apun
Const
liberales
preso
##mán
##ulto
Sub
monarca
varas
reprodu
ponerse
cañones
ef
francesa
menester
##inda
quedan
distingu
muestra
##abas
Ál
##ay
derrota
Rafael
MÉ
##fecto
sujuzg
altas
salv
cib
##dados
camin
vecino
hospital
CO
hoi
Salvador
doble
presa
sacrific
69
##igue
emin
Argent
Cristóbal
dónde
empres
##chez
nivel
equivo
##gura
oposición
supuesto
funciones
##ERN
instrucción
injust
Oli
rel
bordo
NA
##ork
Prin
prefer
##ábase
##cla
##inch
letra
llevado
proceder
Trib
gab
arquite
distribu
insign
ofrecer
rentas
armon
inmensa
##pulos
planta
marqués
##ement
##tum
Pob
##lamos
predic
cál
##gios
indica
Hernán
##tándose
##raban
##esar
##ést
##ANA
música
alo
modes
comprende
arch
entera
víveres
árbol
solemn
vinieron
solemne
Pos
colonias
##turb
elecciones
individuo
COR
serie
agreg
##ck
##uros
Are
subl
acome
##pois
##quín
63
cria
Bogotá
embarca
pasiones
Venezuela
original
##vista
##zuela
legíti
Supre
testimonio
servid
soberano
capri
##iras
##andro
##sación
##ñe
regal
##tones
##titu
##deral
llo
##cs
valiente
patri
peor
animal
##bres
##piración
guerras
ries
preven
acredi
pic
##ades
empezó
describ
mila
espedicion
sangri
París
impro
reunión
parecen
vid
vé
##raron
Burgos
##pro
ruina
sabia
Cés
##taría
obsequi
Gre
ás
pusieron
##ampa
fero
perteneci
pasando
emig
regiones
absoluta
##CE
##AB
rocas
##rilla
##aderos
Guadala
##jal
chos
veinti
alcalde
Rivera
há
excl
##dis
llamaba
mero
##umen
##for
departamento
sueño
##mol
##gem
##port
atrás
##erales
##ósitos
cárcel
##ándolos
venia
cuel
necesidades
encontra
mandaba
antigüe
##dí
mexicanos
adu
estudios
##genas
Sac
##ivas
Magdal
defini
Tla
##mada
verde
pobl
labios
material
160
##timos
##drí
##tima
tel
observar
quinientos
Asi
##rarse
##alla
##tla
##ienda
constitucional
pruebas
presentar
DO
##tlan
producir
##ibilidad
ocasiones
##cau
consigo
cerem
##amá
guarda
doscientos
fuente
##han
##vamente
posi
Hol
útil
pis
aci
mision
homb
debemos
terra
votos
qua
inmenso
Flores
consign
emba
Mira
Má
##izas
labr
MON
nacionales
diciembre
Reino
##izó
##ederación
##itan
ger
seguido
Agustín
Muy
práctica
##mado
Cartagena
##menes
encargado
##empla
here
Rodrí
jornada
##US
discip
##cales
bierno
dí
##trando
Londres
sabemos
Capital
compuesta
##vora
##vés
protección
fab
Prim
Uru
##fía
##ALES
marina
Reina
##TRO
pareció
inici
dominio
luna
Rodrigo
imagen
suas
##bra
##inato
rap
toca
##ZA
68
Ins
lados
##dario
persecu
significa
escritores
##ológ
despacho
magní
envuel
##íase
##jados
pués
Cristo
Vo
generalmente
policía
rid
##rente
##bación
vestido
aument
Vel
##ología
provo
##quias
mayoría
perjui
Doctor
desorden
bendi
masa
##umer
tiro
continuó
acontecimientos
##dase
##áticas
espiritu
voces
visitar
patriotas
rever
Castillo
verdaderamente
fábrica
##bos
##hi
Ama
##lando
##gara
mina
digna
preguntó
dipl
##lera
pú
torn
##izarro
invad
campamento
Eso
hará
Hon
bella
tim
##ka
diputado
176
investi
aves
fom
colegio
Ló
Sim
Ast
##mita
64
##egas
ropa
cír
confi
fiestas
##rie
##lano
acor
formación
##legios
Contin
fas
##ventud
discurso
quizá
perm
cabezas
ital
artista
Municip
continente
fes
hablando
Magdalena
muros
##ilio
##éano
residencia
##rino
cump
descubrir
políticas
crédito
ara
levantó
Ir
murm
rebeldes
prepara
negra
Santan
instituciones
frecuencia
curios
dispuso
##fera
asc
gobiernos
Ti
tros
vigil
aconse
otor
rub
ald
mul
febrero
dedu
audiencia
herido
desarrollo
permit
##ume
querer
empleo
vela
##rador
Rosas
##ivia
##érida
velo
sier
frag
Durante
##ari
enviado
Tur
vari
eng
cumb
pieza
corresponde
Rodríguez
##visión
##ension
##bat
reempla
om
superiores
Tes
vuelto
Cada
##cioso
fla
Ag
públicas
enfermedad
peti
podian
##PE
##tará
cayó
fatal
##ándome
pací
deu
espera
victor
iguales
##mamente
necesaria
67
sazón
PAR
oficios
esfuerzo
Solo
juzgar
Mexico
Teniente
##itor
misa
fís
Ayuntamiento
##ler
##pic
navios
##tamen
Compañía
fér
setiembre
juventud
romanos
Rosario
latitud
Álvar
##gamos
bello
Jor
tranquilidad
merece
rigor
##idalgo
##com
##mite
crimen
##ERAL
##vida
##enza
fur
##ificación
Muer
Guti
##ADA
recordar
##lamento
Toda
papeles
esperaba
comarca
presentes
##ille
prolon
escon
Gonzalo
conviene
Hi
odio
pasaron
edific
##ribles
guardar
americano
66
pudieran
decirse
cron
Campo
ii
##TAL
Está
religioso
##cura
##gué
fondos
Cabo
##ticas
experim
retro
gre
Tol
ia
Mariano
baj
152
portugues
subir
Alej
probar
prima
presos
Gas
ris
quebr
laguna
observaciones
bahía
vencer
terror
falle
clero
belleza
Univers
marchar
sentencia
grados
##esas
aper
Fo
ofrec
habria
Bon
asim
cose
Leon
Ofici
##arán
Núm
demo
territor
tribunal
Nuestro
já
licencia
och
##darios
##cemos
propias
acababa
vuelve
poderes
##TES
interesante
indígenas
cacique
conmo
Li
arco
paga
coro
##eciendo
organización
López
arri
##ázquez
creyó
##ómetros
Guadalajara
cubierta
cio
recog
##goza
perpetu
arma
72
divid
trato
ulti
respuesta
dada
##tente
diario
tuv
ría
##XICO
ramo
IX
caba
oí
##tanto
Patria
record
##tarle
Santander
suscri
aso
##teles
bó
rue
hacian
Napole
vaci
destruir
##TOS
resistir
##lina
perf
acompañado
##ernos
York
moneda
##poli
Santos
anu
municipal
Men
abierto
DES
puro
opiniones
cuch
sao
tren
aumento
Ol
representación
vist
##ariamente
versos
figuras
diga
##ifa
contener
##xi
penas
resuelto
Ud
zo
ocupado
conjunto
Sud
correspondiente
Valdi
AM
grad
marin
##áticos
estados
##rimir
instrucciones
##ans
propa
exclamó
Distrito
ang
aho
##tana
tomaron
canto
81
neral
miseria
bomb
noviembre
Torres
doctrina
riquezas
fic
bem
##ons
atacar
nov
agricultura
volv
dejan
##UEL
##osamente
orgullo
##amanca
abor
Hos
componen
##taria
##ulos
##cáo
noches
comerci
consecuencias
debo
sacrificios
##gata
plazas
tempes
##chada
entregar
Victoria
ampl
153
##ezca
longitud
garant
Ejército
##CU
##arnos
judi
##áronse
Martínez
##cara
##canos
profunda
llano
reac
extranjeros
tendrá
horrible
vía
##cr
silla
Blanco
obediencia
habido
ejércitos
Pac
arru
ciu
71
alturas
particip
##AY
Cuzco
reunir
##chor
precisamente
suele
##quete
guard
frontera
##bio
Jane
Oriental
blancos
lá
mercan
minutos
##rue
##vez
invierno
fácilmente
##anía
##riz
##ermo
##ense
PRI
vuestros
exclus
tocar
consol
publicado
depois
regist
gritos
descubierto
reno
Ministerio
viven
Oeste
##caban
notar
##lantes
juntos
sacrificio
traje
occidental
##zca
escep
Tres
Lis
zar
##adier
Caball
necesarios
jardin
Pontevedra
estación
matar
universal
vemos
175
fuga
bia
##od
155
della
compla
sirven
##RU
piedad
salvo
Fray
veo
culpa
##inarias
distinguido
Cámara
rato
conocida
tipo
caudal
Vie
ago
publicó
##chó
Guana
tenta
82
##tuosa
templos
publico
##aná
Rusia
##cumb
plano
##MERO
cient
##inosa
idioma
##fes
fueran
##ey
debian
niña
##bro
nú
arroyo
Oro
Cuer
confer
##icho
##dice
cuantas
##ctura
españolas
abandonar
Galicia
arena
saque
considera
PARA
espar
Algunos
90
##acion
##ctores
##tirse
habiéndose
abundante
##urado
hermana
ferrocar
Agui
Ese
través
pira
juego
##fos
Quito
Dista
socorro
valles
pobla
éstas
Jal
Rosa
##dadas
##taro
sabio
ajust
sorpresa
##vias
##umas
##JO
Lan
concluir
Br
gig
##ridos
sun
nacido
dejaba
Zaragoza
Joaquín
disfru
##gle
exci
actitud
denomin
Greg
##ída
mineral
##risto
ilum
##vam
útiles
alcanzar
elevado
Guill
humilde
78
VIL
facilidad
Director
darse
hechas
huer
supl
industri
verti
##ili
entero
pudiese
pudiendo
Lic
cun
caudillo
fuere
alegre
queb
educación
Uno
mort
consent
157
##del
##DU
Janeiro
Ru
ord
##abia
insul
legisla
cristian
##iel
##amarca
reba
nombramiento
VIII
citada
redon
##int
últimas
establecido
somos
unif
tradición
baile
inh
##entro
Bernardo
##ÁN
156
154
##cible
peru
intento
##ste
Parece
##deras
cuestiones
Pizarro
cubrir
aust
mío
76
##sal
74
ore
argu
XVI
##laron
desierto
##cedente
conmigo
chas
irri
73
##MB
ultra
##sb
dez
cama
##tiz
Nar
##ciles
inclin
necesarias
vieja
sera
##grama
Andes
espantos
##leo
auto
recuerdos
##elo
distante
conceb
##cero
memor
Io
mexicano
ochenta
##nto
##iu
mares
vasallos
ina
Rica
##nador
##hia
delito
##ellos
espectáculo
lun
CAL
ausencia
iglesias
movimientos
##ides
filas
pide
##grad
hablado
une
indud
158
Vega
tercer
director
gos
Nin
reinado
##tez
recibe
abrió
utilidad
subsist
TE
navegación
guarde
víctimas
alcance
##edores
enér
llevaban
##indo
cabe
demon
novedad
deman
Benito
épocas
pintores
gros
cris
clam
averi
vosotros
600
contaba
cristiana
pertenece
grab
carn
##turo
vestidos
##lana
##randa
Poco
77
##ecida
Señores
84
##íso
paredes
##deros
Dice
efectu
civiles
##iqui
arcos
destac
##MI
##rillos
playa
produjo
83
moles
ramos
##ux
##yn
##cientas
alum
Fernandez
Fal
grav
exterior
##boa
##ENTE
Tre
levanta
##góes
ordinario
hubiesen
trabajar
##ificar
mensa
##GA
franque
##CCIÓN
Poder
malos
##hon
compañero
apell
opon
cargos
testigos
catedral
descubrimiento
Puente
reve
hiciese
Yucatán
consiste
numerosos
Pie
imprenta
vender
##ficación
pit
Catedral
##aré
ilus
TO
fri
rie
provincial
##éramos
##pú
Vire
auda
emprender
jud
##iero
85
obrar
Sociedad
declaración
escul
empu
Adem
Je
Lie
151
conducir
maríti
calma
enfermos
hun
acciones
Mej
usur
inmediato
nombrar
segui
lista
declaró
CI
agradable
##ex
##ROS
Ib
##ademia
ainda
##ife
incorpor
mia
venganza
admirable
Estre
flu
##ituir
sól
esla
##rian
oido
Arti
inmediaciones
Caracas
##arde
lat
energía
##iblioteca
##ciosos
##asi
##LAS
árabes
161
Quien
Bolivia
##uitas
exal
tono
Exc
159
Bartol
bes
délos
copi
grupos
Príncipe
##jarse
caza
##amin
pasan
coo
conocimientos
final
##sem
lum
presti
##gulo
##ington
explo
estrecho
erig
infeliz
Secretario
suplic
Cla
monasterio
ahor
enfermo
##mó
##ENTOS
Nación
##chs
circular
Potos
prudencia
caracteres
SO
##orce
aproxim
inex
dientes
presentado
dioses
Otro
eno
ayuntamiento
semana
gefes
##har
cultivo
llegando
##unció
Todas
patrió
Trin
turb
##ugo
hice
##ricos
##terrán
Plaza
##icioso
bién
##erío
##pio
##forma
sobres
MS
juramento
Además
Alm
habt
pelos
europeos
sufrido
operación
cuello
fieles
indispensable
poniendo
79
Medina
##pula
matrimonio
tercero
detalles
condes
tengan
largas
ciencias
inci
poses
Salamanca
particularmente
nobleza
puesta
kilómetros
Sán
conform
correspondencia
Escu
presentan
monumento
inmediata
Cl
negocia
acá
romano
Valdivia
luces
##éc
ganados
##quera
trabaj
bando
nem
soberan
jueces
pur
##posicion
contento
Imperio
discre
escritos
aceptar
sacerdotes
Arch
ayuda
cidade
prisionero
oper
diese
##ensión
César
##andal
calum
fé
imperial
##atorio
anda
96
obligación
Península
monumentos
##ate
mención
##uh
##entados
realistas
Cató
huel
desesper
##ko
Ejecu
fie
dueños
##idencias
vientos
barrio
##damente
##anse
paral
agentes
bóve
##rida
##unt
origin
Mac
dados
Arro
cou
extranjero
deberes
reforma
independiente
Sres
cuadros
##entri
suelen
suponer
##manas
chac
partidarios
exe
marques
ardiente
pereg
Cel
##jio
compuesto
##egos
nombró
##adoras
setenta
##iforn
papa
canón
naves
##alco
Cerv
escuelas
ventaja
Papa
municiones
uma
cog
insurrec
Gregorio
terminar
fenóm
sucedido
##ji
materiales
arbit
construir
##cordia
recinto
caja
correg
fuentes
char
##quinas
manus
escala
Bat
interpre
##ps
##cua
retirarse
pastor
débil
seda
abre
trató
ensan
cima
reconocimiento
reducido
café
ner
part
lecho
Cuar
ordenó
satisfacer
tratados
pintura
combatir
Vamos
##dría
invasión
caridad
fos
religiosas
sombrero
secun
empleado
esti
prosperidad
Már
conces
lectura
lluvia
compara
gene
##QUE
162
pasados
##tible
##emin
##OG
dijeron
##ciosa
trataba
rayos
ríos
eres
nuevamente
logró
viajero
Bretaña
##jón
sole
cédula
ps
barbar
dij
Ge
veía
##izan
##ator
clara
gabinete
tall
Marina
aven
brin
fantas
estad
polvo
Hemos
romper
económ
Rel
desl
##ritos
navio
Tam
suceder
estension
Bartolomé
lujo
Medi
##seo
##íes
reserva
manifestar
Total
nacimiento
armados
enorme
arzobispo
sesión
Tri
##hes
Nosotros
encargo
demostra
fidel
comida
patio
artíst
codi
informe
Napoleón
monarquía
manifiesta
dirigir
sever
Administ
Hua
Oa
derrib
ai
##udos
esl
nació
sitios
ines
##larse
cí
##arato
##ensos
##cázar
Hé
PER
sacu
vaya
dose
##inaciones
trigo
Figu
Nor
##ipo
abierta
cristiano
86
estima
##jido
lenguaje
hermosura
elector
##ñó
médico
##olas
##él
##lase
comunes
concurr
Hor
bala
Zaca
enla
##dencias
sedu
facultad
##ejo
bergan
precipit
dejaron
nace
elegante
DON
anno
Diario
Esa
tempo
reli
establecimientos
Viz
##uato
Valpara
ponen
oriente
retrato
Más
dies
probable
##TAS
destinado
Tomás
hallarse
pera
entrega
creemos
antigüedad
mio
rara
##vit
descripción
aumentar
##leto
nor
##identes
cadáver
##dera
mirar
referir
##alia
trae
##cedes
Pueblo
entrado
producido
Inde
Justicia
nal
premio
pedido
Bust
Cant
colocado
##use
Sor
##urar
Navarra
asimismo
cuidados
federal
caz
enseñanza
##jue
##orado
volvieron
santos
174
justa
ocupaba
Cob
legal
##esto
##quito
custo
ignorancia
##TOR
##chan
vice
esfor
posterior
##menta
presen
cuentas
intención
poesía
##dero
Bri
tiem
Dol
destro
celebrar
ído
grie
cola
metal
favorable
respetable
Ala
sed
formó
sirvió
culp
eman
##ash
acus
nubes
prete
planes
incom
provecho
88
cuál
defendi
largos
REV
Les
##erta
admiración
##gráfica
reh
hagan
barran
mercad
queria
Villar
tesoro
bue
##vidad
##entamente
##teza
Sánchez
Cuenca
cristal
Departamento
renta
##bia
##ubo
conocidos
gratitud
##ANO
resplan
Ata
##trio
intent
proceso
##AJ
##rantes
Duque
proyectos
##temala
riesgo
##amora
##endía
Hidalgo
errores
representantes
cán
Blas
trá
encontramos
enviar
compañías
inquie
##todo
semp
almirante
filoso
die
llamados
invi
negar
defensores
##gh
Silva
Án
cerros
numerosas
algodón
recomp
For
derram
##cripciones
Rib
##gentes
##tural
finalmente
quie
Cura
salvajes
sumamente
siguen
moderna
##diese
precau
valeros
fundó
##bi
##into
##timo
estatu
tele
cercan
ambición
nome
reta
Casas
lanza
contradic
hered
eficaz
##peración
##sele
fundar
conflic
Adelan
98
corr
Mes
##ución
Potosí
llos
##fectos
haciendas
Alejandro
##ENCIA
tante
ESPAÑ
valientes
Cho
Argentina
##ilas
descanso
sensa
paseo
roca
crea
materias
##áns
corp
escrita
comprar
continuo
resolvió
enfermedades
Nie
detener
##cala
Guerrero
##unales
contras
bases
ánimos
abri
llanura
plomo
americana
tamaño
fuegos
##dura
sepulcro
barra
quel
levantado
resolver
rival
##rua
Sancho
Arzobispo
asegura
afirma
aldea
nado
ocurrido
encarn
respectivos
mono
##DIC
concer
##tines
Uruguay
catorce
##tuario
dista
ejercer
Tru
vincia
800
##RICA
histórico
rea
87
cléri
violencia
bras
quitar
Almirante
quanto
arrebat
##lus
espalda
fundado
bondad
QU
llegan
dores
The
curiosidad
AP
##alupe
dire
##cola
##OLU
artistas
regreso
##cillo
164
##piraciones
sacerdote
##xima
límite
cita
historiador
regla
círculo
tena
sop
Lar
conoci
##ers
##tadores
Ul
constantemente
172
hallaron
tá
##trópoli
pasión
podria
QUE
jente
##gol
##dol
inver
Guatemala
zona
fijar
olvido
continuación
parroquia
producto
Leg
azúcar
Senado
bron
163
art
llamaban
tembl
gana
dominación
Pam
incre
##umo
tea
##icidad
acuer
Maes
ganar
instrumentos
porción
formal
ocupación
corrientes
piados
banda
inglesa
XIV
##ENERAL
explica
Libertador
desemb
adquirir
reinos
impo
##XX
##gica
estatua
prestar
indis
Egip
dó
trastor
oído
##ley
disim
menores
víctima
89
desf
Álvarez
nó
##ute
ene
conquistadores
verano
robust
Guillermo
títulos
##chando
At
Academia
moradores
Californ
sublime
##idió
Mara
Callao
soberanía
fragata
trescientos
##ICI
##ñada
##amante
##ladas
ios
reo
governo
Rico
##itación
##érrez
fundada
##jadas
entraron
Moreno
Provincias
bárbaros
##gente
imaginación
experiencia
detrás
dignos
colocar
hala
haz
ahi
tó
intr
obten
propuso
Teo
honrado
religiosa
cum
cantar
NÚ
Cuán
actualmente
reparti
verá
probablemente
povo
accid
cónsul
monstru
170
165
antecedentes
perdió
Jorge
poderosa
escribe
proposición
partir
juntas
maravillos
##urias
##ise
deser
##grafo
páginas
bajar
adonde
Vas
departam
ofreció
##tzin
##tag
##álogo
ridí
comi
tuve
absoluto
lien
zas
ei
##ns
todavia
radic
##ética
173
##uz
acta
domingo
obtuvo
renunci
arist
contestación
Fre
pom
##elle
Panamá
parecido
ventura
lluvias
drama
distintas
171
hiciera
zapa
arbi
desgraciado
indicado
impresión
atender
fiscal
Peña
duró
Duran
Españoles
##vangel
dominios
ejecutar
fras
hel
mentos
oyó
hijas
absolutamente
destinos
realizar
incur
##gaciones
histórica
##igne
pico
Morales
##alter
discusión
vier
##jon
Asamblea
extraño
pidiendo
caña
elemento
descen
Exmo
circu
llegaba
conservación
Guzman
unidad
grandi
libras
##ider
sagrado
creyendo
suprema
verdaderos
torno
Pom
outros
penos
vencido
120
escribano
encontraron
relacion
historiadores
Nun
convers
agora
##ercio
preguntas
habéis
palo
informes
servi
venga
señales
proporción
castellano
Jose
Bravo
Clara
denom
crí
Acu
Marqués
romana
Ia
quatro
viejos
Apenas
tabaco
advers
literatura
##ENS
Indep
##zgo
quisiera
impar
Aben
Alba
insurrección
eva
##orro
nen
##ñal
dim
##ensiones
Anti
partidas
permiso
eru
ojo
##idro
##tienen
##ceder
sincer
Ruiz
lia
##riles
responsabilidad
retiró
cualidades
ocupan
Excmo
ea
tuviese
derra
sesiones
hablaba
##minación
rodi
esperando
repugn
toler
aques
gres
sucesor
Tras
##gento
Juana
##unción
hablan
Ilust
rego
sabía
##ónica
XXX
disciplina
despreci
##dro
recomend
cariño
##geros
bellas
Guadalupe
Otra
minerales
oy
##ID
porte
##lix
vencedor
Fernán
Pir
uni
XII
plen
notas
On
desm
producen
Aca
tend
fortifica
fren
concil
reform
##áy
recob
##éndoles
cae
##LOS
vió
distra
##ry
salen
poetas
##ranza
##iers
nerv
Gutiérrez
dictamen
venían
dro
Colegio
absur
empresas
##cionario
costado
fazer
odi
tráns
barro
Alvarado
publicar
disponer
domést
ave
cumplido
##rupción
Ejecutivo
habíamos
impa
constancia
eterna
##resión
rebelión
gado
##izadas
##nia
contenido
vimos
persegu
##ou
168
párra
##rú
alt
intervención
ira
mía
##unas
Wash
compatrio
##erial
enamor
##cones
próxima
##cipes
sueldo
##bamos
impuesto
cultura
##tte
muestras
cólera
Ill
expresión
##ián
elevación
Catalina
Colonia
##ernación
ilustres
Amp
lograr
##ística
seres
XIII
##CAS
presup
dades
93
##eamente
embara
formada
elevada
##tencias
poli
limos
cañón
ingra
cortar
Virey
ricas
loco
tarea
circuns
Supremo
##laga
península
##iri
ciertamente
##ñoz
REVOLU
##ILE
perjuicio
horizonte
eleva
consideraciones
##iación
Cir
manifestó
héroe
portugueses
##ceres
ofrecen
92
acabar
##ecidos
Aqui
##jaron
conocen
##len
grueso
gobernadores
Española
expor
sufri
##medi
reducir
##ang
pensaba
podrían
##tlán
improvis
ramas
##obo
##inte
Majestad
sacó
Hig
##ly
aventur
AI
##cante
llenar
eme
cadena
temperatura
variedad
mugeres
##gida
decirlo
manifiesto
miserable
propiedades
tumba
persecución
paises
##ance
formaban
91
vicios
##ublica
##tillos
Fin
oportunidad
Sep
##digo
##caso
Mundo
bisan
##pores
dal
aren
escandal
socie
hallado
Cataluña
tig
Af
mientos
fortific
##cilla
Océano
gozar
quedaban
posiciones
BA
acar
##dando
##osidad
exti
veremos
##inada
diablo
##ieros
vuestras
solicitud
##tasen
Trinidad
Marcos
adelantado
Cin
salón
tributo
relij
diré
Río
fundamento
assim
anciano
dama
##ñan
##usieron
pájar
wh
elles
Pra
archi
habitación
bay
examen
Juez
modelo
revuel
inmortal
Ferro
##uy
reunido
exactitud
oscuro
piel
##LES
##maras
Die
Pach
cesar
##cedía
miras
frecuentes
DOC
Universidad
acces
progresos
sagr
fidelidad
##ija
permite
95
flan
##hui
elel
entendido
IL
meter
sociales
repente
##imento
señoras
Habia
orí
querían
anima
llenos
esle
##ple
resolu
insist
mármol
ame
mediante
marchó
advertir
##anca
Pacífico
prev
abst
acha
Buena
Mir
China
det
##cana
ocupó
usar
##ÑO
149
sección
números
##gaban
tad
Zamora
hacerle
##TICA
deste
##fu
##anim
##ánd
prudente
##iendas
criado
estremo
mejicanos
##cn
criminal
Andal
equival
##cita
Muñoz
ejemplar
dormir
hú
declarado
Otros
##onas
##guer
venida
beneficios
añadió
aquél
chis
esclam
compone
naturalmente
rég
bené
##óes
##iencias
166
Iturb
termina
extin
privilegio
consejos
Lisboa
Chil
últimamente
penetrar
incendio
##laba
##cus
##ule
alianza
##fin
##cesa
sentado
cometido
##juato
##ENTO
##porte
furor
##fort
perro
presidencia
crey
honores
primo
amante
ración
##ivos
rojo
dente
aparecer
evidente
sín
##bara
divina
reformas
lee
veia
Rojas
renuncia
conservan
sabios
magnífico
villas
obligados
órg
humo
aficion
obstáculos
diplom
Cerro
apareció
estableció
##fra
mula
rayo
castigar
Lim
Garcia
Ella
##jeras
ingenio
Jalisco
##ites
espes
99
Plan
vire
##iéndole
impulso
bio
sonri
mó
##lim
##ambo
reconocido
Filip
bajas
it
MÉXICO
##RIAS
deseaba
AB
Tem
pál
Magestad
directamente
considerar
recoger
cuesta
consuelo
Igu
tie
##abor
Tro
atras
lev
sombras
Adelantado
razas
abandonado
regoci
terribles
LIBRO
traición
sensible
##gase
curioso
##CRI
tercio
casu
vivos
licenciado
apresur
Sul
##oraciones
indigna
harto
parle
##abell
##rillas
paciencia
Artigas
##iciosa
sáb
##dedores
discí
Jaime
tránsito
inven
golfo
##ribe
creación
dedos
raro
##riga
pude
bajos
Tribunal
yor
##éronse
claridad
encomend
armonía
Carmen
##tli
Soto
publicación
providencias
consiguió
EX
##entación
reglas
##tamento
legis
Lsb
esposo
Dar
inca
recurso
Palma
afecto
necesitaba
parecia
solos
satisfecho
Rev
numerosa
Gil
posee
Vis
dele
vapores
esperim
olor
##daba
tío
Málaga
##fre
maíz
citar
Alto
tristes
quizás
rs
Esper
devol
nacion
##quipa
Banco
vá
pesca
brillantes
examinar
estru
colonos
instal
##ecto
hoja
##liar
opinion
Apar
suave
divino
exer
reunidos
Despues
NUE
sepa
comprom
abol
diligencia
Gib
Har
ferrocarril
desat
##vitud
lison
vn
apoderarse
mirando
Grecia
comenzaron
##iende
ventajos
régimen
MAN
##icis
##quista
frailes
signific
Bajo
##valle
presentaba
famosa
Jeneral
##ampar
nieve
milag
lodo
simpat
Córtes
Cm
cuarta
##dirse
contor
creen
ña
peñas
estor
sempre
torres
pendiente
Habiendo
delib
##yu
ino
asalto
alguns
estuvieron
tiros
felices
convir
melan
caprichos
acierto
vidas
lealtad
súbditos
llegamos
97
viajeros
##abe
##igar
##izos
dará
Lope
trece
##cencia
cabec
confusión
ideal
esse
podrán
sendo
coste
canoas
Tierra
agit
Gom
##reras
California
##gin
inju
informa
Washington
##NDIC
##ví
##entaba
despob
##entada
##bol
##ép
regimiento
demanda
##oba
Salazar
Alar
relie
BU
señalado
##gante
sois
conversación
##teres
conocía
viajes
empieza
sobresal
io
red
proble
##erona
criados
concurso
venía
acordó
convic
centa
tados
##clu
prín
llevaron
##mós
desdic
interna
página
contempor
Punta
tio
diera
adj
acabó
Gabri
oeste
invo
cip
duro
sete
contrar
hil
inspec
##diar
vencidos
triunfos
trajo
Tú
Alma
##ALA
1810
tap
frutas
canti
##ILLA
independientes
nist
Ante
##óso
Iturbide
hda
ceder
imagin
lament
##vita
169
demostrar
Jac
propuesto
frase
hago
amores
permitir
dito
revol
##íme
Guanajuato
Dem
queriendo
sujeto
##blas
angust
inser
##ith
Tener
enca
pensamientos
##ISTA
##quisición
Aran
asamblea
doncel
blancas
batallones
##duras
##vero
XVII
deposit
Egipto
auxilios
bols
distintos
##ericor
##vento
formid
parroqui
expon
167
abrigo
Dan
desgracias
Pala
##iamos
Deb
Comisión
dir
##vian
Calder
##tela
aut
cuento
consi
tuviera
conseguido
imit
##gno
##jidos
Provid
glorias
##cuador
atmós
Avila
Ley
desar
Murcia
Tucu
capi
meridional
lana
logrado
##mn
esplic
instrumento
##tanos
especiales
archivo
Hun
##coles
##cerse
colega
aliados
saliendo
##cipación
TOM
##entando
neu
Dé
Virrey
esplén
ardor
preocupa
enton
capitales
Maxim
yendo
Paraná
plumas
Día
##asion
suminist
griegos
##uza
besti
mens
protector
comunicaciones
pilo
pertenecen
94
Brig
pant
##éndolo
rapidez
Miranda
vecindario
serian
jener
##izando
MUN
contrarios
obliga
mate
alrededor
envol
aflu
##oras
gigantes
toros
##uos
realmente
Amer
abundantes
##doso
Guaya
tienda
##endor
##dimiento
mover
##CIO
Via
gloriosa
innumer
##tell
siente
VEN
dejo
pierde
excelente
vasto
Simón
peregr
##chura
perdida
litera
hermosas
oportuno
Sig
mencionado
delitos
Ministros
Arequipa
##xos
##ectos
ventanas
cumbre
pared
recorrer
cjue
accion
creía
XIX
pir
quebran
combates
hombros
diarios
##quita
debida
##pital
embarcaciones
globo
catal
buscando
corazones
conduce
dirige
alboro
seiscientos
pól
##ot
personajes
huir
India
debil
replic
mozo
##ocadura
esclavitud
##edi
##pados
##IE
maestros
##lanes
cambiar
Mora
alu
dencia
Eran
AV
admitir
alimento
Corona
##ep
vicio
pretensiones
damas
caciques
nece
cubiertas
pedazos
##VO
carrua
domina
Libertad
colos
Super
pormen
fija
sof
modernos
quar
vís
##ielo
prescin
olas
##bí
##ibus
##dre
observación
##ciado
tambem
Velázquez
bronce
sion
##tían
##lle
crítica
Hue
##dul
##RAF
cadáveres
granos
Gerónimo
muel
##rita
asom
permanecer
##uan
deix
sucumb
saca
comarcas
pretexto
nido
##ati
Sch
piensa
##lago
Comis
insignific
percib
##racion
desci
impre
texto
atravi
Nu
##jaban
aceite
tranquilo
##dea
desvan
##bur
duas
serlo
siguieron
Inten
francos
obligó
vit
comisionados
##GUN
alcaldes
Puede
ofreci
festi
comunidad
banderas
profundidad
golpes
##cantes
distingui
carbón
cientí
Alcalde
##denal
malas
celebrado
urb
destrucción
##rande
prender
usos
repetidas
Gor
##zin
##guera
masas
suc
espaldas
gó
Cár
##tuvieron
CHILE
##lectu
Montes
bles
##vie
Año
abandono
AD
justific
depósito
desprecio
Gaspar
echó
##orero
##udas
orn
aliento
firma
paraje
concluido
producciones
Ortiz
##ándonos
##inados
eco
requer
eterno
perros
mulas
ego
desal
escenas
tern
dester
GE
Villal
rodeado
adornos
coche
111
llanuras
perfecta
##pen
paña
Relig
tirano
debilidad
##güenza
Edu
desaparecido
árabe
##LAN
Obis
desconocido
repetir
##verso
##cé
esquina
1820
suso
creia
##licas
1870
Velas
##tab
##onato
desenga
##úblicas
cerrar
sustitu
fison
POL
Hace
colección
##alapa
inscripción
corren
tempor
privilegios
Aguilar
emo
correo
cibdad
##vadas
orientales
PU
acudir
imá
viuda
muro
decían
piernas
atmósfera
usa
dolores
murallas
uu
##úne
intim
ventana
precioso
entregó
Llam
jen
inconvenientes
##íf
calam
declarar
port
ful
preferencia
seguía
nia
Aren
##wn
estrib
Félix
##land
contestar
filosofía
Independencia
##zarse
comienza
##ídos
vea
concedió
proclama
escalera
GRAN
táo
Gover
mexicana
NUM
habló
aprobación
judicial
tendría
Central
NÚMERO
relo
comand
##iliano
repent
Americ
inicia
reunió
Van
##eses
Aya
Nadie
llas
cargas
marti
faltar
filóso
##ptentri
procesión
##üa
responder
conquistas
verificó
Mérida
PRE
##xaca
mostrar
##pito
maj
veh
rú
##gero
Ep
sta
lenguas
acontecimiento
rendir
habil
oh
Ll
Siempre
##cera
##tid
tienes
rancho
##tral
jardines
conceder
Gabriel
##midad
senor
estrecha
Camp
cans
tiranía
brigadier
Carrera
NE
essa
exh
##gam
hábil
muchacho
Negro
Tomo
##oría
##udales
gall
abusos
ilustrado
fis
##ituido
Porfi
bauti
Han
primitiva
COL
misiones
##uría
mesma
##NDICE
oír
##éndez
ejemplares
Princip
retaguardia
someter
aparato
Cual
absor
gue
parientes
maiz
##iguió
géneros
Vizca
devor
bastantes
desea
exij
permanente
Pá
relativo
convid
fronteras
partió
permaneció
not
##urs
ataques
espiritual
eri
sujetos
##tern
colomb
Andalu
pata
cabellos
empleos
Geo
sy
inau
##iter
annos
vara
sn
inces
princi
llegue
mercado
Ri
presentarse
diferente
##diera
Conce
cil
unido
obtenido
tura
Repres
Jim
Aquella
fabrica
rad
enormes
ove
abismo
##vira
##END
huesos
##zano
contemplar
parar
haza
Corre
SUS
##árez
inocente
tia
##gidos
rele
##iam
quan
tribunales
Sego
Bay
Teatro
ced
enemiga
afri
Jesuc
fundam
sulf
mezcl
Hen
##vaciones
margen
Mont
MU
habrían
cala
vanguardia
claust
obedecer
construido
omi
secular
miradas
encontraban
##edo
deli
influjo
##hel
requi
convenio
VAL
escudo
ribera
##yente
##dole
quisieron
provisiones
##vó
decidido
cubiertos
cres
enrique
Sir
dido
pasada
##lección
conveniencia
Tengo
auxili
observan
Gerona
sello
##ísmo
habitaciones
##quiza
expl
actualidad
patriota
dándole
##eiro
casta
embaj
cuentan
mera
arroyos
Vargas
Gon
ater
calific
tradiciones
##lemente
desigu
fl
juzgado
engen
devoción
lie
gravedad
Muchos
##zcoa
Sem
AS
dram
pabell
sencilla
metro
Villan
separado
ARG
misioneros
##mano
provisión
org
averiguar
dudar
délas
##arles
onsa
profund
representante
semblante
sobrino
##judic
mortal
##íe
tempestad
nio
tando
Laguna
sucesivamente
##ty
seguramente
GENERAL
seren
##ximo
yugo
Coch
##uch
mezc
oponer
Emb
##aste
##gins
poderosos
voluntarios
opera
constituyen
Porfirio
alba
falda
intelectu
capaces
are
contempl
aristoc
##ficar
Joáo
héroes
eclesiástico
##ner
##edas
excepción
##izarse
trascen
dirigido
Vuestra
cpie
##ecas
entiende
##ementerio
##ensible
Bet
aprecio
##TRA
Mexic
##ls
elig
guerreros
##graph
##pié
obispos
jesuitas
Jesucristo
insigne
infortun
##ándolas
Rub
exter
obscu
ocupaban
Díaz
Et
FRAN
##dita
señorita
##uración
futuro
quejas
opuesto
recibieron
Ric
##ético
##UST
reposo
sacrist
glorioso
blica
dispens
##gió
##dade
Rios
##hat
##ceros
estudiar
silves
redac
fundador
sierras
##cede
espanto
sec
dellos
##queta
##aragua
infante
descont
prose
eg
duros
Hernando
Agu
fier
anun
##case
olvidado
##OBRE
abogado
##cientes
diá
manifestado
disminu
frases
Bro
##isos
doy
crímenes
SIG
##landes
##ERRA
corriendo
pólvora
Gol
havia
usan
cera
modos
##usta
Micho
##enten
Jue
laure
pretende
dona
faltaba
##ORES
desconf
Providencia
##frad
precep
oficina
pudiesen
queremos
asistir
##vedo
daños
##endían
Alcalá
Bauti
convertido
consumo
pesc
Blanca
muralla
##bus
revo
torpe
cuestion
máquina
Madre
##centes
##DOS
##teria
rápidamente
programa
anual
conozco
Dio
##cente
agrí
traidor
misterio
zan
250
cambi
##ragones
emi
mandando
cuna
escru
##iáo
poster
reunirse
##ium
refuer
130
edición
innumerables
cito
Capítulo
##ceta
personaje
ofrecía
intenciones
##abit
pass
aprovechar
##critos
##iré
moda
Nota
Esteban
edif
##inetes
olvidar
alarma
garantías
fór
vasta
##ION
IMP
Alca
pintor
conducido
hermosos
REP
tic
alumb
únicos
##usas
Estaba
supone
PLA
Tac
##form
debiendo
toman
##fice
##tamientos
jurado
##lanos
Bueno
vido
##CES
##zobis
exager
latin
##endida
temporal
propietario
Guipú
arquitectura
Valparaíso
penit
##ADOS
##ñados
sexo
colinas
camar
##doro
governador
##fas
función
furi
celebró
concurrencia
mec
##ñaba
adul
intendente
Far
menudo
representar
##antino
acomo
dulces
Guayaquil
elocu
ocurrió
##mis
sedi
existir
determinó
atrev
serio
##ranca
##uera
permitido
infantes
heridas
añade
presentaron
tristeza
lóg
estancia
basti
hume
Campe
arreglar
mado
##ERI
Oaxaca
ceremon
yjuzg
##ish
##emas
claramente
Ángel
aban
discul
fonde
Amazon
tantes
##cillos
Popa
##sel
bern
descubrió
auxiliar
herida
territorios
DOCUM
alla
Dolores
##verde
##cent
##atl
andu
terre
fábricas
Queré
##áneos
multiplic
prestigio
Anto
apostó
##itario
apreh
Div
siem
anto
sacado
volcan
alcanza
mata
seguros
determinado
observado
rior
liv
metrópoli
exacta
Margar
Chu
marineros
Higgins
unidos
faltan
140
atropel
Viva
##letas
##cub
tiendas
Ecuador
##río
##dela
##itre
RO
rosa
ancha
pretes
vuelo
maior
trabal
##piro
periodi
Julián
##terráneo
Ras
Pers
His
table
siento
##uli
carro
Gibral
Marta
banco
diferencias
acento
divisiones
Porto
Manila
protesta
parecían
presenci
calcul
mam
Bena
método
Romero
Bustamante
pedi
Verdad
contacto
extraordinario
##chu
tema
reputación
deis
110
habitan
conflicto
fijo
pertenecientes
##jía
Tenerife
Obs
niñas
poss
Puerta
Clar
##pata
aplicación
Mucho
preciosa
estatuas
##pla
siones
departamentos
tido
necess
inconveniente
##tino
católica
##énez
complic
distritos
consagr
activo
Agua
Sólo
oficinas
sencillo
##hy
producción
pormenores
##MIN
aparte
Ademas
yn
doctrinas
PROV
##pé
##omos
habilidad
capacidad
candidato
met
impru
sentidos
titulo
Braz
poniente
publ
##long
##cesis
almacen
##abar
mili
batallas
Tama
cios
alha
##cate
##egado
execu
dita
##igan
entrando
frío
VIAJ
suficientes
petición
anarquía
Corri
extraord
tinie
hostilidades
Maximiliano
echa
cordi
##ándalo
Num
capas
comenzar
disgust
retirar
##ME
fierro
mariscal
llenas
##lex
desaparecer
fiebre
separación
sociedades
perfeccion
directa
pedia
inclu
causó
irregular
Bautista
##cena
##arlas
##guirre
rodillas
composición
##áneo
##ional
1851
té
##pulo
It
ascen
Ví
tub
aparecen
distinguir
##cable
deuda
##aduras
abrig
estrellas
feroz
sonrisa
nega
suge
##jones
ermita
Calderón
SA
correc
muchachos
amenaza
##goes
cido
PARTE
aur
rias
subalter
outro
ejecutivo
maderas
700
##tadura
juntamente
ue
ann
prisa
merecen
Había
Augusto
Florida
andan
constituye
##inariamente
plebe
Atlán
logo
##manes
##monte
##ceda
espero
forz
Andalucía
respectivas
fusiles
flechas
barba
##DIO
divide
Rin
pil
dero
Contra
XVIII
##aray
148
##iciosos
darles
insin
integ
Número
##món
magestad
expresa
dirigida
escolta
demonio
##ical
examin
confirma
vivas
personales
creído
deri
##LI
igualdad
brigada
Guipúzcoa
amiga
falso
##ÑA
##ecimiento
Antillas
estableci
beber
sirva
that
Segovia
##úl
compatriotas
him
históricos
Bil
llamarse
decad
continúa
Ran
##zana
franco
obsequio
predi
superst
quinta
Escrib
asombro
Ec
##gencia
tronco
diariamente
veter
125
invit
ligera
destinados
pensado
##gráfico
amanecer
humor
##cedió
disgusto
anticip
tard
ofrecido
PO
##tito
Nicaragua
Aten
aclam
plazo
velas
##pent
conocidas
contribuir
##yar
proveer
ceremonia
Dá
##isas
pensó
amparo
Fernández
promesas
##ani
topo
traves
comprendido
dev
estes
escasa
Molina
cercanías
quede
##endiendo
##tit
marca
castellanos
Pág
etern
bau
sancion
hallándose
Sui
rama
##ds
##guin
milicias
##portar
generoso
inesper
vera
##derico
electo
Guay
soledad
1861
##TAN
reos
lodos
recta
Occidente
Querétaro
147
##embra
MO
prestado
comedia
cadenas
##pus
##far
ena
Truj
suyas
tancia
entran
espíritus
arra
vers
negoci
pobladores
playas
gub
decisión
dho
inac
pecu
Zacatecas
LO
##fia
apasion
##endio
##embro
oscuridad
Tel
análo
distinción
Fuente
##bla
verdes
correspondientes
incapa
##gunas
despleg
terminó
escap
compra
Evangel
madru
empezaron
cimientos
##rés
interesantes
revolucionarios
Teres
salvaje
deca
Union
Vé
lina
mediados
recien
##éndola
##pirar
reciben
adquirido
Hospital
temprano
Mateo
remon
gargan
solemnidad
rema
mananti
rumor
Jam
alca
##ábanse
Exp
encierra
quebrada
##izaba
Nao
descuid
quaes
lor
seco
campan
nariz
mod
escapar
Nunca
BAR
Sra
dex
sagrada
Centro
verso
faltas
añadir
hábito
pois
Ele
mostró
bloque
Filipinas
CAB
ignora
manu
esplendor
Septiembre
##iada
cues
Boli
##tezuma
guna
##rion
abundan
proporciones
##ericordia
LU
millares
obispado
##ére
gasto
posteriores
semejanza
propietarios
Fon
ati
##aremos
inu
##urados
presum
pinturas
rasgos
ye
pobreza
##iosamente
revoluciones
##trada
inteligente
SI
##rans
asilo
litoral
Tomas
New
vegetación
príncipes
##dador
varones
resid
lidad
disfra
comerciantes
detuvo
Cordillera
##ítica
##ville
##donado
proposiciones
##gués
1823
CAN
cic
milicia
indign
descom
##BLICA
GOB
venerable
presupuesto
profundamente
Ola
causado
populares
obstáculo
##imamente
Maran
Ramí
exhib
sia
volviendo
cisco
capitan
Bah
esclus
llamaron
patern
lanzas
terminado
Jar
sueldos
##cual
##inacion
chico
Unión
1814
bóveda
##gonz
porta
pesso
capitulación
Biblioteca
sinies
ejemplos
by
ciendo
contrato
##cien
##cialidad
franqueza
Amazonas
##ánica
mezcla
preciosas
Caserío
pagca
vigilancia
##íb
División
HISTÓRICO
pendientes
##imes
1S
benefici
##isis
infelices
##ipa
conventos
invent
acabamos
introducir
revela
apóst
##enses
Republica
##chaba
hilo
##monios
Arroyo
Cervantes
compas
apel
escritura
##vino
conferencia
francis
novela
##let
opul
Vergara
dejamos
defin
##ciosas
estraordin
ole
##GOS
compro
afortun
bell
considerado
seca
exi
activa
Urquiza
SOBRE
Vigo
##ARIO
Dom
Prado
metales
balas
Villanueva
blas
abon
vergüenza
##izacion
direcciones
##gantes
infam
contribución
dadas
recuerda
nombrados
Caballero
negras
oposicion
mapa
alrededores
esces
fat
sintió
prefi
profesión
conspiración
sufrió
imponer
imi
gusta
Gracias
reducida
regresó
Adu
repos
audi
ducados
##ciencia
empero
morada
Sober
##inamente
##gulos
tinieblas
jas
ret
tenor
pastos
geral
cubre
aflig
OB
necesitan
oración
elegido
fatigas
miraba
pagan
prelado
sirvi
tinha
rá
supe
emplear
prendas
cómp
traído
centavos
dre
yan
##IÓN
oprim
encontrarse
actuales
engrande
infun
Fue
encamin
competencia
horizon
fez
diab
##guila
conservado
bara
oli
bail
Velasco
Hall
Puno
##ERS
fresco
húme
##gaz
esclavo
extraña
tesoros
chilenos
esperan
procurador
sargento
chi
Paso
sepulc
##tiese
querida
primitivo
ayun
145
##jano
convin
ib
pez
Viv
Cono
empa
conoció
JUAN
trinch
gobernar
##éndome
adentro
conflu
##CIAS
Tex
quieres
Gobier
adivin
estuviese
Luna
TI
extraordinaria
cantidades
RES
cajas
Colón
Ramírez
acusa
parlam
quinto
##ragio
Eduardo
##elia
decimos
reson
puntu
palos
##áron
##cinas
atencion
Ore
enl
clás
inútiles
Bos
septentri
novel
ani
emprendió
indifer
muere
inferiores
Bio
gem
101
hin
##tísimo
susci
grand
rápida
Diputados
Llegó
Cañ
simul
JOS
Rem
damos
##tuosos
Barra
referida
##ao
##UL
desin
pérdidas
conh
Cartago
cenizas
146
inmig
orgullos
judíos
prolong
salvación
embria
intrig
Ellos
Riva
ásp
##mien
cerrado
coin
1871
cabecera
diente
ponga
inspira
cuánto
defectos
considerarse
Durango
Casi
Federico
##eri
Pampl
bille
facilitar
##bios
deba
1830
PROVIN
esclar
veían
ceñ
Justo
parque
bancos
negociaciones
Hernández
casualidad
bi
##EB
indul
insurrectos
decis
ochocientos
puramente
fg
chileno
aspiraciones
atravesar
Tab
bord
porém
rat
creencia
pidi
formaron
asistencia
regresar
gro
cuatrocientos
humanas
##iller
cim
##há
faldas
1821
Náp
Vuel
##edic
hipo
representan
hués
##cima
tomaba
palacios
##eu
Oficial
católicos
##mpa
##ribuido
medicina
periodo
muched
Joaquin
Tun
esen
##ómetro
##allo
manto
techo
Comen
arbitrio
Trujillo
maneras
frió
lust
##TON
##iedades
plie
fisonomía
##old
##bao
barco
Cabrera
borde
DOM
repuso
retirado
despotismo
oye
##onía
interme
##ENA
discursos
Tanto
máquinas
verdu
costos
llegaban
inaugu
Luz
outras
escuchar
alcanzó
Nápoles
##irá
escándalo
insu
##RIL
##yr
procedimiento
##úp
pasaban
entregado
Memoria
tán
cep
Espíritu
acordado
Mina
celos
pór
providencia
alterna
enérg
##dín
parale
##uér
planos
Pela
articulo
homena
espontán
ferv
##háo
##zaro
105
perfecto
moderno
uniforme
láp
##cili
primor
##drán
firmeza
Tin
with
##zcan
quasi
morales
##viles
garanti
naran
municipales
dibujo
Leo
##gén
##orca
sube
situa
preparado
desempeñar
Mano
constituir
agar
##ismos
##iscos
escaso
crisis
tudo
fincas
Guadal
Maldonado
infinito
Tib
rado
##idu
##istos
párrafo
Teresa
##ive
pouco
##jena
##tría
hech
formidable
##roga
almo
##ural
compan
preciosos
##gador
desvent
Roca
superioridad
cado
##aje
##éron
##ortuna
valer
artifici
rab
senda
centen
Mand
Será
Sam
##usal
108
situacion
jor
mani
eclesiásticos
dirá
regulares
expul
contando
desembo
estén
Monitor
SS
queja
algua
dejaban
##CAN
solar
Gibraltar
sano
dispuestos
##aldad
##bó
sostenido
PI
acum
linea
memorable
Fir
Campos
##mel
##hil
##NA
Hombre
##gable
ultimo
TER
##ei
outra
legiti
Vizcaya
idén
Espinosa
publi
##ZO
##anci
Inca
toro
pedazo
Ler
Sucre
Camb
Temp
##lom
cía
##dés
##clo
majestad
##ficado
##mer
##ezco
existia
veras
cuerda
apariencia
gradu
##ód
batir
vezes
respetar
Morelos
gunos
Margarita
##diéndose
Pes
##tinas
caudillos
Márquez
potencias
ordinarios
funcionarios
fértil
##nan
conm
noventa
bil
POLÍ
curas
indiferencia
estrella
goza
republicano
criminales
##gamente
joyas
determinación
duer
abras
Campeche
AT
jos
sabes
honrad
atrevido
oculta
Museo
Lá
nn
canónigo
ná
subió
piloto
hoje
trajes
amado
cereb
deno
andaba
hallamos
echado
econom
célebres
##mago
plena
arrojar
fenómeno
tac
murieron
##quino
depósitos
enseñar
luchar
Javier
Rodrig
2o
ciego
##ñando
##elio
Paulo
industrial
resu
anteriormente
Holanda
cú
##jent
restitu
mió
desagrad
perseguir
ARGENT
Cay
impresiones
puñal
##monos
##nar
diremos
Orte
##embras
medias
##guien
desarroll
considerables
conversa
estand
rededor
perdón
crecido
senado
Tampoco
##didades
##quetes
And
anteces
trecho
difunto
cubr
narración
Cé
Cru
Pron
##ítico
personalmente
responde
Dí
risa
estab
puentes
muebles
abad
tela
codicia
##ved
Segu
inevit
católico
tranquila
Iz
Jalapa
fachada
insol
labores
CONQU
procurar
Cala
sic
##orum
##ione
esperaban
arres
republicanos
huéspe
Hues
Espe
demuestra
Donde
##zi
##RAL
128
tributarios
Atlántico
convenientes
relativa
tonces
##sáo
traidores
cham
médicos
milagros
##rete
barcos
simples
Pacheco
perfección
##asa
símb
magnífica
mino
Maz
Pregun
Melchor
mín
##tándole
llanos
Edi
repi
Luisa
dans
aplausos
Guardia
##ñedo
102
deje
haver
vulgo
comisionado
sud
obligaciones
##tenci
conceptos
predo
Marques
aires
paño
descendientes
##quilla
descal
aplica
carros
interino
##gresos
escasez
Cis
##ánico
luchas
varia
prodig
describir
Jiménez
##anta
formaba
Ponce
Pamplona
##yecto
ayudante
tráfico
##reto
paja
libertades
extiende
manio
condujo
##OMB
carretera
##cucho
##mentar
musul
Inés
poblado
destinada
COMP
victorias
America
llamas
establecida
impu
pureza
situados
Saa
1812
##triz
Vaya
ídolos
##gá
anal
mande
Reales
Toro
Gen
IS
##ciación
repara
##tires
incul
divin
nacer
##cacion
Asturias
blos
##lot
medal
interiores
distingue
contribuciones
replicó
ball
##hn
##cian
jura
arrancar
Cri
caliente
decretos
##YA
hacemos
propósitos
sucesivo
gallar
PED
lhes
##dri
104
Lérida
144
distinto
ligero
##uevas
atribuir
concedido
asust
Institu
indudable
Bib
Ren
esci
Espa
haberlo
fatiga
apare
armado
miembro
lio
encargó
posesiones
Asunción
griego
Ceb
MAD
meros
##eracion
cosecha
##vores
dudas
##curso
desenvol
postr
DOCUMENTOS
instancia
temores
organizar
condenado
revolucionario
Brazil
Corrientes
Ze
alegres
Lerdo
pido
##pac
Caj
Valde
construcciones
exacto
orejas
##orno
entretanto
arroz
cazadores
Ques
jul
nel
sep
plá
concent
Cul
##titudes
esfera
Jefes
preparar
ocultar
##racia
mercedes
irres
familiar
ángulo
Tacu
Cuerpo
refieren
entraba
existían
exclusivamente
tía
CALLE
indudablemente
##ciso
Rei
criol
paisanos
aldeas
maestre
llorar
Constantino
107
borra
haría
elevadas
solas
fraile
##ae
##unes
opuesta
tripu
141
descubre
vanidad
hac
##ianas
tablas
crueldad
##tificación
RA
mutu
envidia
determina
inmediatos
parajes
132
privado
lagos
memorias
Tales
##reas
resi
colocó
##atoria
infame
explor
cuadra
evit
convertir
bienestar
méritos
enfrente
##ruecos
Minas
##guida
augu
sentía
pronta
resultó
europea
electoral
vivi
Aguirre
reflexiones
REVOLUCIÓN
##EI
##crita
brillo
benef
solución
Anca
bote
Tucuman
vende
##peras
colonial
inhabit
til
estábamos
criterio
##cinco
índole
frecuentemente
Pil
desear
figurar
detenido
presta
traen
ansí
Él
Chan
vueltas
guiente
##QUI
restablecer
Coa
112
pensando
dei
casado
Monter
jer
desampar
Merced
enm
##ampo
##logo
##endidos
dr
habi
entab
visible
##ridas
##selo
comodidad
puntas
##uarte
resguar
lonj
rra
121
penetra
Iba
debieron
legítimo
Ves
desma
leve
elegir
atraviesa
sabiendo
##tesis
Bis
##ump
contado
ponía
103
convencido
baterías
probado
apreciar
carab
insurgentes
Gefe
##ali
ator
was
rada
quedo
##lava
batería
perjudi
##ustos
poblar
##grafos
hier
##zes
##emen
publicada
filos
reparar
conformidad
109
1860
decadencia
fant
corresponden
guas
robo
Escuela
comitiva
cementerio
Pur
##dicación
esenci
capítulos
Natural
##enada
ini
##quist
acabo
entendimiento
contraste
##tista
paj
Jas
uo
Batall
pensa
##cum
##cionarios
##uró
tomada
ponder
servia
adorno
débiles
vencedores
dirigirse
permanencia
Ix
debiera
numeroso
Ayacucho
Pl
##tano
parroquial
nando
##cedo
##mió
desgraciada
Confederación
sangrienta
Sco
Cáceres
##tú
oj
conquistador
Escob
##bras
curar
perlas
133
##uth
dividido
veian
content
epid
concluyó
Vida
##ullo
##SO
hura
##íl
##guo
126
primavera
posteridad
tino
##ertos
Siendo
propiamente
risue
fino
segundos
profesor
TEA
carece
Alh
##quero
huyendo
confesar
Vene
Gri
propone
cuarteles
##erios
##alación
merecido
véase
lagunas
creado
instantes
pelas
##tora
##tella
arrastr
Tlax
baños
agente
138
Ricardo
distancias
confies
hábitos
cariños
lav
corría
confiado
##ivio
vaso
tratando
secretos
##TIN
Cad
Humb
tamente
197
comenzado
tonel
resign
corrió
infierno
introducción
Gir
estará
revesti
individual
selva
ut
abuso
##EROS
camisa
1808
##raciones
quales
concierto
pájaros
advier
Carol
ident
##valo
106
Sarmiento
Sue
Condes
expuesto
llanto
preparativos
Bus
TRA
##ée
titulado
tenaz
guerrero
ilha
Administración
##ilia
venian
preguntar
##ÉS
deplor
vestir
coch
tardó
franca
Creo
democr
tib
amarillo
distinta
dependencia
conservador
peligroso
pares
##atamente
estava
Inter
Instru
124
vuelven
1862
apellido
egip
jus
electores
##ignación
advir
Excel
cuchillo
Vit
bian
##bit
sabor
suspender
ates
repre
haberle
115
fray
emplea
presidio
Clemente
##vío
##ulla
vecina
inutil
Tala
tica
diligencias
bull
nut
##cías
pacto
maltra
ILUST
##pil
sumo
leña
nube
eje
##alle
leche
##endieron
135
ordinaria
ilusiones
##gir
problema
##tiéndose
regu
prosa
amen
pescado
reglam
exige
entrañas
taban
tabla
toria
ocurrir
##enz
habitu
trozos
subst
1813
caido
mah
escel
copa
jardín
##JICO
##minis
argentino
##UCA
Encar
orador
fugi
rehus
Hubo
quieran
cantón
indignación
cial
tud
##uación
Correo
Castell
Agustin
responsable
melancó
cena
##diciones
santuario
COS
sill
Tir
hem
decirle
barca
haciéndose
editor
##UELA
Ebro
123
ocurre
contienen
aloj
01
dedo
alcanzado
alférez
##jia
presto
citados
heroica
palma
##adra
garantía
fantást
gir
servían
refres
PRIM
ñor
parciales
137
encanto
incesante
Ima
fervor
mete
caida
escuadrón
bolsillo
historias
Abad
Oribe
Coro
humanos
1850
TOR
ceb
moro
viage
dulz
apoderó
aposento
Piedra
loa
salones
##diós
americanas
campes
##inoso
bastar
atenciones
lienzo
evacu
Lara
falsa
perfum
iniciativa
Bilbao
TA
interro
márgenes
##ciano
coment
inmensos
recompensa
Ortega
##veis
grano
Chia
hiciesen
institución
funes
alcázar
estragos
sínt
##vimos
enre
Argel
denunci
vor
retar
##éndice
Vill
ladrones
##TÁN
palm
Muchas
elocuencia
alber
impuestos
signo
##üe
intern
bravo
MÉJICO
huellas
##dil
Pot
apesar
##viar
capricho
asign
armamento
clérigos
rúst
Ancachs
Acaso
##EC
##hue
seg
riberas
argumento
crear
seguían
entradas
sagrados
rena
ped
bergantín
entro
guardias
alemanes
alumnos
vín
##hum
Pereira
acusado
Tejas
flota
Hijo
##ius
Sea
Juárez
volumen
pasaje
secreta
DA
##idar
adh
precisa
Diez
Crón
Usted
##ht
cong
gritó
##quilib
##3o
ordenado
acabado
atr
##ents
monjas
democra
##cea
##RADO
muelle
pretesto
Manoel
##ifi
Parte
escribía
##ixo
suscrib
##idencial
procedimientos
disol
Noti
##ENTA
pantanos
##rei
##efa
domici
candidatura
bailes
trance
impreso
inunda
abne
procurando
reacción
Cua
tec
traía
asesinato
lego
coger
guia
penetr
assi
Relaciones
miles
Caci
reciente
139
anuales
vna
ordem
convier
banquete
foto
1822
determinar
##uales
##erario
aber
131
astu
Mata
trasladó
134
descansar
selvas
cristianismo
##tib
pecado
yerba
muchedumbre
##aga
1811
depar
Esco
francesas
dedicado
tuviesen
vivido
later
##derse
ofi
Algunas
Sici
##torios
trom
categor
##gens
##pero
firmado
brus
greso
volcán
##hao
yes
##ee
estó
conducto
142
esplica
Artes
temeros
##ástima
Martinez
yá
coloca
129
##ERNO
censo
##ALI
suelto
ada
roto
hazañas
delin
Valdés
114
Jerusal
hombro
cometer
indicar
rol
esque
pour
abus
Cauca
##ser
##adilla
##isca
cargar
##ARES
remitir
Dicen
##barra
curiosos
Mall
RIO
dha
Segura
1857
libra
fórm
##pano
HISTÓRICAS
Bru
lentamente
medic
##urgo
varón
cobar
NACION
Op
##uni
decidió
127
amenazas
promesa
cata
Poniente
distinguidos
audacia
Eul
##undos
Media
Cele
adoptar
##COS
##ICOS
136
contraria
##wa
pabellón
Tara
mén
##entre
##rosos
destierro
agres
##eler
US
Marruecos
canales
mandaron
veinticinco
Comercio
temper
desgraciados
milagro
órgano
comisario
descubrimientos
reloj
Méndez
pio
pesetas
TOMO
incidente
señala
intelectual
listas
diesen
ana
regalo
dimensiones
Ita
bit
##tto
##jante
justamente
ist
garan
Municipalidad
##váo
marinos
Compan
mejoras
estraño
resumen
coleg
##deste
##ipotenci
##cy
##udio
adoptado
Liniers
dotes
entreten
Adri
Constitucion
GEOG
leales
Lugar
119
Chaco
##jin
hable
miel
conspir
Buen
Vds
congre
proced
mataron
ecs
engaño
##uérf
conservadores
admirar
campe
Mariscal
atento
Memorias
suprim
dominar
Entretanto
desempeño
Suiza
##ind
enemigas
italiano
restantes
autos
##tífice
efectivamente
Nuñez
madrugada
Cuatro
Imperial
inmediatas
APÉ
ceremonias
Dor
bab
vistas
##igno
verlo
aproxima
libremente
nad
deso
##ímetros
##pación
##ezcan
##trase
##polit
esmero
edades
pleito
##piélago
##iduría
Bolivar
bía
és
##JA
##erno
popula
inmensas
cimiento
Ass
122
cayeron
cientos
comercial
Sando
##óla
discordia
##heiro
demostrado
teatros
pend
rante
##uil
despecho
##hol
perso
##rasen
carril
cuartos
riach
cív
encontré
afirmar
arauc
Casta
##ato
Medio
navega
lea
anos
niente
autorizado
Ray
fuimos
##cimo
##uita
dog
cobrar
octa
ende
##bítero
##rac
teníamos
caras
decoro
guberna
##áles
completar
duración
Padres
Zar
saco
Chac
Procur
intér
exigencias
Moc
fina
gram
##ástro
elevados
consultar
##ango
##chen
regidores
CASA
reflexion
eo
##tariamente
permitió
rodean
resent
manifestaciones
campana
perspec
isso
politica
pav
incomo
reconoc
##icie
intelij
##adera
##joz
bajó
enseña
entrevista
##iguiendo
##onos
colina
estri
##pelo
pelear
##Ã³
hipó
almacenes
##ceo
antemano
magistrados
definitiva
aplaudi
apercib
##uces
interven
campanas
Pompe
##ken
##INO
dirijió
definitivamente
desb
monedas
Islas
galería
tuvimos
##VE
##minio
literaria
AG
Apos
isto
lazo
##posiciones
empezar
##umbres
##ónicas
113
sepultura
descans
Gue
paiz
impri
violenta
ovejas
Pens
esperiencia
118
##allar
propuesta
comedias
equipa
##gou
Corn
colocada
rápido
relieve
avi
guir
puestas
SANTA
Vier
corn
creí
decidir
indemn
filosó
##domo
mance
procuró
flam
foram
trab
##gne
declaraciones
Situ
143
alguien
carnes
aparición
acompaña
altares
Soc
air
##eméri
vengar
talla
arrojó
pertenecía
perteneciente
BO
torr
revista
##ÍN
##03
valen
leyenda
reconoce
Jacin
reducidos
Ed
##reno
1817
arrepent
Belg
Gab
##ear
arrojo
visitas
sucesión
mendi
##pica
trage
servidor
estimación
one
##lota
leido
pasto
Magal
##usion
Revista
facilit
XL
lom
potencia
Def
princesa
1824
eminente
procura
cis
##pam
considerando
simpatías
ARGENTINA
Bada
##icencia
privada
chan
decor
Serv
impresion
##mados
Lavalle
poblada
componía
facciones
precauciones
instin
117
conquistar
placeres
NUEVA
latina
caen
leyó
muitos
distribución
##cimos
descrip
cuadras
sospechos
Calleja
ler
##RÁ
vayan
existentes
lanzó
1859
fenómenos
ges
caudales
pagado
##metro
116
1847
juicios
asesin
deh
Esos
cerrada
incomp
dirigía
CAM
haré
oscura
desconfianza
Arias
obli
chu
conociendo
recibiendo
juegos
MEMO
##yese
Según
##adavia
metido
terres
espantosa
Ron
YUCA
data
Castellan
##árs
cs
hig
oidor
##ueve
dud
ed
nosso
convencer
comisiones
semi
causar
lecciones
evidencia
##quido
pienso
1848
##IF
##rs
##dom
repeti
pulgadas
aguardiente
Soria
conve
escultura
caído
caro
tira
Canarias
desarrol
aplauso
lis
Chica
Juar
subde
Victor
imitar
Jesus
retiro
rompió
resplande
Ocu
##vara
sucesores
estuviera
privileg
##já
corres
simplemente
##xtepec
cargado
verdades
rigu
referidos
celebra
úl
cedió
##huacan
socorrer
BE
Trist
degol
castillos
conocemos
Arre
sorprender
##geles
defecto
debería
atribuciones
retratos
esqui
toque
envidi
desembarco
##DES
##oble
cofrad
peligrosa
imponente
tendencias
concede
##DIOS
consulta
duelo
cuero
##tuosas
##atriz
Archivo
##itarios
llamadas
##ERTO
localidad
Lab
OR
física
PLATA
##tti
##tolo
estero
reser
Pascual
exigir
Magist
Pobre
Aduana
##ivi
##eña
migo
distantes
tributos
desesperación
##MAN
repiti
Char
##dilleras
XXV
economía
limosna
imb
ridad
von
cacao
tome
temiendo
##ragona
bárbaro
gi
comido
atentado
ridículo
censura
víspera
habrán
Córdova
deshon
##atan
##ivel
atacado
dividida
espresion
inflam
recel
corrido
Acos
costo
madres
sobra
contesta
##ístico
discípulos
Dió
MI
##iertamente
continuamente
epie
confluencia
proxim
relativos
avia
biblioteca
##tificado
concesión
fum
##camos
##MOS
##fal
recí
Saavedra
Wil
Recib
continuaba
sueltos
soberanos
soberbia
##laban
##fil
##icanos
estro
pelea
derrotado
fertil
apete
ofer
##dimos
talentos
##árqu
Murió
conclusión
diócesis
aclar
delicado
creían
testamento
descuido
ilustración
aumenta
difíciles
grat
Evangelio
hur
##nio
AC
##atlan
acero
tratan
amantes
levantan
Patri
campi
gobernación
##ctur
echando
cámaras
unirse
Antio
viniendo
defenderse
cn
crue
miró
##oló
anuncia
tivo
Cum
angos
gober
respectivo
narices
Hom
SAL
##pá
quier
Escal
claustro
catástro
sereno
trozo
eb
coa
term
persever
BI
##ct
reele
anchura
nauf
europeo
fundamental
Vin
##radores
carica
esencial
dirigiéndose
mandato
dijimos
Belgrano
impun
Conven
reglamento
Fueron
##dentes
provechos
agregar
habiéndo
linda
episco
##abilidades
loca
barrios
Salta
##ERAS
accidentes
estall
trasmi
situadas
Diputado
dante
lord
##BO
anex
St
celes
##iéramos
exquis
preval
desha
##RID
elegantes
colocados
despertar
intrigas
importe
Tarragona
desdich
##cles
cálculo
##uito
cabello
anchas
hacerla
sospecha
##coa
##itaria
Sonora
defensor
Viejo
tun
tró
Capilla
exceso
fortificaciones
Ou
nul
Soy
limpia
canta
convenir
vasos
vivían
demand
retiraron
eclesiástica
mentira
miserables
##éa
enco
infi
despojos
##ILL
sustancia
##pada
misericordia
tación
correos
alemán
notorio
tocó
creencias
herman
derre
calumn
##tom
##ñón
diendo
##rana
Bernal
##GUAY
hogares
odios
##ecia
majes
Recu
##parable
muerta
1825
Dere
expresado
episo
suici
hermanas
relativas
SIGLO
Eulalia
Cur
##orial
veros
manejo
integridad
resal
cambios
pantal
##trico
Tambien
rales
##entaban
Caz
principe
1863
cómplic
comprob
repúblicas
##legado
acercarse
procurado
explicar
regocijo
sana
ane
Améri
garganta
tencia
exis
##renda
sostiene
abandonó
admira
raras
portugués
falleció
Superior
imágenes
caída
prior
cocina
##ésemos
1815
1864
honradez
exposición
adic
concurrir
QUI
mim
##vala
ejue
##álisis
Huesca
MEMORIAS
viz
Mondo
liga
desist
bailar
sabiduría
funesto
descubierta
harán
llave
ANTI
sirviendo
avisos
servidumbre
##zu
##ont
##viado
viéndose
gris
municipio
premi
invasores
##bes
##rom
##uss
Godo
ESP
##rov
tendo
aceptó
##entísimo
quita
atraer
ternura
dous
policia
acusación
##zuma
verbo
raciones
reclu
moralidad
patente
##bole
depende
martirio
nador
##ctivo
##ker
uns
traia
señalar
nacionalidad
##pina
##inamarca
##verio
fana
##curio
exponer
ofreciendo
refugi
unán
elegancia
deberá
Cama
Vos
##letos
estrem
Sos
sexos
feligres
figuran
Docu
modifica
conje
##tiera
##iba
declarando
verle
vivía
Narva
cerebro
lazos
Peru
pintado
lance
Mediterráneo
##gs
##gón
reñ
digan
infl
bocas
##dona
biendo
jén
##tentes
alaban
##eroa
realista
escrip
Gener
inmort
Orientales
colegas
Urb
##itz
Produ
hicimos
virgen
ménos
##ament
##derez
Franco
Vela
CUBA
prevenido
##ijo
ordena
gota
hospitales
##yán
##imien
honrados
reconoció
delicad
rre
xv
desór
locura
milla
duras
##éndolos
DIA
Sent
dinas
tria
##tarlo
ocuparon
##gráficos
CONQUISTA
##uria
extensa
##ucar
Dej
cantos
##jares
Arist
fueros
Convento
cóm
injusticia
bestias
Ace
##atra
1852
extremos
Muerte
feste
ecli
ESPAÑA
sado
##onga
reedi
tex
Oficiales
##poración
desiertos
##anova
pechos
jugar
instinto
recibo
administrador
setecientos
##izaron
breves
violento
##fan
Lagos
##rosas
señas
librar
destruido
##piran
continuas
sumas
regia
sorprendido
PROVINCIA
aniqui
##igáo
##poca
Castel
Monti
1828
Termin
passa
salían
Salva
relato
misterioso
Hizo
##peta
Tratado
manifestación
Vázquez
HE
##abria
arque
jueves
pastores
Parro
##portes
lograron
denominación
Bél
##ticar
alz
ció
##ciar
cardenal
Dese
serenidad
Sandoval
cli
1869
simb
equilib
##quitos
bata
##questa
erario
##REC
##uas
noctur
arroja
##tions
ítem
##ats
votar
arrobas
fantasía
##andes
constitucionales
##íg
levantarse
mártires
salía
ordenanzas
formados
reconoci
profundas
combinación
reliquias
PAS
desh
totalmente
BUEN
palp
peruanos
##icar
anhe
pedes
tesorero
concluye
limpio
comparación
Narvaez
obreros
Salas
inquietud
##cándose
temple
RELA
informado
escasos
Suprema
rango
desbar
posibles
irse
Abo
##picio
fals
convul
1865
Bue
##onales
prestó
torrente
Tec
estatura
Estrada
Escri
Lucía
1868
tribuna
anualmente
cigar
nacen
volvía
Isidro
barbarie
Bona
##ecimientos
jac
oidores
paro
refi
##yentes
Guzmán
eon
Comon
heroico
chinos
hallo
lus
semanas
alist
infancia
andaban
cruzar
Iglesias
pompa
NUMERO
Michoacan
estandarte
recípro
sien
##quim
insectos
llegase
mortales
salvado
negó
conferencias
##jenas
##rena
Salinas
Elvira
gobernantes
1879
vecindad
GOBI
PEDRO
##tay
meta
##iena
merecer
magistrado
nía
##tic
encargados
generosa
dignas
ampar
ruego
excu
cocin
molesti
sencillez
##istía
anhel
Berm
inocentes
fragmentos
mercancías
tendencia
Comun
Cesar
ile
cabeci
##ARRA
existía
Jerez
##áyo
cond
secciones
viejas
ESTADO
esterior
redo
excur
referencia
generosidad
Autor
consagrado
Mam
PUE
sable
##jil
mud
elevar
facción
POLÍTICA
ka
serpi
canon
contaban
importan
##ificencia
labranza
1846
izquierdo
forzoso
decian
Pocos
intentar
1833
oculto
primeiro
ved
pasadas
1858
práctico
MADRID
Badajoz
plazuela
apoderado
acia
##vando
##timas
##lamiento
funesta
Mercedes
Austral
ORI
iné
llevo
Relación
tendrán
subsistencia
afuera
bellos
##IVERS
admit
mejorar
antepas
Español
britán
demostraciones
secu
roja
Sup
guía
acordar
bastan
frecuente
azote
Nú
telas
proteger
territorial
##uve
##PO
competente
Alberto
Quijo
asegurado
tirar
inclinación
hácia
Intendente
Hur
mada
##jente
lección
galle
Prusia
##gráficas
sospechas
##GUA
vecinas
MUNDO
colosal
alhajas
Quir
##ñor
severa
##idado
##urada
furia
fortalezas
Eugen
agrega
Pinto
ROS
##jir
Indu
adecu
generaciones
1845
REPÚ
fó
federación
##entarse
##lacion
##itorio
luto
cobarde
vado
##ibre
sumer
horrores
consideraba
turba
fresca
perpetua
fieras
Otras
1840
remediar
brevedad
dimin
##culas
##queros
dulzura
inse
##utla
fasti
Instituto
ño
##UES
##icha
##idero
##ombra
pintar
##só
perjudic
vivió
May
Alvaro
ló
rosas
##obe
león
jugue
ponían
usado
enviados
Já
locales
##itada
##ructu
cansan
##huac
Tolu
precedente
desaho
respetables
rechazar
Has
unida
unidas
impone
1855
Palmas
poseer
espadas
Legisla
peces
severo
Saint
astron
desfil
tierna
establecerse
criatura
septentrional
##ércoles
gozo
reunieron
terminada
aprender
insignificante
lú
andando
Pagca
Borb
Finalmente
##adi
dix
meio
Vice
1819
maravillas
permitía
GOBIERNO
nacio
marino
dato
duques
delicada
aborre
confe
prometido
cuadradas
docena
aventuras
clérigo
ae
##TRE
politi
Estable
Consul
inocencia
piratas
oríjen
##ócra
##ORN
huérf
##ánzos
veje
Capitu
viernes
intérpre
parezca
##iete
Juzg
subido
resultar
ls
##BE
pasamos
SEGUN
Mallorca
##rem
hubieron
Lucas
ruidos
Canal
pronunciado
primitivos
disputa
eficacia
##fio
señorío
sis
##leros
##vemente
##endar
unir
legu
opres
prácticas
vacío
persuadir
Unos
##demos
rector
destacamento
##rego
##amoros
aparente
próximamente
##ímil
##teniente
hotel
pleno
1867
totalidad
limites
desnudos
MONTE
##cay
ach
marchas
Nacion
Reco
tocaba
sabían
cambiado
alimentos
Ambros
Todavía
Juarez
##pres
nossa
estrech
Villaf
##verse
Cau
rodeada
modesto
05
##cama
ansi
pern
bían
arzobis
vacas
vertientes
amable
recientemente
reunidas
envuelto
CIU
Oca
##mio
acaban
verdaderas
##berg
arries
destreza
Pel
bran
##ulado
natura
mandada
indígena
filósofo
convenia
cauce
ranch
promul
Apu
piden
indirec
poseía
##DEP
Bara
hospe
Tenemos
practicar
exag
Batallón
amos
##ose
movi
costó
repito
tormento
escritas
##TECA
235
gato
Santísima
síntomas
loma
monar
principi
Morro
precisión
ingenieros
provisional
estómago
##erias
##esse
retor
##chin
cumbres
Huer
Caro
ofens
cronista
posesion
terremo
tada
esencia
pariente
##ité
prelados
vientre
adelantos
1816
diploma
culpable
símbolo
grato
instancias
Patr
Ayer
expediciones
Rodriguez
inevitable
Jacinto
gus
##ámos
comenzaba
acostumbrado
apreciable
estabele
brasil
my
pati
cielos
sirvieron
APÉNDICE
desgar
##ceb
dicta
Quiroga
Humbold
##lán
conversión
Crónica
tipos
india
##aloa
oídos
Agü
Bár
##ámb
accidente
contentos
##ADAS
Edad
varon
lleve
homens
##tona
comunmente
bravos
radical
escrupulos
Beatriz
Rivadavia
telé
ph
perdieron
valeroso
Mala
perecer
sublevación
##zamos
ami
memb
reúne
favorecer
usaban
Ville
convoy
hablo
verla
Mah
ocupando
mencionada
##rara
##ídas
Bernard
vdes
dera
##aderas
1818
construida
turno
1836
afirm
##itudes
fundo
verificado
##cle
fallo
indispensables
seña
recomenda
millón
bóvedas
reto
med
1854
firmó
huerta
##uit
demarca
formarse
Valen
avanzada
gruesa
Cano
##GUE
##timiento
Conclu
venden
Bey
bul
dictador
ondas
ángel
Sacramento
##RAFÍA
false
Amor
##dolfo
auxiliares
entiendo
abun
cintura
favorables
difun
beneméri
proponer
tendremos
##vieran
inim
dilu
sit
pieles
órden
renunciar
Sicilia
03
##ki
##lace
forme
Ingen
conquistado
Hac
Boca
profundos
aventa
redactor
Fuera
carbon
Quijote
sat
##cam
##vano
##erón
tocado
esplo
trataron
excepto
embos
soberana
observó
##sor
##cete
##dese
diámetro
Ka
beso
tla
Chilo
pasajeros
INDEP
mejicano
perjuicios
bir
##sela
##pote
Portales
sueños
Decreto
##FICI
desalo
1880
cálculos
adhesión
Comb
gún
##josa
oraciones
elogios
crueles
##mal
inno
miran
dictadura
ángulos
curiosa
##nato
Perez
correspondía
dependen
bautismo
advierte
##sol
##neros
Monas
afición
extraordinarias
190
estranjeros
monopol
Oficio
enven
##cenas
recorrido
atribuye
excelentes
Mitre
sell
espejo
meridiano
cional
vergonz
llego
auia
pretensión
amenaz
atroz
universo
##trica
detes
##ert
##cese
tiranos
Continu
acon
##quillo
vej
tormenta
1856
suelta
componían
veneración
##hual
bolivi
deve
Chim
ropas
elogio
yerbas
3o
##aras
##cuaro
##landa
presentaban
deseando
Nuestros
azules
Mejía
Yn
crece
##tinos
desgraciadamente
castellana
escepcion
##onado
puri
recibidos
pronunció
vicario
Estoy
##rést
localidades
Caba
desol
Ald
escomb
tareas
ocupados
Tabas
##vaba
cors
marea
Desa
astro
quedará
JOSÉ
dida
cación
DEF
mesas
procede
pierden
Chihua
Voy
respectiva
fomento
perpetuo
cro
pierna
inscripciones
parlament
Quesada
pp
Marco
Indi
maravilla
abunda
Reda
231
Canaria
divisoria
canoa
ídolo
observancia
mora
sufre
contornos
Tá
azar
Cuad
Humboldt
Tlal
##cher
montan
plus
Villas
choque
vestigios
rodea
burla
desastros
Bea
##gria
encen
herencia
Quevedo
Pardo
levantaron
penin
dispone
catedr
COLO
corporación
Víctor
categoría
Espar
agrado
fijado
manifestando
##dosa
amarilla
idola
Sto
##itamente
caserío
##irez
Segundo
concilio
absurdo
vib
mercados
233
remate
galo
##tiza
##cingo
Talca
Infante
##DUCCIÓN
tripulación
Cán
paragua
##obre
pru
##tang
cubren
##iasta
##ñones
firmar
alarm
alza
Verde
##tibles
Copia
modific
adversarios
mesti
anales
chal
extenso
elocuente
centenares
Tacuba
Fiscal
##gosa
faltó
##RÁF
Fab
mandados
felizmente
Cón
##hin
estacion
abiertas
##ganda
fuero
imposibilidad
diciéndole
Jerónimo
concebir
cooperación
##stancias
##cedi
distinguen
mostrado
senadores
ocupada
occidente
Militar
desastre
gentil
Dion
mien
prevenir
agita
INTRO
históricas
protestas
consistía
##ológico
pálido
Plin
##feras
comprendió
##OLES
algumas
##teos
##denas
Convención
Correg
ejecutado
1835
alguma
misterios
Fan
Hum
calcular
creyeron
fría
Matamoros
modestia
##vad
pertre
##alli
supieron
1837
Cris
seman
allan
estancias
fueren
afian
encerrado
pital
Betánzos
repitió
irresist
Luiz
##tosa
amada
##bajo
antiguamente
Alem
Gonzal
Comonfort
cle
##endidas
you
combati
Tajo
primeira
retroceder
devuel
sudor
pozo
1843
reservado
arbitr
Revolución
##hal
lunes
én
dial
cordilleras
trayendo
vuelva
jornadas
Represent
##redo
puse
interesados
1829
Cuartel
Cr
concre
remos
proli
INS
troncos
Toluca
serran
Manzan
1844
solicitar
##iche
amn
##endia
trabaja
relativamente
desapareció
parroquias
grandioso
plo
##uig
##uian
necesariamente
levantando
Sao
##abamba
coman
Caldas
titulada
Bes
Pros
rí
poema
inglesas
Gaceta
##tou
espir
muchacha
ANALES
bernador
YUCATÁN
##tistas
##guía
juro
embocadura
recibía
Valent
tregua
Estrecho
Here
nomin
##hó
estaciones
genero
avanzar
Brigadier
##vente
##CUR
##isten
coco
explicación
1832
cooper
Aguas
HI
##onio
##terios
Monf
Garay
##dilla
traían
sonido
justos
Orle
ciega
ayudar
triunfante
engañar
Municipal
manuscrito
darme
Amar
encab
audaz
paralelo
cif
##dasen
##ameda
Lec
##jándose
##ilios
cifra
##pañas
guerrillas
verdade
mató
Guan
Católica
TEATRO
Pern
incó
ciales
Algo
1853
prosiguió
aurora
suscep
Ref
Carras
##ársele
establecidos
centros
silenci
aduana
custodia
Venecia
Us
esperarse
despachó
requiere
quemar
arrab
exportación
Vista
##tigo
tremen
preparaba
yanke
Toma
##DAS
ardientes
Tepe
ingeniero
dello
##tasar
impla
recto
inspirado
feroces
intrép
st
##dones
##zer
##tat
conocían
Banda
Suar
pris
paseos
calabo
Uni
grabado
##gé
##jios
mandamos
900
##ks
##entaron
suspir
abiertos
Esm
cañon
socorros
Bélgica
tún
##ben
##ugh
1888
##grafia
júb
arcab
Cont
autorización
Ham
portada
Paula
ecu
##ibo
veneno
pacificación
premios
comerciante
Magallanes
nob
##urt
llegué
plante
ocuparse
avar
cueva
arbitrar
Mondoñedo
serra
##éndonos
sostuvo
conducía
confirm
mostraba
Muerto
Apo
##ondo
##enti
teoría
Patag
frust
atravesando
##jento
asientos
inmó
ROM
Pastor
Mosquera
crítico
perspectiva
ente
leído
Tabasco
oidos
arenos
goleta
contrad
Jaén
Tenia
gala
Abd
construyó
harina
dellas
perdiendo
tertu
Dul
##eralda
Tolosa
originales
convicción
desórdenes
desbarat
pia
rif
maquin
##CIS
demora
acudió
climas
Arauco
agricul
injen
intitu
confesión
defendido
resultas
afecciones
Licenciado
desigual
Cid
##jel
compre
empie
amenazaba
algum
Figueroa
detenerse
bea
##zal
##ciaciones
meu
andalu
compromiso
VA
quitó
##quidad
trar
##cismo
industrias
rebelde
##icismo
torrentes
cente
inso
mantas
peste
Salto
Duero
rincón
##fuer
logra
pronuncia
hicieran
210
Ferrol
Cres
cule
acercó
peninsul
Bul
pertur
##mosa
##vares
capitanía
pisto
##rit
desment
##quio
cartera
embo
reuniones
ínte
posteriormente
nados
entáo
espos
canas
vaca
continuando
Allende
##dam
morib
poblacion
enojo
abnegación
##adeo
##ienden
indefin
generación
epí
oportunamente
impaciencia
compasión
Lla
hones
##ñiga
inund
raz
Sole
embarcó
Ambrosio
##rima
bandos
cualesquiera
deliber
Ríos
Tez
Zo
despeda
denominado
corromp
Pun
gesti
Cuál
1866
representado
estéril
espantoso
embajador
Chihuahua
pavor
escra
baga
tropel
frio
sillas
CER
rabia
enn
##chit
matem
priva
carg
amaba
Paul
pidieron
severidad
hamb
##mones
emis
convenido
##ICAS
apertura
calumnia
Lázaro
FA
ñoles
##jam
tomadas
talvez
aquéllos
indicaciones
separarse
##dé
racional
proponía
viese
qualquer
Católicos
tiago
Tas
##como
estiende
literario
Rol
requis
margem
##INAS
echaron
Teruel
Emilio
vireinato
dable
qae
##rese
appar
goberna
monarcas
agru
peculiar
júbilo
eti
aspir
desple
##udadanos
##dicho
centímetros
empezado
multa
CIUDAD
iner
resca
conside
estuviesen
##bon
infor
##ENDENCIA
escombros
lástima
quedarse
acompañaban
fiz
notado
daría
##mediatamente
dragones
##ñeta
corral
animado
sombreros
océano
turbul
Plinio
mic
vér
##jese
visitado
preocupaciones
Scott
fria
##ára
##lejo
tratamiento
chim
inspiración
haciéndole
dirigieron
MEXICO
heredero
aficionados
fós
tenientes
escre
ciru
obligaron
Cerca
Cobos
trincheras
Sera
##orería
##abu
##cules
corresponder
resoluciones
terras
justas
gastar
transforma
sumisión
logar
infal
aseguran
1875
##ENTES
reclamaciones
cuent
traslación
molino
ingenios
huevos
dispersos
salga
raices
Monarca
vír
1876
exactamente
Pronto
Fron
tico
apri
sombrío
1827
Aure
##ulan
Respecto
consagra
traducción
doncella
##dices
buscaba
Lat
Vino
nav
disolución
capell
##coso
ponia
circul
destinadas
desastres
Wal
##jica
##ficil
llamando
grita
Braga
sábado
homenaje
crib
##iciosas
##ules
carca
Alcán
tomos
Roque
Prieto
democracia
temperamento
ímp
caf
##mase
350
##ólogo
magníficos
corrupción
abandonada
administracion
suscriciones
vías
juzga
tím
sinceridad
nera
analo
ticia
pesado
ilusión
tentativa
Jama
wa
##uran
##adillo
##itores
serían
entusiasta
apuntes
##eal
colonización
DOMIN
Sel
##rería
asci
casarse
posibilidad
##ixa
Acab
##EG
##ñon
Federal
modernas
caver
cabos
##ecidas
ejecutó
procedió
misteriosa
Basta
perseguido
##aros
comprendía
sustento
excesos
INTRODUCCIÓN
Huel
##IX
asper
muitas
Respon
sublevados
DOS
##CC
Sede
demol
Jueves
Form
atur
##led
teñ
instalación
##ERT
enlre
estás
ordenanza
encub
terminante
##ulipas
Soberano
haria
ál
##áculo
alivio
procedentes
Abra
ensenada
reinaba
salon
sofo
Barb
1826
asesino
dedicó
descontento
fiera
##ficamente
desconocida
Población
TOTAL
Lerma
pés
pesa
Colección
mártir
europeas
Padilla
##ENSA
##ambra
galerías
afectos
sólida
oponerse
uua
cortado
continú
Peral
pretendía
magnitud
aquélla
párro
Gall
tera
porto
meseta
ensal
antepasados
##die
##ceas
terior
1874
investigaciones
##jida
##dien
dit
pedr
Debe
pique
##valos
laureles
gla
##ónico
##olos
favores
empezaba
profesores
imitación
Gü
Mus
ZA
inquis
salto
##pulco
Camino
indepen
aumentado
line
##we
##tadora
ANTON
ilumin
norm
viera
##grar
Supon
##ciados
##tava
##terna
Quiz
domicilio
##torias
##inoco
hacerles
deseado
choz
##ológica
brasile
jub
mios
##urg
196
Almagro
##riese
##titlan
##ueste
##ury
disuel
##ifico
descol
1831
promover
##MIENTO
INDEPENDENCIA
02
##uin
##vían
acamp
voluntariamente
devolver
eh
mide
##plica
fruta
Álava
perdidos
amon
bastaba
Partido
horribles
##orios
escur
##dré
palmas
Roberto
penosa
hara
##vidas
Lorca
legislatura
##SI
partí
mari
cantando
fijó
raso
huestes
##zaga
espresa
poniéndose
viniese
solemnes
gunas
descender
##ác
prenda
caminar
montar
Chor
realización
ESTU
##estre
##isio
pou
cartu
valores
continuaron
oscure
Estamos
subdi
from
físico
bargo
##def
tendido
mozos
oportuna
ambicion
arrojado
##trero
Cuanto
transform
toneladas
actas
carpin
granito
##zase
Exposición
Sebastián
infinidad
cargados
cerco
reducción
funcionario
Chicago
catástrofe
##ises
formadas
1834
repetidos
monstruo
bajan
crónica
extranjera
mosa
cuen
indicada
hasla
Ste
pronunciar
fecun
zos
nova
##ibil
trayecto
campañas
mediodía
UNA
pañoles
manufac
##ik
volúm
establecidas
pertenecer
Tudela
simultán
##arra
##chados
melo
calzada
Cangas
infieles
herir
suficientemente
Ces
##organ
redi
comu
presbítero
##cillas
Hacia
Expe
##olog
##tta
parcial
traza
Mauri
feito
Apóst
recelo
Yu
##enga
acad
##urd
cautivos
aprobado
08
Cic
##vial
económico
Fun
ácido
##elho
imprimir
mare
falsos
##érico
disponía
soportar
Bahia
Ramirez
comunicar
brutal
arquitecto
enamorado
ox
cay
código
concejo
almor
delirio
defec
verb
salimos
decidida
malicia
Zavala
sentó
Desgra
ejercito
limitado
Vitoria
alojamiento
Fi
Mons
pretender
Orleans
Sara
##ciéndose
reu
saludo
##ants
velocidad
Australia
Agüero
motiv
##mbo
bate
quím
1842
Bernardino
hablamos
exteriores
doscientas
##figu
faculta
verificar
griega
Dónde
##rina
##íces
##abando
estin
compad
240
fuertemente
separados
conservaba
tranquilamente
arjent
##ONI
traspas
intentó
peruano
Núñez
Tamp
cra
##yer
##alas
##temos
aseme
Cuan
tardar
escudos
sujeta
pronunciamiento
cortos
##iesto
ocurren
1841
ejercicios
carnic
humedad
##idan
cui
hacerme
##colas
derramar
Huar
cayendo
##ánea
220
inhum
fanatismo
Gonzalez
Incas
Cuyo
cuidar
celesti
quietud
baño
mejora
seguinte
perderse
fosse
granad
Angel
triunfar
ostenta
tores
ésto
fim
##greja
significación
idiomas
delicadeza
##cuatro
##nación
capel
##ában
Orizaba
comprometer
consentimiento
secundar
alguacil
##lra
##dulas
invención
Inst
certeza
Ayres
penal
Serrano
concluida
sorte
estreme
limita
##inha
altamente
have
aband
contienda
Cisneros
Mesa
ero
##imi
poderosas
Fuentes
Concejo
Generales
cuándo
foras
cansado
Diccionario
geografía
Tesoro
jenerales
##ster
##reira
existente
onzas
empeñ
escuadrones
Loreto
increí
Hungria
giro
Comand
págs
esencialmente
sepulcros
Vivero
Reme
##sis
##tn
##TER
reb
##rane
casó
Compren
##daban
eléc
futura
Joan
rasgo
Resul
##volencia
Aquellos
AMERI
taron
##EDO
##usiones
##terías
contribuido
reduce
artístico
Flandes
ua
mandé
señaló
representaba
aplicar
ancianos
cumple
bloqueo
restit
guardan
famosos
nan
emprést
trabajado
gallo
enferma
concili
1838
Governador
##yun
##entura
armar
Contes
pesada
Colorado
##diesen
incid
parape
##isticio
Reun
discor
dependientes
suponiendo
discreción
Daniel
##manos
acrec
consin
Inquisición
Morillo
1881
Den
Rivas
deg
cortas
averigu
gruesas
bombas
Fabri
##umbr
defen
sistemas
íntimo
designado
pí
##ílica
constantes
irá
##DEO
David
dibujos
agregó
proa
mantuvo
maci
prelim
marchaba
Chiloé
Pul
leones
trem
visión
##CHO
rendición
positivo
sucedía
##didamente
trin
##ástica
rumores
melhor
desembocadura
tierno
##NO
tomaban
apropi
FU
umb
##tle
rega
##lemencia
inaudi
Mier
lanzar
adornado
vias
##lis
parto
chich
semillas
Palacios
bizar
natal
lastimos
arren
##oracion
colmo
Descripción
Cinco
URU
##So
##ican
incan
##ceu
cierra
Cárdenas
evan
ileg
delicioso
mancha
proclamado
flecha
Gobiernos
indiferente
Tunja
Sua
##lema
##iega
presión
hondo
ofrecían
taller
Tim
Vall
lomas
faltaban
cuerdas
Sinaloa
ocupaciones
patriótico
succes
ET
##cino
##tarlos
abe
trazado
convención
pertenecían
anoch
omni
industriales
pirám
subalternos
Long
cuenca
vengo
almuer
suplicio
compromisos
Tamaulipas
##lec
colm
componer
autén
##tidumbre
dinastía
mú
álos
pref
hog
Barba
estipul
concesiones
Orinoco
brisa
##áos
ofrecieron
1873
bellezas
VIAJE
Alcántara
Hér
Pis
##gran
estím
habeis
pincel
BUR
Pic
##pón
sobrevi
medir
creciente
Monta
aumentó
ridic
Sigue
we
estir
##ambuco
##qua
tejidos
infati
faltado
##ONA
municipalidad
sitiados
entenderse
tigre
##dada
mantiene
mages
representaciones
bueyes
##sin
##chadas
aquelle
##parte
##versión
comprendiendo
amargura
precaución
lito
##aV
ordenes
aguardar
##orey
Dávila
Ramos
parado
sincero
impuso
tumul
lámp
Avis
vinos
desent
##eratriz
dictado
Christ
efectivo
coroneles
balcón
turcos
sospechar
concern
linaje
Pich
biz
rez
##embar
##guan
anar
trascur
##piter
desenlace
comunicó
marítima
recobrar
lógica
billetes
anhelo
Suarez
Cun
hidro
##sable
mati
destitu
sacando
bolsa
Gan
peones
indias
feder
aceptado
rejimiento
sentarse
grata
##ISTRA
liger
sacaron
##giendo
notablemente
##ther
COLOMB
FRA
quedase
##erogl
dudo
huertas
Club
corporaciones
BUENOS
##ford
prós
naciente
dictar
magnificencia
intencion
Hel
celoso
receb
solemnemente
Tampico
trajeron
adher
Arg
##vides
Correa
##ALL
##úsculo
sú
Cayo
gozaba
justificar
humilla
honorable
fera
dole
dois
pecados
jurí
dizer
carruaje
Monforte
Varios
neros
vien
detras
##eradores
metió
Carre
##udar
combat
remotos
neutr
sofoc
cieron
##vidos
##itui
manchas
##canas
cuáles
##gativas
Chin
paisaje
redujo
transac
asesinado
gradas
suspensión
describe
##cife
anunció
salia
colegios
levantaba
##rision
acometer
Tienen
grá
lé
##YO
análisis
pasase
Conque
haberla
instruir
cansancio
##ché
dotado
estaría
mencionados
fomentar
Imagen
##lador
##uble
implor
cercano
conformes
produc
levantamiento
ganó
sometido
lante
tis
suspiro
tiende
Ningun
##animidad
epidemia
femen
enju
costados
asegurarse
claras
dividir
tentativas
emancipación
contradicción
URUGUAY
191
biblio
##tinerario
faja
andado
pañuelo
demostración
silvestres
previsión
off
godos
sostienen
##DER
tenéis
crip
cambia
balcones
arbol
pusiese
REPÚBLICA
Motezuma
##ebra
1878
íntima
riendo
##ibes
Galle
Cámaras
floreci
reverencia
permiten
Concha
##pone
variado
apariencias
conciudadanos
tinta
despachos
AMÉ
aga
picos
exemp
clá
1887
quod
chilena
pessoas
irresistible
##orable
arsen
barb
folio
esmer
consentir
Rincón
tocando
sacan
convenga
movido
disminuir
##sidad
##pico
##ianzas
##egados
honrosa
lanchas
##orosamente
moderación
Pompeyo
AA
##alte
salario
Contr
recibí
popularidad
desembarcar
ensayo
afluentes
Ao
Tos
creido
ofender
Tuvo
Quintana
##izaban
disip
cohe
Artí
demues
demostr
Navarro
holandes
acarici
terciopelo
Monasterio
Jú
cone
siguien
bandidos
produjeron
establecieron
tenerse
marchando
tumulto
ansiedad
deudas
improviso
información
Añ
enj
buscan
atacó
ignomin
argentinos
##ERNAN
##vre
solu
saltar
virrey
Sid
##tierra
##unos
tomamos
Ayala
serena
puedes
regidor
emplean
verdugo
capellán
Lam
Of
Sé
dés
cañas
abriendo
honrar
Provis
##dalos
geográfica
consignar
uniform
##oli
##istencia
##iger
enemi
ART
condenados
gruesos
legítima
deduce
infra
sordo
corredor
remitido
tuvieran
negociación
Ultra
##tedra
termino
cami
riqu
reconocida
volverse
manuscritos
Tlas
##sed
##tarla
##ting
necesitar
ejerce
permanecido
argentina
Cónsul
Viendo
carecen
establece
Baltasar
aprovechando
esclamó
Esperanza
NACIONAL
Ali
miraban
introdujo
humildes
prodigios
descarga
Gutier
austria
zapatos
proseguir
rro
##ug
##mín
##laria
verme
##viéndose
Paredes
presentando
infinita
Ign
contó
##imil
subiendo
celebre
armisticio
##inela
1877
raros
lamentable
aristocracia
Dif
bió
Amé
indulto
rastro
Misiones
Ambos
órganos
Antioquia
##cres
##ámpa
inef
repartir
celebridad
Instrucción
Cen
nales
##TICO
##vase
##ibal
Alcázar
capita
hubiere
cultos
silen
panor
hablaban
lejano
veinticuatro
flaque
ferrocarriles
argumentos
económica
SUSCRI
##mana
Boh
patriótica
táuo
zonas
intes
desocu
##cona
##ventura
anivers
##endero
fib
oyendo
##vana
invis
arenas
fundamentos
ángeles
marítimas
fall
##adía
callar
##ANOS
cesó
cruces
eminentes
EDI
##uí
##ity
regener
soberbio
trasladado
suscricion
legislación
ANTONIO
AÑO
esten
deshe
Sanl
ponto
Levan
Hai
signos
furioso
##vall
##VIDEO
Declar
##jalá
esculp
PERÚ
Fom
##tens
adelanto
VIH
Palencia
introducido
añadiendo
indíjenas
fabulos
usurp
trabajadores
negativa
Gin
##sados
tot
dictó
Moham
refuerzos
encabez
##erg
cerró
embarcación
siga
cumplió
prueban
celebrada
sangriento
redonda
explotación
Cierto
ignoraba
deducir
pintoresco
condesa
Hip
portal
Anda
realizado
pliego
1849
coronas
regalos
Leonor
mercaderes
eclip
mix
fratern
exerci
MONTEVIDEO
salas
martes
Carrillo
pongo
provinciales
ignorante
niega
labradores
abandona
##als
sede
islo
##TURA
apacible
FE
sh
pac
abrieron
regularidad
Ildef
limpieza
Nico
feo
##ilos
mayordomo
dorado
Popayan
bom
erección
##obos
ratific
venas
##CIOS
Pontífice
reclama
reemplazar
insultos
Ira
puros
##inero
composiciones
repugnancia
Religión
Eugenio
##rencia
##terin
palmo
variar
legales
heroísmo
inta
raya
acudieron
influencias
mueve
hec
##tao
compadre
##cinio
reparo
Urdan
pájaro
desagradable
PR
lent
capillas
plato
##ILLO
##TIA
máx
fecunda
agrícola
Dias
Isa
##abon
hacha
Armas
combinaciones
fundadas
Lord
oca
##ié
paños
coches
suplico
testimonios
hispano
##utas
##mbres
favorito
Presidencia
instruc
dedicada
alarde
remota
Foi
estructura
volúmenes
##álico
1809
practica
Talavera
corb
piano
riachuelo
bajando
Presi
1872
asistió
dándoles
##est
intima
prus
##dicas
españo
Calatra
club
##ILI
Libro
candidatos
Álvaro
quebradas
Maestre
##lí
mudar
##ibar
mundos
mandan
Pepe
señalados
líquido
cruza
contribuyó
Mosquito
tolerancia
Zú
lenta
papas
##ezol
recreo
acompañaba
haremos
designios
huella
cm
Estando
Chich
Salió
Pasto
robado
invadir
italianos
corregidor
soplo
Freiré
detall
06
noven
puñado
gastado
lindo
bonita
penetrado
lento
pam
##SE
##ánan
donación
decente
ESC
ultima
calamidades
Gál
fianza
lava
tocan
necesito
teme
##ctivos
llaves
aprobó
dezir
Trad
Vá
actores
Estan
vincias
suaves
Provincial
1883
Llega
agravios
recibida
dormido
disimul
Acapulco
repentinamente
MIN
Plas
##jol
cuentos
reside
corrían
vega
bode
encuen
acababan
Consider
Jamás
tez
##charon
augusto
##ONES
enviaron
Cartajena
incluso
patrimonio
proximidad
CÁ
DU
espul
quitado
fundadores
Orel
COLOMBIA
Agri
hy
proven
cuanti
CAMP
sustra
acreedores
flex
emigrados
Acosta
Villafranca
cían
cana
sincera
previ
cetro
vital
resuci
CAMPAÑ
Ato
agui
lám
##aca
concor
##gus
aptitud
tomados
senti
pinta
usando
abandonaron
delincu
hielo
contro
dimos
retira
universidad
abrirse
VENEZ
ss
##cador
##ÑOS
arr
comuni
religion
vivamente
satisfechos
relijion
ADMIN
cueros
mante
candor
##ciosamente
surtido
simpatía
araucanos
Hércules
dándose
##orar
verifica
hebre
##risas
pescadores
tina
Alta
escrú
divisa
ordinarias
Wa
Xo
##iseo
anta
llorando
concurrentes
ust
enumer
cuo
Santafé
colocadas
temblor
tuer
##ok
caser
passar
prescrib
empre
huyeron
##ineos
Capitanes
cosechas
archivos
##IM
mana
Nov
dejase
Correspon
estudiado
commercio
miserias
muestran
trabalho
refiri
Torque
cauti
desenf
estadística
travesía
almoh
ji
##raga
maga
Estad
dejarse
deseaban
extender
Av
Hui
pague
botas
conducen
bulto
##chiller
previn
Escor
mercantil
##kes
##orras
exce
santidad
Garci
empeñado
aconteci
valenci
acompañada
occas
creerse
nieto
##alos
volar
torio
Prote
sufragio
dominaba
cesado
1885
capitular
Fuerte
Siglo
CENT
Ibarra
Sum
disemin
##ceno
prontitud
Bermú
##ladores
##UA
##abuco
##omeo
reorgan
parlamento
reses
##etano
firmada
salvó
nidad
##tese
suertes
Diputación
novo
Quiero
cuadrados
estraña
Venus
servidores
Albacete
hua
##dá
Mariana
creó
goce
represen
230
señalada
doctores
hazer
##jió
##alto
##ilan
ardu
##uroso
Arm
despoblado
Cro
##gat
pot
solda
distri
aseguró
escasas
estrangeros
excelencia
reproducir
ordinariamente
Im
Ton
##low
movió
embelle
encier
Octa
ric
senta
##deces
puras
##enciar
Matías
gravemente
##iduque
MIS
##lero
prisiones
quim
subord
Parque
Guin
encarga
desconfi
vacuno
pacífica
mercaderías
4o
Ave
##sao
inmun
convirtió
hid
##distas
cuja
pregon
escase
acomod
abandonando
##umbos
espectadores
##ísticos
infinitos
VENEZUELA
TEN
tit
Artill
virtu
1839
apoyado
Ist
pante
Logro
molt
ADMINISTRA
HA
Lit
##gancia
inda
Concil
##RIOS
acompañó
Allá
aventura
##loria
Lago
trataban
Tenía
1807
abrazar
Soledad
Ildefonso
carcel
buf
señoría
antecedente
dispuesta
NOTI
silvestre
fórmula
Gabinete
Ses
##zanas
aspira
previa
agitación
subterrán
Barros
considerablemente
280
llana
Prelado
peñascos
##tif
##emias
prést
avanza
ESPE
inclina
pecto
##amarra
maravilloso
##rías
##orías
enar
servía
##STI
obligar
acostumbrados
coinci
niendo
remit
capitáo
gigante
vora
esbel
vendrá
afan
brazas
cubanos
semilla
infinitas
vulgarmente
pacíficos
Páez
##entadas
unía
perturb
posada
##vasen
importaba
comerciales
páj
pica
##ence
concordia
estamp
tancias
Esté
principia
boa
tradi
remat
pertrechos
ie
lumbre
cajón
ardi
aser
##med
vivia
halle
##gasen
mostrando
dolorosa
embajadores
Cund
Gros
expidió
fundaron
Feliz
edificar
Castellanos
Ful
Vidal
bispo
##cibles
##aden
median
remitió
povoa
AIRES
comentarios
LXX
reir
parada
recogido
aumentando
pavimento
Godoy
equilibrio
##aj
##viana
chicos
guardi
transe
##ENTAL
asesinos
desconocidos
##atorios
gallinas
CRI
##GLES
casamiento
Arcos
trope
atmos
Bahía
ár
instruido
pudimos
192
humildad
estruendo
reas
##eld
potes
Rioja
Código
INSUR
Calatrava
Semin
##ordi
##ibe
impide
liqu
mirado
respectivamente
inteligentes
desnudo
Estrella
Fons
ere
naval
vaga
acompañar
repetido
Inspec
Divina
Sáb
ños
##gándose
delle
tomase
autori
botes
temible
adelantar
ligeramente
benevolencia
convoca
Primera
blic
##aes
##ET
##varon
prover
constar
fechas
interesado
adquirió
Urdaneta
Fig
blación
##ellas
##uber
Mars
llegara
estup
sufrieron
Obando
portuguez
##BLIO
avenidas
imparcial
vana
Esas
darnos
gracioso
Grandes
extrem
fértiles
aran
##lé
##ecemos
##quisa
sonre
sosiego
pretenden
Maestro
acceso
trascend
novelas
empiezan
ímpe
##LL
inmin
resultan
descubr
entierro
prohibido
##íferos
Ocho
##íp
##orra
sición
galan
admirables
Claudio
manantiales
##PI
##uedo
privados
cansa
contrabando
Morelia
Pasó
organizado
maestra
avist
proposito
Tiempo
austral
estender
solares
raíces
trabajan
gozan
enviaba
Sarria
Ferrocar
##istro
##jeda
auton
##pita
aplas
espuesto
disse
sitiadores
Valparaiso
Correos
Vélez
Bac
RU
Wh
nero
dema
cercado
Colima
Jamaica
oto
##daron
secas
sug
##iendose
Lau
quil
Interior
estudiantes
domi
arbustos
bárbara
Atacama
flanco
envenen
intol
##idoro
##itá
anc
residentes
criada
moment
interesa
198
claus
discutir
heroicos
refugio
aquesta
criollos
pren
confiar
Dijo
diplomático
04
Cuevas
##joso
Joaquim
commer
HISTÓRICA
contemporáneos
Gral
miri
honrada
temo
conducidos
lancha
relámpa
Caballeros
MANUEL
manantial
augusta
Monterey
sef
advo
cere
opuso
rompe
folleto
gesto
ida
convi
##tiro
liti
especialidad
confesor
averigua
mrs
seja
monos
##estion
tormentos
intemp
saberlo
claros
combust
Bermúdez
aludi
##isse
##uld
Entra
medicin
califica
##eciese
contador
recuper
atravesado
distinguida
Eche
Fac
rido
##toma
##uns
antor
##ándalos
moriscos
aflic
colorido
persuadido
pisos
retablo
egipcios
Heredia
##pí
traicion
vacil
fabricar
modificaciones
elef
##ásemos
Ingles
constituido
Montal
##hech
trep
señalando
saludable
PAT
piadoso
Chillan
##DICO
veis
tambor
públicamente
Orb
copias
Obispado
alcaide
dieran
daré
Descub
Rozas
borrar
desembara
invencible
07
eos
sente
##Ã©
comodidades
arca
acti
##urbios
recientes
Xa
alia
Camar
rueda
relu
desac
sentar
resultando
##radura
mandou
cabaña
lustre
Cra
Hora
abren
chist
ayunt
Montejo
apetito
círculos
Batal
##inelas
preca
prepon
##edera
francamente
extranjeras
450
vigorosa
Igual
##ieta
vendido
principa
##tóse
dependiente
ausente
comandantes
##eti
matr
pedían
Geografía
##goso
carita
racion
gloriosos
Hero
PUN
ate
procedente
abaste
gratis
mejillas
refuerzo
Cédula
perjudicial
##táo
##casen
Manif
##gría
inmor
navegar
sorprendió
Dentro
rendido
Inmediatamente
conste
pregunto
corteza
##onetas
hospitalidad
riesgos
ruedas
agrícolas
Llanos
##anidad
peña
daquel
Cervera
bergantines
diestro
##alam
Encon
espor
comprado
##cedor
Villam
arruin
Pelayo
mág
dedica
compensa
graciosa
acordaron
ÍNDICE
sentada
subordin
alcanzan
Velez
arreglado
penetró
presentación
##ólogos
revueltas
CE
TRI
195
recojer
limitar
judío
aventureros
##ania
##tuosamente
##ibio
##ceso
##lique
domingos
expediente
guardaba
internacional
xvi
##ister
##drían
dominante
citadas
diestra
Ultramar
lomo
##hí
verda
trabajando
entraban
trasporte
blanque
John
Logroño
llar
##tate
minis
Juntas
pérf
registro
custodi
derredor
##itados
##ARO
tripul
cubri
abraza
estranjero
Segunda
antigüedades
laterales
##ipotenciario
BIBLIO
cuencia
sali
prontamente
senador
quintales
Beren
visitador
1º
Adolfo
Mendi
Traba
degrad
##americ
incer
juntar
Baviera
míst
galeras
recorre
Apro
arrastrar
tonto
capitulo
criaturas
REVOLUCIONES
anuncio
Llo
sele
##ick
##untes
desobe
##gueras
amas
sanguin
encantos
sider
tender
fora
##sou
recién
##pirando
román
reconociendo
indican
sacrificar
desciende
Arica
Fres
Lad
##veira
cristales
Imprenta
destruida
inclinado
patrón
09
dificil
indicación
conservando
Sanlúcar
Tran
##GE
##wo
monárqu
225
sostenida
Avel
##cayo
poé
mansión
pesad
patas
Pedra
Gobernadores
Regimiento
hueso
lienzos
astucia
##GAS
pedidos
Calvo
levantada
extraños
chozas
ocultos
episcopal
Fund
abrum
salí
saliese
intermin
Corral
borras
260
robos
cultivar
aplau
anunciaba
aprobada
presenciar
Lú
##órico
cupo
asum
##ióse
##inosos
Prof
inmens
comprendo
talleres
preceptos
##PAR
##ciada
##adme
pozos
Cate
Cardenal
opresión
ilustrada
transcur
embarcarse
cruci
##ufre
Dal
lino
confor
cede
próximos
Occid
revelan
mensaje
zón
nombrada
Pasa
permanece
jurados
modelos
##cú
escab
forzos
entregarse
bula
##minar
Souza
237
colec
agravio
propaganda
Coahui
detu
esquis
quina
##heiros
Salom
dirigen
viviendo
Neces
##ça
sona
sufriendo
emoción
pilas
lastim
duran
crónicas
Felici
salvarse
GRA
##uicio
carecía
##RITO
Salado
ambiciones
rodeaban
Eg
rando
##nis
##ARDO
##ADOR
gentiles
pistola
cláus
fúne
ip
oyeron
reza
reún
##leas
perfi
volviese
##DICIONES
acreditado
filósofos
gada
##iados
abuelo
mueren
##fato
condicion
##cripto
gendar
injurias
BAL
Sy
nacidos
coad
matanza
representando
tural
avanzadas
remol
precedido
emigración
persecuciones
incapaz
águila
##iten
pasion
histo
Prefecto
embarcar
geó
Ocampo
sembrar
fabricación
Pernambuco
Ora
Antón
reconquista
concib
echan
Vascon
moverse
##xido
##aldo
sufra
poseen
prácticos
sostenerse
aniversario
sidente
roj
Curi
fij
extrava
manifestaba
restablecimiento
ensayos
limosnas
Ea
##gico
##aram
repor
falsas
díli
Companhia
Quirós
freg
recibían
Guia
Reyno
únicas
colocación
circulación
insoport
##cibe
##íanse
sepultado
prometió
Golfo
paternidad
cómplices
legumbres
atendiendo
procuradores
jornal
brado
siembra
raíz
exaltación
intoler
HO
Ria
reis
caval
maria
##tiss
consejeros
acompa
comprendida
avanzado
1882
frescos
ditos
##umento
aspec
nava
salidas
hacernos
redacción
##CHA
vegetal
pacífico
archipiélago
jénero
inic
descrito
restri
poblados
piés
Mercado
penitencia
Dionisio
Bell
##deos
##trados
aceler
Queda
comprendidos
discípulo
AMÉRICA
##jec
##emo
ayu
201
molinos
guay
sulfuro
Mich
##ridades
pudor
Tagle
pleitos
GUERRA
instintos
lomb
rió
##ciou
trág
pronun
encuentros
embajada
enérgica
literato
fóra
Fonseca
Pino
zado
reves
novio
indol
sible
vean
opi
Nava
##ctora
215
labrar
maravillosa
distan
##vari
rota
logro
lejíti
desmon
puño
personalidad
important
rengl
Tacna
Ceci
blando
##picios
llamamos
agrup
270
Tuy
##gasta
##adá
recio
tocante
any
##usco
poética
trado
Che
darán
feudal
afe
chocola
##DADES
concebido
##ond
##orada
##adel
quist
cabil
emped
vaig
llegará
enteros
quise
imperfec
Serna
Itur
hí
contratos
agonía
Repú
Muley
##iremos
acertado
dichoso
definitivo
amplia
Reforma
##érs
denuedo
aff
atrevió
discusiones
fábula
cárceles
saqueo
domésticos
sacristía
Torquemada
Efec
Rena
gras
servil
templado
arribo
proporcionar
bebida
hueco
celeste
Fam
##gatorio
##picos
sou
subida
robar
herederos
Irlanda
tempestades
angustia
cubría
devas
revi
previo
pongan
mineros
Sale
Baza
divididos
LIMA
contempla
relieves
evo
zelo
##nado
prevención
prefecto
indicios
Carlota
aprobar
atravesó
párrafos
mig
##POS
##caciones
presento
confis
especu
huyó
##eraldas
Alcaldes
alumbrado
amonton
Cielo
bé
##xe
convertirse
Román
Cacique
had
mandante
considerada
intrans
conservó
observando
seguimos
Nieto
bastimentos
combatientes
Geno
Haro
##PCIÓN
##tie
manzana
exhal
Seminario
Viena
##abón
diosa
Osorno
Andrade
ansia
eficaces
fecundo
reparación
convierte
lúgu
Mez
##ult
cabell
antiqu
##cóes
garro
piensan
Piedras
##Ã³n
Pezuela
bla
novia
popa
aparecía
estimado
variados
Chiapas
AU
Tán
fica
lue
##chaban
tercios
palad
negado
desprende
vicis
##ny
solía
finca
Mans
adelantó
acepta
expresar
consiguieron
sustan
vacante
cúpula
Biblio
MIL
##zia
##ineros
antro
contesto
extension
Ayud
vestida
procuraba
rechazado
disgustos
##plan
Niño
Eclesiást
Bé
sc
sid
##engo
estúp
recar
angel
inflex
Despa
balles
sostenía
cidad
referidas
ilustrados
enteras
instituto
Catamarca
curiosas
arbitrios
Cora
##VAS
##chup
Artea
desto
contrarias
montañ
Veamos
ladrillo
colosales
demarcación
Fomento
Vues
##El
##yal
Concl
venid
matando
Lozano
199
##quieren
bonito
intermedio
insufici
feria
dices
Rela
soi
reprimir
intercep
Moneda
alejar
Ferrer
Quintan
Acon
NUES
pendencia
##cuco
sollo
Josef
Sau
193
Qua
canos
##PLO
##adizo
arbole
precedentes
solían
marcada
aparecido
llevarse
almuerzo
Plano
##tian
honroso
separada
redactores
Pampa
pror
##vedi
consigna
Cordo
romanas
dineros
perseguidos
sufrimientos
Coahuila
##oo
##viene
##telo
mache
venezol
frai
REY
1884
Hugo
engañado
contenia
aduanas
Escocia
Zúñiga
pó
##oll
##eli
##lasen
eram
##ñoso
cómodo
licor
factor
periodico
amotin
abogados
asociación
acuerda
periodista
pé
Chal
tropie
suscritores
migos
##chon
Elena
marcado
Charcas
fins
##CIAL
directores
solicitó
correrías
republicana
caudaloso
pliegos
lápida
duerme
hambri
Cien
hidal
##entino
ciuda
##caras
comprenden
agradecimiento
curato
electorales
Nº
Pase
##cén
mereció
continuado
permita
##RUZ
Mexicanos
##IRA
entor
Christo
cantones
constan
muertes
##g̃an
verificarse
evidentemente
anoche
medalla
Orellana
I03
MEN
detiene
serios
impresa
nossos
ray
diezmos
caballerías
##embargo
South
admite
precipitadamente
DOMINGO
asol
sonas
confines
##eau
existido
organizó
cruzan
ensangr
tacto
Ino
##vina
aug
chor
mercio
Abu
cleric
continuos
estrago
designio
detalle
italiana
alumbr
Gene
##ulación
Alic
consti
necesitaban
Arau
apresuró
fúnebre
##cc
##anismo
lagri
baña
##quívo
secretas
pretendido
separar
FRANCIS
rían
mapas
Consta
generalidad
habitaban
cesa
##rers
llenó
cátedra
Obispos
intérprete
Public
cuida
##tru
perdidas
elevan
208
##g̃on
dirijir
operarios
artística
Larra
diablos
iu
##bs
##cería
abiertamente
dejé
203
brilla
Quis
adornada
modesta
Pirineos
apóstol
##JAS
adminis
constaba
hallé
favorecido
estrechas
importación
Ninguna
beneficencia
abertura
procedencia
Som
gados
área
##ecería
cort
Alve
principió
Rocha
regularmente
##iéndolo
desesperado
Illmo
Iri
STA
íbamos
##blar
sienta
trate
##ísi
diría
##vaca
ganas
this
reclamar
cuidadosamente
##OMBRES
vínculos
Ai
VER
opos
##game
condado
pajar
##áráo
Junin
Vicuña
espacios
virei
subdele
gon
desfa
reseña
##úmulo
refiero
parecida
recordando
freno
mutuamente
Arteaga
oso
##ñadas
##dosos
seriamente
clon
civilizado
exceptu
lisonje
desengaño
Clo
acal
previs
polí
laber
##ichos
sustituir
Gálvez
exor
raiz
cédulas
sarjento
condena
gordo
insinu
antecesor
Castellón
Hes
Mul
##zara
arros
##urri
urgente
1889
pronunciados
conflictos
hechic
Representantes
Remedios
ligereza
oal
##xtla
Alameda
dise
destas
practicado
grabados
Tlaxcala
Ph
dedi
union
##emes
ligeras
ranchos
fortificación
cebada
litar
##ater
brav
##rúpe
Bárbara
evangel
##nica
##íficos
presas
##bata
escribiendo
acompan
renombre
Melgar
Der
clemencia
contu
##ensis
Chic
manifiestan
restauración
neutral
infalible
pino
tarse
##lum
##its
Ester
hacien
intentado
pitán
acarre
Hurtado
nían
##oa
##rinos
##adia
gritando
caminando
presumir
atesti
Dra
calmar
Coqui
llevados
Isidoro
entramb
Regencia
mancebo
##dell
##eraes
Arce
fijos
guisa
invasiones
Honduras
Ribera
desemboca
##bor
##coma
##IRO
debate
lucir
Manu
ignorantes
infernal
bendición
Plasencia
mís
xico
##entor
##trán
##conde
##egre
honda
sendas
preguntado
colorado
dignamente
sustancias
##aredo
sorprendente
UNIVERS
Bayona
##tile
##cionar
##veza
creada
##pura
Pele
directo
quisieran
Maranhao
estalló
ROSARIO
##ífera
##FRICA
##amon
##laje
conocieron
viagem
comunidades
remedi
ecos
mandase
Alg
205
publicados
tamaños
Claro
Ved
##guí
terminación
estrechar
contigo
dilatado
CARTA
resplandor
percibir
seculares
atrevimiento
increíble
Escorial
Vig
##iense
tratándose
despro
produciendo
circunferencia
genios
determinada
nieves
desolación
RI
inmo
##gudo
solidez
##ifas
Alférez
##utat
espléndido
##IONES
aprue
chica
opuestos
Metrópoli
ambiente
catálogo
Montezuma
SEV
cuántos
2i
corpor
mire
amigas
comprometido
Vieja
Cochrane
aristocr
fugitivos
JA
perecieron
carreras
Caridad
vocales
##ellón
abandonados
fáciles
misionero
Jacobo
foso
##gadores
cordo
casco
##yola
pondrá
señoritas
sentados
tao
fracas
bayonetas
insignificantes
Carolina
Artillería
Abre
Ugar
ÁFRICA
##rendo
##rándose
##wer
decla
regente
##critas
204
aztecas
violencias
hábiles
administrativa
Municipio
veteranos
encor
##tativa
Estudi
mediana
repon
##rista
320
oscuras
máxima
comunicado
inmóvil
##gones
##000
osadía
matan
##ecerse
##mitas
Recon
anduvo
Observ
desvel
esplor
calaba
Armada
espediente
pregunté
provocar
desinteres
Aus
iras
sendero
viste
##MAS
##lete
encontrando
216
inclus
visitó
Alhambra
Fri
##ols
##viano
##caltecas
libertador
acompañados
desnuda
federales
debieran
211
impresos
observador
periodistas
5o
sp
Conquista
calidades
venera
regio
1886
Zapata
commun
inmigración
##inten
respira
espinas
terci
##vildo
llevase
huma
erudito
portentos
egército
Nas
Tob
##rael
notoria
barón
france
plana
castigos
novedades
Florencia
desaliento
ceg
muda
Rever
goces
constituyente
muchísimo
which
oje
##rime
aliado
##urre
mediación
crecer
decirme
centinelas
olvida
##oroeste
referimos
cortesía
poesías
Primero
Bob
Fla
trio
ataca
Vicario
Dicho
Cundinamarca
ratos
habr
actor
serias
seguia
eleccion
Sacra
imparcialidad
influir
JO
Miss
##moles
lega
carl
Chico
sentencias
Nazar
corredores
desaparece
acreedor
ámb
##tter
##GEN
naci
solitario
quad
horm
Civil
##polis
##iguen
celebraron
enlace
recompens
Mediodía
Cornelio
DEFENSA
POB
epo
excom
##mbro
décimo
acompañan
Berme
mü
tle
wo
##mito
##riba
trazar
urnas
estimul
espresado
CHA
Honda
Joseph
Esmeralda
nec
spe
##rou
dou
trimes
consideran
219
permanecieron
direccion
##ISO
saludar
ensay
Moctezuma
yos
##gines
redes
traido
repite
Diana
compañia
declararon
gau
recurrir
colocarse
sometidos
resuelta
abrazo
nulidad
Júpiter
##fl
reiter
diam
haces
granaderos
capitane
194
firmas
Jesuitas
confirmar
conseguirlo
inviol
engrandecimiento
BURGOS
Serra
##omar
perdi
Arturo
cambió
renun
trascendencia
AMERICAN
mór
##vidades
comar
polo
aparecieron
trastornos
carruajes
Cajamarca
Rayón
Zuri
caos
Almo
monó
posse
intriga
descob
vastos
impedi
Mena
##gáis
true
instant
Lev
crá
brillar
occu
##iéndome
Alicante
Idem
SOL
jinetes
deque
estallar
impas
##naval
Murillo
cazador
FRANCISCO
Mom
ritos
titud
##tade
Departam
##ificado
mezquita
quisiese
exigía
reflexión
direito
pedestal
Len
##kin
##HE
além
cheg
regen
magistra
injusta
engan
see
recep
Magn
autoriza
Quiere
Satur
arrastra
desembarcó
Argentino
fragatas
científica
Oru
dones
china
querian
pensión
diversidad
Delgado
Infan
sangrientas
vidrio
inago
volcanes
##uño
##BAS
##vario
quista
##enea
SANTO
PRIMERA
incidentes
Opin
nóm
##ture
aglom
Villav
Leonardo
bros
vento
##pete
tiva
##posa
bahia
GAS
lares
##áneamente
##ieu
##RIS
212
podríamos
bondados
crucero
explicaciones
NUEVO
terremoto
tín
##udez
##oneta
sex
##idación
Noya
Archi
amarga
panorama
Alvear
Seme
Trans
sanos
##ung
daria
Yaye
armadas
fronter
coronado
extraordinarios
escultor
rendirse
Socorro
fide
##JE
loque
##mpo
costum
llora
respetado
dife
lícito
dirije
Alejand
someterse
##vedís
vejez
Puig
##CEL
##FE
muí
##ganza
cedido
##tania
gustos
circunstan
lejisla
confundir
Máximo
cónsules
infamia
preponder
Oña
Pisa
arcilla
Marin
fecho
virtuoso
descansa
Evan
##zor
##iosidad
chino
efectiva
207
##filo
concurren
sugetos
posta
charla
hacerlos
Juris
platos
acercaba
ENS
infatigable
1°
##yon
##cialmente
##tiesen
comesti
orquesta
lución
revés
##inosas
sembrado
occidentales
Julia
estraordinario
Aranda
Torn
edic
##roy
sienten
corpul
Entr
feb
sirvan
menciona
escaleras
telegrama
BIBLIOTECA
envia
porfi
aráb
aprision
trada
finas
roman
artist
broma
comienzan
latino
esposicion
FI
##elli
##itaba
corpo
Alme
vetas
tomarse
valió
dejara
##cill
decretó
Liberal
inútilmente
clo
corro
orde
##fices
avanzó
tonio
Linares
corregir
Principal
huéspedes
Zan
##tien
diencia
dejen
cinta
Baja
Cande
fazenda
detención
marinero
RELACIÓN
Bohemia
Acer
Vid
##ñarse
##amu
##losa
movil
declam
generosos
Sargento
minuto
inspirar
trucción
disfrutar
rán
uñas
##óng
locomo
##cono
##ñosa
partiendo
Carva
profeta
encargar
despedida
previene
Jerusalén
Documentos
lira
##madura
##ky
##quivir
dulc
Huanca
engros
dividen
pálida
pórtico
##10
deud
campa
##árselo
estrechos
incons
Recono
científico
empuje
conmem
celestial
vicisitudes
lem
afam
podremos
invasor
Oran
erup
##ms
##MÁ
##petas
barr
respeito
sement
tendrían
desesperada
Cuánto
abstra
##burg
MOR
##ientas
pedía
ordenar
galante
separan
combin
360
niebla
SANTIA
inexac
desmoral
##pedes
confederación
##cencias
riores
fielmente
Llegada
Constantinopla
##venida
faltando
merecía
escriben
estuve
217
estraord
Obras
Nego
Agentes
Huelva
Becer
##vimiento
posicion
202
Serena
cristianas
Maranháo
terrestre
Bala
restante
guardado
buscado
Apéndice
acostumbrada
##ológicos
vacilar
chispa
Persia
Atra
museo
Santidad
racio
chiqui
ampli
arraig
deplorable
LX
##ket
##tubro
adven
fila
representada
entramos
singulares
anunciar
Dulce
estímulo
Ase
dres
confec
incu
dispo
llamamiento
Goy
violentamente
educacion
musica
Ningún
Popayán
##chitl
PRES
echo
listo
neo
##bell
espeso
colabor
tortu
218
separadas
despachar
ayudado
ESTA
pobladas
ILUSTRADO
amnistía
Ari
BOL
Pico
fro
##utes
elab
##antepec
sultán
proporcionado
paciente
VILLA
Pub
Sá
Tho
##tias
prero
saga
infructu
bola
213
conversaciones
Corregidor
cipal
Deh
emir
##gencias
arranca
##padas
misas
abono
Albu
1800
##jaca
rectitud
dominado
imaginar
privile
Arenas
Ninguno
ub
##itia
mostra
desean
filan
danza
timo
laud
exclu
despierta
##lita
##enetr
torna
gobernaba
Boya
simpa
canónigos
barranca
HER
cida
##óf
Aldea
hoguera
desap
apoderaron
espesor
Villalba
Sena
prema
cometió
construc
Ramon
vegetales
copiar
sagradas
orgulloso
GAL
Lal
Zorro
##isimo
leva
levita
acce
##UNTA
revolucionaria
CUAD
aislados
rubor
sacudir
##pto
venenos
extrañas
SEÑ
Osorio
resolvieron
publicaciones
limitada
Santísimo
SANTIAGO
Pilar
saban
##BI
depu
##rate
alc
temps
surg
legislativo
COLONI
Apostó
peninsulares
cig
##cato
##itano
##usse
Condu
cogido
morte
entereza
cursos
Primer
intelijencia
omnipo
Hal
rencia
##LLA
camas
llamo
confió
cuanta
##antada
Rector
trueno
infortunio
franciscanos
hiz
##tula
##ánicas
##ulares
sanción
cumplida
pedirle
sosteniendo
deslumb
mensuales
igreja
##arían
provisto
confin
barras
sufren
##éndolas
pasaporte
baluarte
espaciosa
Teodoro
inacces
cando
##VII
algar
sabrá
quedamos
Prop
apoya
trasladarse
Seria
cimas
evi
oía
Tay
bertad
dilatada
BEL
sario
##sina
##abes
##gramas
admitido
Guadiana
maravedís
Angeles
denomina
Atenas
adap
Coquimbo
conchas
desfigu
##trera
##seos
mudo
##veda
Derro
##ueta
emperadores
##ANTES
gotas
producía
harían
Orient
##quería
Ospina
millon
ventajosa
implacable
etim
sidad
verlos
pila
llevándose
quedaría
##iéndola
entusiastas
Ferrocarril
crecen
desagua
223
ejercía
emprendido
depositar
huésped
chocolate
VE
exhor
obrado
tomé
necesi
Ahí
proporciona
adversario
Olañeta
FOR
sie
pasé
indef
Camilo
encam
preparó
susto
Julian
grandiosa
medicamento
astronóm
dat
ró
alzar
locos
##tron
acent
##quique
##calo
nombrando
214
celebración
próximas
Fuen
deudos
sensación
acam
cordón
##tasio
reconcent
conspiradores
Contreras
demuestran
Gr
busto
hav
adquisición
Carval
encuentre
acabaron
separó
aislado
penoso
corbeta
Non
Rue
Zor
sefor
dición
Ensa
teorías
Carb
contenta
escucha
comisarios
Ceuta
promete
Ferreira
exclama
1890
comienzo
culpables
doncellas
áspero
Nombre
##FA
delegado
##énico
despidió
decli
pequeñ
volví
##MIENTOS
aquest
dam
##art
pergam
populos
veamos
##minas
causando
recibidas
Expor
centinela
referentes
aseguro
desconocidas
críticos
levante
Fez
bido
teneb
piadosa
##CURS
guno
alzó
abas
costu
defiende
Cabeza
magníficas
experimentado
contorno
2°
##sim
##bias
indes
arrim
dote
Monarquía
206
esclava
Cosme
pusiera
espectáculos
campiña
santas
##chea
aseguraba
Quando
Soler
##ificaciones
apagar
volvían
sólido
flanque
##uver
trescientas
minha
muera
Pata
dirigían
braz
compañera
##oriales
Escobedo
huracán
1o
Aviles
Bi
jan
rable
primeramente
Extra
222
escapado
réj
Salvatierra
miriám
Aleg
rarse
##su
##uen
desús
##igra
cerdo
Arzobis
Corpus
diputación
cañona
##ISOS
Derecho
calabozo
Bla
##ÍS
##inco
unen
##unga
poético
acan
queréis
209
indicados
determinados
CONS
encierran
Fen
##uja
##ples
##ciadamente
alle
reja
##erac
perpen
Alber
##ited
impotencia
UNIVERSAL
##ring
##toso
prende
motin
hij
palpit
226
Tapia
simpático
ajeno
invitación
Bonaparte
sica
##ÍAS
##cosa
intervenir
descubren
corrieron
podíamos
##lá
estam
##celo
privar
botán
255
rudo
enferm
##répito
acogida
asciende
clor
##hir
##ciable
lación
##rudencia
impidió
causaba
llevada
tranquilos
nic
Ann
atentados
corrida
Molino
mantenía
patriarca
##ífero
medallas
Borbón
Bran
##ETA
cipio
infras
opuestas
Loyola
consejero
Coim
muchachas
contesté
imaj
participar
##colo
##omen
animo
dotación
apuros
##quo
veja
falla
232
solicitado
encantador
farsa
dispers
Celanova
repartimiento
Adios
Piedad
nidos
##nn
##dria
portero
##loso
debidamente
Capel
poderío
defendían
ciegos
impulsos
variadas
ímpetu
lici
socios
Dirección
gritar
llenado
mantenerse
bombarde
Procurador
serpiente
Copiapó
##pones
##TROS
##aber
indo
asa
##ignidad
electri
míos
individuales
azufre
recomendar
artilleros
agudo
1806
afortunado
ks
##oni
##deza
##pat
cerrados
silb
224
galas
foco
Doro
roc
##RADA
ofendido
robusto
Maraca
inspector
vehem
Indust
Adiós
concu
##gut
vencida
cadal
aprendido
Triun
Pedraza
fico
##bran
mias
labra
asegurando
enterrado
logrando
Principe
adictos
restituir
GA
vitu
juven
##endario
sacra
confirmación
musulmanes
inminente
pios
estren
##atzin
##minante
partidario
guerril
suprov
futu
expresada
elegidos
servirá
marchado
doloroso
firmes
crueldades
Viaje
NOTICIAS
jeo
alquil
##ibust
abomin
insensible
pintada
Matanzas
promovido
vulgares
eficazmente
apóstoles
Cañete
Varias
mm
mamá
tácti
##iscas
compuso
rapa
insensa
mesmos
proclamar
tabern
predile
JORN
prendió
Marcel
Frances
##querque
altern
persuas
##MBRE
eternidad
SEVILLA
MM
##ína
lagar
cualidad
montado
place
Barran
intentos
encomienda
equivale
Brigada
##ríos
##guos
orto
jugo
choza
Borja
rejion
desterrado
mahome
Chacabuco
caseríos
dían
##gidas
##dista
privaciones
asesinatos
ig
quema
##rión
maquina
venció
insulto
histor
##enderos
recorriendo
agradables
conjurados
legítimos
renovar
MAS
Pró
respir
certo
contingente
juzgó
Exteriores
paisano
deseoso
made
trasladar
conmovido
demonios
ABRIL
Ech
##abé
dirán
dijera
copas
proviene
llegados
boy
##TORES
repugnante
bl
plic
##ures
##yéndose
exim
Paco
dirigidas
acostumbra
bendita
timbre
inspección
publicidad
Fru
ía
##onada
##canes
legalidad
cesión
sujetar
Guevara
Acep
Nomb
##CRE
##ward
comedor
provi
Balma
profesion
Viernes
##hora
##ueba
##íticas
Cabello
cuadrúpe
referente
expresamente
imposibil
dueña
agregado
sublimes
positiva
murmuró
istmo
nudo
conquis
228
mármoles
ferocidad
Lus
impi
Nació
Cerda
literarias
animación
laurel
##reria
ingresos
##chia
casada
oradores
indicio
infa
valent
afán
difuntos
cobro
Huan
bruto
labrada
redondo
unánime
réjimen
blico
##vé
semin
suena
##uizo
respirar
##melo
Cata
ofensa
##jenes
Cui
Jord
Llan
##ecí
compás
indigno
queridos
245
Venegas
asistido
Creemos
2a
##llar
##redi
##riera
ingreso
##chones
Algar
##consul
##trasen
valido
explos
públi
asesinar
limpiar
sensibilidad
delicadas
carneros
ingratitud
Preguntado
Palo
damente
teve
finos
Suces
##lloa
dióc
facto
Policía
Zarate
escondido
##koff
Benavente
Leopol
aderez
abul
foro
votación
descubiertas
civilizados
deseamos
234
enterado
ruegos
radicales
Pió
##tísima
##ilado
manta
rectific
palmos
Unidas
Mancha
Canadá
huye
jurar
aprovecharse
cronistas
embriaguez
leí
verán
camina
cubrió
linha
amarill
derrotados
cultiva
queso
espléndida
latinos
nim
##pósito
noite
muñ
##gacion
miércoles
marcos
adjudic
venda
cerradas
##ival
asistieron
sensibles
esclusivamente
OC
secos
perma
resignación
obtu
abar
forzado
montados
facili
certific
mandaban
acuden
Gual
221
trastorno
##lie
##ombo
ciutat
amargo
suben
ilustrar
Solís
astros
marítimo
hemis
VUEL
pizar
devia
sienes
##olula
bastón
251
pagando
exigen
injusto
interrumpida
##JOTE
Ost
Angos
Lucio
incomparable
temporada
pales
zó
##PAL
reunida
ruin
acompañamiento
combatido
##GUAS
robustos
cubrían
insoportable
inclusive
Ñuño
##dremos
##xas
apéndice
forte
entregaron
gobernó
Peter
estudiante
Empez
Robles
cogió
FRANCES
patios
cue
gasta
Alman
##cario
dureza
Chib
tropic
Baños
fraude
pagaba
frutales
padecer
prój
frescura
GER
Phil
bende
##dano
##gad
adya
rojas
##ANTE
legiones
firmaron
lejanos
apoyar
académ
Mit
ty
cajones
herra
oficialmente
figuraba
##mith
sujeción
aislamiento
opone
##HI
##tegui
prestan
poderse
Gobernación
traspar
esperamos
encumb
portuguesa
eternamente
horizontes
confeder
viles
seas
##sebio
aquelles
Mañana
dejará
Bole
usaba
Moya
organismo
egoísmo
PUEB
normal
discordias
Mex
garras
despedir
inspiraba
meterse
Cualquiera
apostólico
##gineses
adiós
##itando
Alpes
275
Impos
cuántas
prolongación
QUIJOTE
empréstito
E1
aqu
gü
who
residen
espuma
##ensor
teología
rojos
##ENO
empleó
Gracia
escepto
mensajeros
MUNICI
dle
##ss
##pando
##teis
ingres
terio
mercurio
olla
236
eclesiásticas
prevenciones
envuelta
monopolio
perpendic
lencia
invari
##quedad
metá
appro
soles
conduciendo
juzgados
diferen
dividió
sufrimiento
Diz
Taba
TOL
##abá
##guín
trian
crian
pintados
Ordo
ponerlo
##tricas
Empero
##plicas
melancol
fertilidad
Ati
Aman
Cip
bigo
##ñen
##icano
verbal
presidencial
facer
animados
construidas
ocurrencia
Negrete
zarzuela
Suecia
episodio
Patagonia
igle
rumbos
incal
Espi
Marte
particu
Export
permanecía
Tuxtepec
Solano
guitar
farol
rompiendo
Amigo
gando
##Ã±
##enario
conos
Alex
262
imm
recuerdan
##cribir
Disp
nervios
divinidad
otoño
##EM
##TAR
##inares
deslin
podi
confuso
conozca
frac
252
##ILLAS
curva
mencionar
consignado
incompa
Observa
Homero
Neza
biera
##dy
corrob
Red
chin
justifica
desagüe
REG
290
retirándose
simpati
utilizar
Basilio
valerosos
tertulia
compreh
Evora
Jan
Plen
estrada
participación
ejem
enemist
obligaba
239
dedican
dirijido
bitantes
alzamiento
intrépido
pist
##lones
##ceos
desti
obligan
saberse
229
domesti
##ISP
aventurero
Guadalquivir
##varse
##locu
##medo
##velo
capite
falto
##tanas
aparatos
253
aras
rescate
espesa
dudoso
agrada
Come
tinte
Cayetano
Contribu
cén
ronel
##eridad
##iao
sermón
consigue
227
Goya
Noticias
Dn
grillos
yuca
exas
mantienen
cousa
valiéndose
Tehu
Polonia
aplicado
períodos
Ulúa
decisiva
##cimento
estampa
cortada
menospre
offer
frí
afanes
cuadrada
Señoría
coleccion
Bella
Huás
gobierna
disponiendo
fusilado
caminho
Sultán
lid
##sales
##DEN
##ortes
concha
dels
revis
##coes
debidas
causan
bander
bandas
gustan
dorados
Escobar
atrinch
PAL
aval
moria
##ñeza
almi
prontos
ambicioso
consulado
prescindir
inesperado
Tig
patro
deliciosa
##versa
dag
plaga
representaban
aceptación
Resta
rindió
COMER
cable
dico
fici
##lora
enro
##iata
despó
hallará
arranque
Faust
monasterios
prolongado
anochecer
reúnen
CLAS
Siguiendo
ritu
coal
batido
crean
enviando
preparada
XXII
artesanos
MEX
encerrar
diverso
complacer
VENTA
estraordinaria
Tarapa
cabellera
##linas
paces
Casti
##olucion
Covad
Tejada
manifestaron
brillan
Romanos
cunstancias
sofocar
perfidia
nión
##chero
##ezo
Alon
montón
informar
suntuoso
odioso
Gamarra
clu
uf
##tear
muriendo
maña
precur
##iantes
creden
Arz
sentimos
atrio
convino
315
anunciado
DIARIO
previamente
Plu
esses
mole
cercanos
Cartas
Montt
pintadas
colecciones
resueltos
aficionado
escelente
Mauricio
SUSCRICION
lámina
Manufac
Pine
##urando
##EA
##RON
##VIII
metr
pedra
pagó
acontece
Bellas
Murvie
despertó
barranco
análogas
fatales
evangé
Gloria
Olot
vue
##cidades
disi
dentes
leyendo
reducidas
Camacho
Batalla
##LOGO
vuelvo
##TIVA
avanzando
adoptó
viveza
acuerdos
estribos
Ach
Malo
##jor
##uedu
soport
autó
encontrará
apartar
secretarios
orij
XXI
disparos
Cueva
Nan
##giado
aspi
##caro
decencia
concurrieron
violentas
devotos
tornar
artificiales
habitual
ém
desv
designa
but
opor
fami
258
descubrieron
243
Monteverde
elevó
imprudente
Artículo
tubo
##PON
Anas
##iesta
vago
Sotoma
quebrado
major
trimestre
JENERAL
PAD
##rísimo
##vig
macho
predeces
Alli
calibre
hubie
##ERES
atenta
desaf
podré
tinham
LEY
fól
jeto
##ctas
##plo
Estu
viudas
hoc
Repúblicas
Capito
colocan
Recor
sencillas
LIBERT
hembras
desle
enten
depre
espacioso
remedios
##cadero
catedrático
Ulloa
##raca
##tuosidad
##urn
orbe
##guilas
sentim
tapa
vastas
enterrar
echaba
Ilustrado
significado
catalanes
siniestro
párroco
Flo
Rum
##aa
contestado
líqu
remun
Conserv
redaccion
reservada
rivales
Cantabria
Mui
lap
##lah
pasará
variedades
Manrique
238
vasallo
interrumpió
Continente
doméstico
emociones
Abajo
üa
expos
impenetr
adm
fijarse
##izaciones
virrei
invol
244
consagrar
dijese
Alarcón
colombianos
Bale
Dam
fig
##the
##bamba
##treros
##uste
viesen
hubiéramos
botella
libertar
considero
obligada
viniesen
ausilio
adornan
Universal
Excelencia
temeroso
ácima
cali
maldito
contri
bordes
probabilidades
resueltamente
arrastrado
Concilio
OS
event
oon
raba
rías
##inc
alqui
caía
##vesse
sustentar
imperiales
Ocaña
Orig
notario
recre
barcas
dominan
limí
licores
escape
Sabe
DESCRI
esforzado
científicos
calamidad
residía
usté
Iquique
lam
parentes
interrupción
fea
arrojaron
sombría
navegable
consultado
Magno
entienden
Huerta
Carvajal
##og
passado
##acán
##oluciones
traslado
convenía
atacados
##ette
moderado
Empresa
mencionadas
ayudantes
pidiéndole
acumul
dogma
molestia
Coimbra
##ws
diaria
##tosos
Luís
##endan
apartado
labrado
intenta
recorrió
Vati
fanegas
labrador
##ológicas
cansados
pilares
Aurelio
pida
##oz
unió
##daz
artil
presid
##ifique
sabéis
##liam
##tono
quedara
Leyes
profan
sencill
CUAR
palav
Comisario
Efectivamente
Tánger
GO
Nilo
oyen
##kol
cular
aud
duplic
boda
estableciendo
desafi
considerados
242
castigado
atrever
gundo
mensual
cocinero
Covadonga
pbl
tarje
genera
bendito
majist
fraternidad
##amonte
##deo
verdura
compens
bajado
maldad
alcanzaron
incontes
##PARA
suponen
yndios
telégrafo
tremenda
Bene
siesta
entendía
conson
entregados
##orth
buscó
adquiere
hostilidad
perfume
ultramar
adivinar
laberinto
Oruro
Lamas
ari
dolo
if
##émos
##citas
##tive
delicias
leis
##cionado
##itro
solia
compró
lanzado
clamor
Digo
##paba
triple
convencimiento
encargada
256
##TERA
rostros
deberían
extrema
Mejor
Nieves
Ano
##DAL
porqué
cabras
Martes
##ney
guis
##áronle
VUELTA
cés
estrépito
animos
##veras
##igny
Mois
conciliar
REAL
proceden
Cantón
cifras
tradicional
Lem
PP
pré
Arte
quinientas
declaraba
colocaron
marcharon
emancip
lentitud
##anco
cuasi
corrup
hoya
autorizados
diversiones
homem
oportunas
verosímil
Parroquia
Juzgado
Ugarte
Balmaceda
##ierre
reple
Manus
Barre
escogido
memorables
holandeses
tidos
##lín
##andose
porem
corrección
##ubridad
tiernos
vocab
ruda
sufrag
guin
ligeros
retroce
LUIS
paternal
riego
##rial
contrati
decididos
Diablo
diferenci
States
desempeñó
alteración
aproximación
Tlascala
brar
sito
sont
seguidos
representacion
primitivas
alemana
satisfecha
bayoneta
mezclado
Cruces
mínimo
vírgenes
Ojalá
dea
##allas
##reu
##itó
vila
osado
Bajá
rencor
Acom
homici
vísperas
Cú
pilla
##illar
##tuo
##ársela
variación
241
madri
Hotel
##DEZ
pecuni
Volvió
Torrela
anglo
ingrato
artificial
confieso
inmortales
Tall
hen
##zum
##iernos
##viados
tratos
fundición
Cuenta
barbas
reconquist
##doras
254
Ayun
cautivo
precede
descontentos
lagrimas
##ñi
##alde
##inga
parage
persist
##ction
agujero
exclusivo
peruana
Déos
##CAR
##way
habra
##moso
Retiro
ambiciosos
atacaron
ruta
cometidos
mentir
manejar
antecesores
dependencias
corsarios
ns
##hado
##chel
calzado
##mann
preguntaba
declarada
Precios
discurrir
confirmado
##AYO
Pirú
Naran
Sp
##jamos
##stancia
pardo
abro
maridos
lejanas
literatos
distinguió
omitir
prolongada
diamantes
Sotomayor
Tr
cuevas
xx
##ÍF
calcula
principiar
planicie
particularidad
civilizacion
247
comenzando
261
Apol
reflejo
enseñado
atribuyen
Yucatan
vistos
BLAN
##BU
##esan
lamentar
##deña
Sania
##ériles
248
judiciales
flancos
primogén
yeso
##flores
alleg
reinar
pasen
regencia
reconcil
escuadrilla
sencillos
frescas
coronada
derribar
enérgico
Yndias
Cib
Dado
sevil
anillo
salvador
inscrip
guardas
horca
gobernante
carac
administrar
Obra
##DIZ
determinadas
llenan
rompimiento
Irala
abolición
Rancho
decisivo
Américas
##yera
naos
tivos
Portal
reper
Pav
trabajaba
Sagrada
##ragáo
Silves
rejiones
arquitec
interpretación
Comision
neutralidad
Funda
bona
##jase
##ées
cién
Cax
expensas
corresponsal
determinaron
auspicios
ensue
##ufra
disposicion
Almería
erudición
colombiano
Benavides
publici
##politana
##udes
queden
cuente
locu
pueble
formul
Cole
aseo
264
cómoda
Zapo
precisos
mejicana
victorioso
efectuar
cero
drid
##EMBRE
##chera
sobrado
cousas
despres
creciendo
agon
leyendas
##REZ
guarniciones
acaudi
Buenaventura
sucumbir
himno
Carrasco
Frontera
Murviedro
bí
##vaban
##JOS
##guero
perecido
##egro
daremos
##pujar
provisorio
Milán
ticos
tór
##damos
paradero
primaria
##bléa
participa
##estiones
sentí
fiero
mengu
circula
complemento
Cela
##ísticas
apoyada
Tribuna
germen
desmay
oferta
##pom
##ñes
sepan
Suma
cumpliendo
246
consiguientes
digamos
convocó
antojo
máximas
jentes
altera
##une
notarse
legado
perez
Set
púl
invadido
tenacidad
desfalle
TERC
Melgarejo
6o
Elo
diálogo
versión
quite
denes
att
##sose
brecha
257
pagaban
prescindiendo
##zándose
corne
Introdu
valia
cediendo
##cedían
victima
arreci
examinado
aguardaba
guardando
indiscre
injuria
GEOGRAFÍA
##túa
reden
cargadas
soñ
alcanzaba
265
267
significar
desconocer
Vasco
Castañ
ocurrencias
Huáscar
Yan
igno
##cierto
##abro
##tifi
protejer
tradicion
Vaca
Joao
suplir
congreg
Dorrego
calificar
Prob
Organ
268
obstru
clavos
Llegado
peregrinación
nuel
##enque
asan
ciado
cantan
volup
Pay
caravana
impedido
físicas
sensacion
inveros
##quisaca
##TADO
preve
##quías
bande
labio
cobardía
gramática
Villegas
Tacubaya
Ojeda
##HO
anate
##tellas
ceniza
gremio
Bonifa
injuri
dramática
barato
##ient
##LIO
dique
tant
corno
Alteza
hablaremos
extremidad
Nevada
aprovechó
Guarda
PRIMERO
Católico
Tineo
alabanzas
Expedición
##avent
##pido
sobrena
##ambres
Parti
temía
anciana
atraso
MUR
hir
Ín
##gales
##aren
engal
##tuarios
percep
##vega
salta
necesa
minero
afin
arrojan
Sagr
escapó
##ROSA
equipaje
calumnias
túnica
gerogl
##iadas
##cions
obrero
solitaria
##viam
##érsele
##tament
ministerial
fundados
272
##huma
durm
330
Castropol
azotes
efig
hilos
maniobras
Agre
Damas
ham
comme
diante
levar
perte
resbal
March
calcá
288
probidad
cruzada
promon
ocuparnos
prohibición
zozob
acusados
inesperada
FRAY
atrincher
ATA
aix
cados
nna
##lias
teja
trém
denun
estarán
alegria
plegar
##islao
Ruy
Jueces
acusaciones
aya
rados
##cleo
##hen
atten
Mote
rompieron
disparar
apellid
Samuel
Maracaibo
Moisés
pado
aspirar
##ambú
valía
##ristas
intensidad
Virgin
apelación
comprenderá
QUIN
africanos
varonil
castas
##urales
luchando
caliza
defendía
escribo
ENTRE
administrativo
PRIN
previno
disculpa
companhia
confiesa
navales
Smith
sonó
##RIN
mingo
Siria
arrojando
Quil
##guem
differ
276
concibe
Pueblos
encomiendas
sensaciones
Domín
recomendación
Gutierrez
enarbol
Echa
ola
##dina
##ditas
paraíso
ciente
adv
##andú
regimientos
desaven
consideró
encaden
gachup
sueltas
confirmó
Horacio
HAB
Ruf
Stan
oa
cujo
##dena
##erne
##ábrica
senhor
joya
fou
Eusebio
quemado
aumentaba
espirituales
contemplando
ticular
Recuer
Gro
Ná
buscaban
cumplidos
aguer
Alfredo
prolongar
oíros
defendiendo
Situación
Ko
rentes
##OLA
##catl
##itable
brevemente
paisa
307
##quillos
convertida
Terri
carretas
##riega
embarazo
Fabricantes
desacredi
Boyacá
hembra
##idem
diria
faenas
Chinch
Cavildo
ordenando
subven
##ábal
285
empezando
atreve
Hub
Lí
Pío
pampa
##mm
##jun
##VOS
##rela
intre
residente
ill
supresión
281
procedido
insignes
incremento
esplicar
prodigiosa
resguardo
Mire
Tron
exec
##vereiro
peores
juan
asedio
descendiente
convocar
CORD
Antigua
gio
zur
ág
##vamos
##foro
altan
comidas
##cuta
nifes
##g̃ód
diversión
extrangeros
NAV
Gomez
metralla
CL
nadas
ope
##feo
entu
caño
minos
Cumpl
cuadrado
pasajes
concurrido
##tificaciones
Acuña
apasionado
Magistral
involun
conque
reten
culo
desierta
hallando
arroll
Pascua
navegantes
deberán
índice
patronato
encender
táctica
hemisfer
anchos
techos
tuyo
guerrilla
Sitio
subyu
filibust
Prín
NOTA
POS
utens
##abi
seré
tratamos
circo
Bello
##iéndoles
delicados
MARÍA
eminencia
oreja
equivalente
Argelia
tremendo
Genova
lúgubre
nario
roma
tamiento
##rui
##hem
latín
##umentos
##maseda
chus
##mendar
cienda
admirado
alimentar
alterar
tardaron
reconocía
lámpara
Cosa
cidos
rito
diser
oprob
anteo
padecido
radi
Chuquisaca
húmedo
Valentín
invisible
advocación
##ienes
Colo
acabada
##ástico
ALB
ladrón
dispersión
Oajaca
##hechores
lavar
estériles
descripciones
soltar
propuestas
quam
Chalco
Medell
Coleg
inventado
intui
secretamente
286
##grafías
agradecido
triunfal
precipita
mostraron
incorporarse
bolsillos
convidados
pendón
duquesa
ato
rezar
librarse
plaus
tardes
circ
transporte
310
Chaves
suponía
pareja
incienso
Editor
alcab
sias
casados
Alco
Concordia
baix
cercana
dende
cruzados
afirman
rigores
encantadora
trenes
Ampurias
apelar
##MÁTICA
FRANCESA
atado
bá
ópera
##ónces
ant
pagos
tenente
presidentes
##ENE
##mont
Romano
recordaba
ayuntamientos
funestas
Desgraciadamente
futuros
sutil
pervers
perdía
##ubre
yace
minera
##tame
viajar
274
cultivan
contenía
peleando
derrama
Guido
esquer
grana
imped
haberme
respondieron
Apolo
dedicarse
literarios
núcleo
fantasma
lias
nociones
aroma
mission
Santi
merito
situaciones
embarque
Mello
temeridad
Narciso
Apóstol
atar
##huela
##CAL
acuedu
haberlos
temblar
sacaba
durar
aguja
340
fallecimiento
aa
lles
mados
##cinos
##amien
remotas
##ólito
meridionales
sugeto
Sha
SUM
##La
##turers
mangas
presentada
culta
Toribio
Duques
quiénes
consagrada
velar
recogió
politico
##jí
##BLE
Aré
maldita
Navia
dispuestas
Volun
LECCIÓN
diluvio
Gambo
magna
proprio
CARA
admirablemente
##uezia
bestia
inmortalidad
escravos
hes
sales
##uia
##ft
dilij
##ienses
resorte
api
ameno
despi
monton
destos
suprimir
reunion
Mujer
legalmente
declaro
Tomé
##issáo
predicador
envueltos
8o
Aún
Zu
##ramo
diar
Altam
Concep
marco
VIDA
suponerse
variaciones
##abuena
fasta
riendas
##iria
##VS
##enan
proto
cortina
talle
testo
Saha
fonda
preparando
Ramiro
cordial
Mandó
gradualmente
Apa
Pit
Sib
miro
posto
financi
sentirse
Parlamento
grandezas
convienen
Tepic
249
destruye
1000
SANTAN
perdonar
fatalidad
pintoresca
deslumbr
NÁ
ess
##paciones
tomen
##itat
tarifa
259
pretendió
Hermanos
astuto
divul
infanta
dramas
empresario
preferible
##dismo
prolonga
imprudencia
puntual
cliente
benemérito
kilo
##ader
paró
activos
moti
postu
rogar
hicie
Junto
Berga
olvidando
celebraba
Canterac
limítro
defici
##lay
excus
compuestas
ambul
Domingos
atrevida
contemplación
dirijida
sostenían
inquieto
predicar
didas
gira
leon
mania
Nova
vence
Deus
Caja
falte
arrogante
constituciones
##fite
284
apremi
preparados
efectuó
Americano
hipótesis
juguete
SEGUNDA
aspectos
Venta
daron
porciones
mandadas
costar
sonriendo
nesta
encendido
fortunas
burro
precepto
DESCRIPCIÓN
##ijas
##giar
##idoso
##cheros
presenciado
calientes
##vant
Carab
cañada
gruta
famosas
vigoroso
pliegues
Valenzuela
Aguar
recip
##isi
salientes
repren
mator
cincel
prólogo
destruyó
sellos
alab
##terno
niñez
forn
persigue
##tale
305
Vich
robusta
Grijal
##rimac
##dós
##zione
##RUE
proximo
mudan
entende
vergon
mengua
Progreso
Proclam
282
agradecer
siervo
intentaron
circunspec
tadas
##ífica
##Oes
cazar
exca
##áng
asy
Santuario
abando
pescar
Paci
Camara
ejercen
266
Herido
guientes
consumado
DIPLO
abatimiento
ascenso
##epres
fiscales
Zedula
degener
##zir
##orga
mantenido
abur
mediano
##ionarios
infes
Sagun
suceden
##enciados
cruzando
ostentación
razonable
##nikoff
memorial
horizontal
reglamentos
déspo
CÁDIZ
Liv
Mensa
rer
ramente
sho
desco
perto
Carbal
##villas
##antla
romance
278
celebran
fallecido
comestibles
gatos
hachas
Valor
Barón
Quiñones
lances
desconcer
tumbas
1891
DIS
Pila
noci
pericia
apuro
rapi
milici
post
Mapa
filo
fracciones
273
Matto
estrangero
Geor
Quizá
cigarro
Viana
lente
Sanchez
apor
vijil
regir
Castil
supri
llevamos
extens
ocurría
##iéndolos
abate
vertiente
Siete
##eja
##juez
##enter
coma
lujos
##yotl
Nacho
publicadas
resiste
expresiones
jesuita
ordens
Babil
cem
##deu
marcial
Maza
honras
llería
clasific
religiones
corresponda
descubiertos
tintas
molde
satisfactorio
encarnado
Atlas
servigo
alboroto
SANTANDER
BRAS
i8
nente
súp
tario
##zy
##juela
##icáo
saliente
bajaba
ornato
tejido
##ecimento
conocia
bole
naturalista
banquetes
veintis
Tomó
oscuros
370
Escudero
peregrinos
Vila
tul
##tudo
cortinas
amones
Salud
territo
296
##TIDO
solicitando
publicacion
advertido
arruinado
compatriota
escandaloso
Aprove
Candelaria
##iares
##jantes
##temp
Entrada
Seo
cantó
Montaña
Bartolo
permanentes
gace
adole
procesiones
commandante
diversa
copiado
deserción
móvil
Bomb
Ventura
itinerario
losa
##ranzas
##ití
sazon
##ambleas
marro
reyno
rápidos
núme
loro
ui
##prudencia
##cico
altivo
manzanas
asent
marfil
cerrando
secretaría
padecimientos
Verin
repetimos
escapa
convenientemente
preparación
cobardes
Celemin
gubernativa
Nó
##danos
##ary
##itanos
País
ojeada
##utos
##adería
##inn
porfía
divor
##uba
volum
menoscab
atendido
301
269
271
renunció
desespera
patricios
Chorrillos
Llor
##úr
##CL
dilación
##atre
##toriamente
##izador
Están
contentar
reuniendo
quintas
pagados
tendré
divinos
mercantiles
cristiandad
besos
PATRIA
Xer
sci
##huel
##vantes
##charse
verte
salvas
recibimiento
Existe
atractivo
organizada
lingua
ALBA
exactas
facciosos
gorro
reverendo
Olmedo
desarrollar
simultáneamente
Cué
Laredo
Sería
degrada
##tul
pega
Lou
rup
ponerle
correj
Raim
solicita
fazem
##álogos
interrumpido
erigido
perseverancia
caricatura
ROMA
ion
vamente
##uimos
leen
sopor
escribieron
ganando
figurado
concedida
baluar
artificio
##hualco
clave
provision
depositado
mostraban
envuelve
ornamentos
##éronle
funestos
analogía
Protector
Leopoldo
##IP
altres
lleven
piquete
Vallar
nombraron
estuvieran
##tolicismo
detenidamente
indemnización
hama
##ÉR
lain
alco
docto
compl
##ficó
poderosamente
bastó
ilim
263
acompañando
Guaira
precisado
barrancas
mercader
áspera
repetición
Exportación
PRINCI
beza
##etes
##cord
altre
venimos
##manera
reciba
##tant
reconocen
Camargo
suavidad
remitidos
temerario
archiduque
blasf
naufra
Tito
enor
seño
lobos
Regen
##quanto
##iéndonos
##acáo
Inv
rodar
autorizada
extendía
construidos
queste
laborioso
insignias
otorgó
buey
rodilla
simbol
ESTUDIOS
samente
##cables
enunci
vengarse
Anales
candi
United
consegui
298
avance
peligrosos
extienden
nistro
Guayana
cigarros
semanario
inmensidad
Años
Llano
pinos
##peya
##quíes
haciéndoles
acusar
##itez
elevarse
alimenta
##ístola
Santana
cabañas
Lavalleja
Vm
tentar
##MANA
prados
##uella
pese
##íticos
Parra
pudiéramos
##RECCIÓN
magnates
equivocación
revuelta
oo
##áceas
##aní
envía
abismos
imprim
Marino
vai
Francisca
trián
Europe
Gamboa
Sis
home
##gaduras
marcar
christ
arroba
Canto
Mexicana
Ledes
Águila
##semos
##by
##pis
##chón
let
coyun
amer
##lice
cráneo
titución
CONDICIONES
prometer
encomenderos
prohibe
reforzar
cumpla
guardaban
láminas
disimulo
alternativamente
Ceballos
Apurimac
Aga
equidad
##enne
cuñado
salian
vindic
ocultaba
Belén
Fermín
excepciones
esmeraldas
impaciente
Afortun
Magestade
temporales
Biblia
Domínguez
Due
porcion
Redon
recado
1500
conductor
279
##plicable
quarenta
atorment
Cumaná
nobil
floreciente
By
Gel
Mana
notó
pequ
recelos
realizarse
existió
Oriza
violentos
lejana
Secretaría
férrea
plenamente
metálico
Firme
feligresía
Redactor
tima
##En
##jales
##ñaron
##oran
maz
obtuvieron
capella
tuxtepec
indivi
avec
CARLOS
equivocado
aclamaciones
verdugos
Eva
tent
enum
##imismo
##macul
solí
Almonte
traian
bodas
Calcha
suspendido
##CHE
heredi
ridícula
Acuerdo
serranía
Inspector
neci
##ucos
desver
##liza
autorizar
295
convertidos
Soldado
contribuyeron
desarrolla
portugue
confiada
arrebatado
convicciones
camaradas
ofensiva
suspiros
ER
##víos
povos
pasta
refren
Extre
absuel
Libre
rodeaba
advertencia
devoto
preferido
exclusiva
problemas
Angostura
##CON
sima
pasara
cintas
clasificación
Mercurio
Florez
Agente
nervioso
fondeadero
espontáneamente
Naturaleza
Celes
EP
##xena
##ÉN
##adir
ing
desqui
##peda
predicación
Seis
aflo
habitante
juzgaba
largamente
Canón
283
dignidades
ramales
apaci
encerrados
1789
ahogar
reapar
incansable
Hil
Tula
roso
papá
##mira
estrell
##field
Vicepres
ejercido
pulso
ínterin
Chapul
incendios
brindis
Antequera
Guinea
huido
##usiera
fronte
planeta
arroy
Dirig
contestaron
Moque
312
volverá
ramal
créditos
Padrón
púr
preocupación
bravura
Gi
LL
##bora
##ath
Elias
disturbios
cerci
Maya
traspor
levantándose
tesorería
Moro
comendador
287
vivimos
utilidades
competentes
benéfica
espesura
yankees
Lúeas
up
esce
##tración
carecer
trabajó
suple
conducción
respetos
comprometidos
horroroso
Henrique
Brown
guardián
sagacidad
Tehuantepec
Dun
ias
rador
##termin
Totales
Perten
289
avisar
325
musical
escarmiento
biografía
Alejandría
conlra
reanim
nous
Santia
##ESTA
hondas
visiones
contestaba
Cristian
impertin
llenaba
Político
Bret
Navarrete
trabajaban
Cuántas
gallina
vergonzosa
nam
##fue
contados
##dieran
parecieron
parcialidad
inco
coge
##cencio
##udillo
cuarzo
ignoran
dorada
rechazados
Erario
severas
barrancos
Ampurd
cirujano
Almeida
Jara
Pim
##darse
##pora
desvi
Indio
Cham
minar
Protes
##cidencia
277
apreciaciones
permiti
jurisconsul
prodigio
jal
##RENTA
caáyo
Congre
pescados
afr
apodera
transpar
peregrino
parlamentario
Peralta
cadalso
Dona
DIC
##gueros
aspiración
##urosa
denuncia
descenso
descomp
terminaba
333
sorprende
yerno
residir
Encarnación
desdichado
Silvestre
zada
##eado
##IR
note
habiamos
Maule
Caralam
convencidos
292
dobles
1801
##écdo
Rubio
AY
Bad
##Ao
##dosas
##ped
abuelos
ducir
inspiraciones
profana
cuadrilla
victimas
magnán
necesitamos
músicos
##entrional
sinceramente
gótico
Americana
incumb
indom
lobo
obtiene
propicia
Colum
##TURAS
imponía
ESPAÑOLES
cipales
Debemos
Viajes
superstición
repitiendo
Cicerón
##ciaes
habiéndole
crep
tomara
espediciones
pensaban
acertada
decretado
peligrosas
comparar
incorporación
impuls
pretex
exporta
##dulidad
graduado
moribundo
##gera
elabor
intro
##trina
espías
esposas
distribuir
Suf
##pular
proteccion
derrotas
republicanas
Prior
frialdad
alteraciones
atiende
Plá
controvers
Departamentos
Pia
ein
hidalgo
##nino
##mati
amabilidad
chic
seguridades
inmediación
celda
Senador
Linn
Triste
MILIT
Eh
pola
viñas
##cisión
Valverde
empleando
consideraban
gale
extendió
sép
occi
empeñó
mitra
protestar
previsto
opulencia
falsedad
Ledesma
nicho
praderas
Sepul
Cuy
308
Habrá
Constitucional
resuelve
rebaños
disimular
clásica
tragedia
conjeturas
idolatría
continúan
súplicas
Dorotea
HID
MOS
Puesto
##win
desval
arcillos
afron
303
balde
prosigue
demasiada
cruzado
pierda
fundamentales
incesantemente
cordob
##bú
##ray
habernos
escándalos
entregada
debates
Mario
faltaron
barrera
constitucion
estraté
arribar
poseían
Benef
característico
proclamas
anunciando
denominada
auditorio
trinchera
exageración
Oce
Sas
##reta
##idora
##istió
presentados
almacén
gorda
Administrador
conciliación
análogos
Faustino
FERNAN
Gram
##LTI
##vieso
comport
valerse
##ficada
hallen
fuí
gobernado
arrogancia
294
Montea
preparaban
esponer
flujo
eslá
espesos
expulsión
bruscamente
Grosso
convocatoria
rim
##cci
##abos
##uio
desden
sobren
amal
##eciera
subieron
barri
horno
complacencia
fastidi
IGLES
##gándole
recho
leo
salada
Ind
intervalos
309
animada
Habiéndose
iniciado
rebaño
BATAL
Seman
molestias
atmosf
magistratura
sementeras
unanimidad
##urrección
monjes
vivienda
291
proclamó
Sarra
formalidades
Raskol
Consulado
Raskolnikoff
##ego
exen
##ulario
saltando
traz
##pugn
##jesen
marchan
1803
effe
Miramón
Cuerna
lógico
billete
Tio
rri
##ism
##itana
caciones
presbit
interp
##pila
justi
resultaba
balanza
Herman
Tarija
sastre
imitando
galope
melancolía
capiteles
Llu
##ars
##reinato
##telar
##ecos
##gusta
meia
pai
caricias
ducta
conocí
##RIQUE
inserta
##AND
podéis
ajena
rige
manejos
Céspedes
disciplin
destacamentos
##burgo
comprobar
diplomacia
Bl
SER
vina
##rus
quejarse
##tijo
##imecas
acceder
desplom
canciones
justicias
rodeados
Benitez
lloch
reaccion
Huay
tigres
descienden
limo
sando
##riano
alg
mutil
##cocha
seriedad
salu
tración
refe
out
publicamos
catar
Capitanía
conservaban
contribuye
Sabio
Piura
asombrosa
africano
trascendental
##eada
##rn
##11
##areas
##lau
curación
##iría
medico
análogo
partieron
Calzada
publicas
declaran
VIA
aconteció
Prensa
atraviesan
sacristán
silencioso
cohetes
dhos
##pía
##esma
Mari
faci
##gramos
boticar
306
##feos
simbó
ventas
##rumb
miti
##cesión
estoi
insub
Casim
surgir
##rédito
consumos
críticas
##misible
revestido
Manufacturers
Bendi
Cue
Jum
##inia
batió
calla
venidos
paloma
electos
viniera
asienta
avanzaba
484
arrastrando
follaje
carbonato
ciclo
mudanza
azoteas
exercicio
Forma
##nales
sopa
viril
teo
acude
dispara
##ebres
urgencia
aumentan
seguirá
conjuración
prohibió
aisladas
súbito
murmullo
Tremp
entrambos
MEXIC
Rich
##ñaban
anch
Capu
##itará
muni
defendió
sucedieron
corridas
314
##dale
defensiva
bajaron
bomba
condescen
susodicho
forzosamente
bet
cúb
efe
##yesen
##alan
esquinas
cao
cargada
tirando
Contiene
errón
Morella
contestaciones
preparan
CONTRA
entienda
Compañia
amplio
PRECIOS
Sábado
alcoba
asta
envío
seo
parra
tratase
Perdon
momen
gritaba
señaladas
emprendieron
Sabido
murmura
angosta
matemáticas
cús
##zábal
leerse
Alcan
causaron
fracaso
indicadas
380
aposentos
Llegaron
excesiva
##CUER
Bonifacio
##zamiento
##hué
##vadores
##cou
intere
llame
ocupadas
dominando
respondía
Cristina
disputas
patrona
Orotava
siniestra
Azo
##daje
##usiese
prés
debidos
coque
##éricas
bastará
supremos
adelanta
llevarla
Rosales
restablecido
incurrir
cuestas
Comendador
risueño
Capitulo
Somb
nella
##IZ
eli
proezas
##mberg
creto
convencerse
olra
acercándose
hostiles
lindas
1802
soledades
conversacion
Deg
Glo
ginetes
##jui
##enle
cuernos
poe
##lanza
##vela
sopl
culpas
publicaron
pertene
299
arreglos
precisas
Escribano
cofradía
cabecillas
cereales
Eres
brisas
cante
ede
insa
##cusa
podem
tuya
Arabia
##itarias
patentes
refun
guardó
térm
caracteriza
420
Sabo
despojo
apuntar
Lomb
Prad
Últi
prole
prova
manteca
cargó
sobremanera
saldrá
Cholula
Salcedo
cubriendo
sirviese
Hecho
simula
defendida
perfumes
intemper
concibió
Fol
Rip
##sio
recer
aptitudes
prestaba
salte
salpic
tram
##egada
Montero
##zose
justificación
Pozo
304
expedicionarios
aliment
##uriz
alfombra
Jacob
repentina
maron
##ñales
Ant
sabore
estáis
ahuy
afrenta
respeta
absol
Borgo
traducir
oaláy
JORNADA
Lane
##enco
contarse
##tist
estal
promin
obrando
##tarias
tiemb
Ordenes
tristemente
297
desdicha
torpeza
melancólico
episodios
Cuadro
súplica
Cac
Landa
dust
lán
##zona
##titos
##diga
simpl
arg
mación
salinas
peu
disensiones
vendió
Andres
gozaban
traslu
acudían
levantados
acercar
muita
alegando
podrian
laderas
Bruno
ENSAYO
DIPLOMÁTICA
baluartes
Caralampia
##fet
##todos
Marcha
negarse
estrepit
cuaderno
lanzando
dichosa
cortejo
Virg
erigió
##IDOS
Aranjuez
formidables
FAB
cás
##cm
##gentos
compo
soci
osci
indicaba
amenazado
enseñó
destaca
distinguidas
Turquía
flaco
PON
##mios
predica
casar
##media
##iase
monf
ofren
Campaña
##ráz
proveyó
escuadras
365
XXIII
Miraflores
circum
ventajoso
aza
##asse
aura
Maio
segundas
taes
Barbas
Jauja
balance
asisten
clavo
precipitación
Napoleon
Villena
campiñas
matices
Polo
vom
yas
##vá
##stin
torbell
Cali
313
atrevo
desaparición
fusilar
DIREC
carnero
AVISOS
tardanza
William
Crespo
temos
cortando
espí
cerveza
1600
baste
grandemente
supiera
Extran
dade
brío
operar
preliminares
Hici
nup
##cob
##LAR
##riesen
eslos
estenso
##ceño
caj
##ubio
futuras
caballer
terminan
dormía
bárbaras
mostrarse
efím
sangrientos
Legislatura
Tezcuco
inagotable
FON
Lunes
altiv
poro
estensa
rean
##isar
difi
caían
bati
repas
auctor
reconocieron
terminando
recorren
quisiesen
Urgel
prudentes
aconsejar
demonst
absten
Embaj
Roldan
arsenal
cautiverio
mental
##ULA
##üo
deterior
bajada
vocal
Calvario
293
navegando
sacaban
inclinaciones
hueste
##ERNA
Oliverio
monstruos
angustias
IMPRENTA
desinter
ORIENTAL
incógn
Vaticano
sencillamente
Dig
rurales
##úese
##fr
fallar
Paez
##iguieron
desconsol
castigados
Pancho
escogidos
ladrillos
Thomas
PROP
fortificado
vehí
Montiño
CORDILL
##xó
ars
sonar
interno
visorey
##teriormente
articulos
Hernan
MARRUE
permitían
usurpación
claustros
insolente
Ronda
SEGUNDO
##tización
TENEB
Higu
Pru
##andas
essas
##unión
paje
saliesen
perspica
302
permanecen
##DIA
reprob
matrimonios
consagró
inacción
inundación
subdelegación
SEÑOR
enderez
suposición
anul
compuestos
coh
socio
Ansel
Sucedió
piü
Valmaseda
escritorio
Cabrion
tirado
envolver
obscuro
##íbulo
Valdeorras
desahogo
jene
##ót
##yda
quitaron
tej
confusa
Josefa
##geiros
profusión
ganan
sacrificado
revelación
doméstica
obscuridad
insuper
incómo
##uítas
utensilios
FIN
##pidez
##ciese
proj
arcas
manga
cortó
Depois
Judas
producida
señalan
cuidando
sujetas
480
húna
Hungría
MARRUECOS
Pris
fí
nit
rácter
saba
lamb
inti
intel
##lamo
baje
montones
##gnos
vagos
##vismo
trasform
singularmente
chegou
preocupado
pisar
subsistir
Ribas
cabeceras
arrabal
ticas
secta
##garo
Alsina
temente
dirigidos
hacendados
suav
inep
Oliva
eligió
##graphia
apostólica
Pilcoma
1971
Hombres
resum
##cern
PorL
pedro
propusieron
librado
expan
##endado
belic
ocurrieron
inquieta
desplegó
ráfa
Mazatlan
Fad
entrase
##irme
##raso
Estero
sabian
pundon
offici
feita
Bajos
Coloc
entern
llevará
desenvuel
sorprendidos
Germán
excitar
advirtió
hectá
ouro
##xar
despar
##venido
mona
Maiden
Cuándo
Lucia
conducían
suceda
pretendían
adopt
##tológ
odiosa
Arana
espontánea
pajinas
Sier
ní
##MEN
##ongo
##ondr
end
conex
sejo
##ded
Deci
Deum
##andía
fijando
llegasen
distinciones
apoderándose
Brus
##cediano
White
medicinales
Call
LUS
Ox
VIC
vade
##dao
versa
vais
matas
varía
templada
##huas
##tricos
desaparecieron
penetran
gorra
Telé
sellado
TENEBROSA
Hy
UR
alias
##tulo
llevasen
configu
##dorf
##TIS
prometía
ARCH
educado
##amanga
cumpli
agotado
alucin
absorb
##edicto
despresti
púrpura
Dada
FR
Ihe
Rui
##ful
##ancio
parten
##isti
privadas
cerv
##vania
ondu
amenazada
característica
bajeles
clamores
medicamentos
Aboo
Gama
##ccio
##mona
##ánicos
entónces
more
botellas
critica
marchaban
Mercad
Sección
contenidas
desnudez
pasear
mantenían
##ipotenciarios
británico
We
did
##tha
alteza
dicción
provistos
jugando
##ligencia
servirse
plantaciones
cartagineses
##illero
obedeciendo
escesos
SUMARIO
##ñol
pap
Debo
fijas
Naval
langos
311
colocando
derrotó
despacio
campamentos
335
cuánta
congregación
Monserra
herrami
Obl
Roc
##tándoles
##onda
enalte
##inó
impel
motín
herma
encono
juntaron
reconh
obligando
sucesivas
despejado
restaur
escandalosa
SIGLOS
FEL
Tus
gación
rusos
ell
##tec
reso
Sancti
tratarse
amig
Inquis
ordenaba
cuerdo
trechos
aumen
319
designar
excesivo
intervencion
múlti
panteón
Capitolio
Jur
Uribe
##rensible
##dillo
desse
nacida
Santam
destina
Suárez
peli
juzgue
rosario
##gües
316
EDU
Gam
Sosa
gular
##trante
aclara
Entró
vegas
Aná
Leandro
conveniencias
escrituras
##tíb
contrari
repartidos
probabilidad
##areis
Senadores
Princesa
fiebres
distraer
hermandad
Avellan
Castañeda
Duarte
Um
##gros
##HA
##ast
##uega
lamp
##chtli
##vola
##gni
rección
Metro
##tlil
protestantes
escalones
Escuadra
Niebla
viviente
sospechoso
opresores
Bec
wal
saltó
despos
liberalidad
arrodill
cobra
séquito
aceptada
vestuario
##yrre
incertidumbre
orijinal
tiembre
poste
##riola
envile
acompañaron
pronunciada
remover
parejas
London
veloz
Aguascal
Ampurdán
Biv
Dob
JE
##hores
##janos
##alar
sexto
##chil
simo
obran
complica
calendario
sabias
cierran
Lejos
criti
doblar
550
Cochabamba
exagerado
arresto
Mahoma
3i
Coc
Pien
##eiros
##flo
##adado
##dería
cabida
mere
sistem
ajentes
321
desempeñado
inneces
impotente
dehesa
opo
##iando
##FOR
rebo
diarias
entretener
collo
sentia
##ciosidad
inmol
ocurridos
##CAMA
despedirse
disposi
anuncian
##ondeau
Michoacán
Patricio
impunemente
list
sencia
##fens
recepción
resortes
nacieron
verás
trabas
voi
juzgando
citas
suavemente
recoge
protegido
Apuntes
intenso
ALGUN
Solamente
##xochitl
aleja
XXIV
compacta
fenicios
disminuido
octava
arenoso
fósiles
GAR
SR
bie
nicip
##bri
sintiendo
Compa
oficia
levantaban
contraban
evolución
Solis
324
SUB
disputar
pañía
ascendió
incorporó
marquesa
avenida
plenitud
portancia
nutri
cartuchos
Arzua
Monteagudo
NI
nerse
##lanca
forzar
termi
vocación
taza
temia
Capitan
consecuen
##EZAS
emisarios
penalidades
Oñate
Celaya
##yá
Eliz
prestaron
saliera
adoración
##endien
rectas
supiese
estremidad
despachado
MAG
adornadas
sunt
Nordeste
incomun
diplomáticos
anuncios
ste
##berto
##pri
suo
##raz
desd
resis
Alia
volviéndose
plate
insens
guerre
anticipación
caballeres
extensos
juega
guias
rechazó
murmur
rubia
paralelos
Medicina
Sagunto
altivez
Mona
tara
##inilla
inel
loe
Market
##tane
producían
fracción
danzas
suspendió
jenio
Carolinas
identidad
yankee
cúsp
##tén
##tria
##esos
sedición
pereció
tengamos
cascada
##rerías
celebraban
ingrata
refirió
Comandancia
Alegre
Alo
óxido
##ning
arom
debíamos
##ally
ideales
constituían
acabando
competir
Nuestras
Ilustre
gratui
naufragio
metaf
garon
##zgos
comiendo
mascul
cortadas
Comien
##ciller
esperó
temas
adelantados
pretendiendo
mexicanas
fusilería
Chiri
reemplazado
Governo
pedreg
flaqueza
refiriéndose
faro
hera
nina
##LADO
##ilis
antí
prado
mañ
casual
##rutia
valga
Frank
botin
pelu
Balboa
##aux
chegar
aguarda
aislada
severamente
campesinos
desplegar
primogénito
Arévalo
VV
fia
nef
##ímo
##ão
##tione
inad
exc
##uses
asquer
mai
pugn
##RACIÓN
funerales
male
realizó
##brada
recomienda
##arela
enerjía
predomin
Istmo
cabildos
AGU
entidad
pagas
lleguen
pedre
Bail
extracto
##embran
desaparecen
Bayamo
clásico
Algeci
Tí
guel
rui
vici
##zen
lamenta
inus
manso
preemin
presiden
empla
##iciaes
numer
vine
##huatl
asiste
323
imagina
imaginacion
paralelas
combustible
Orizava
Cuernavaca
Saban
auer
jando
tilla
##má
portador
##ige
prestados
contraído
demócra
munici
humill
usá
abandonadas
fabrican
provoca
resplandores
mateix
cambiando
octavo
convulsiones
arzobispado
chimenea
ignominia
##fiteatro
Amo
EU
Rs
máo
##uado
##GRES
anon
podra
aure
contraer
merec
morro
demar
esperado
extensas
viviendas
turbar
fango
Senhor
supongo
procuran
adornados
catalán
festivos
guitarra
Torrelavega
Pilcomayo
##DOR
##atar
asse
darla
##ábale
proveerse
destruyendo
pusimos
vireyes
rinde
mezclados
orgánica
desventura
Cadena
caricaturas
refugiarse
Considerando
cráter
Ensayo
DIST
##tain
regar
##itaban
carencia
repul
senten
Leal
riel
Pelo
patrono
tornó
edificado
urbanas
intelectuales
plátanos
rocío
Nel
Ntra
##dus
##mí
##quet
case
tulo
##cell
amorosa
Boqui
ejecutada
garita
resistió
recoj
instruidos
331
amaneció
fragmento
temblando
trabalhos
exije
condens
Satan
gim
vál
endu
habíase
termo
##soes
tech
decid
##uaciones
Quedó
entré
Cofrad
ediciones
voluntario
obstinación
admitida
tribuno
epita
penetrando
Burdeos
venganzas
750
Antofa
secues
Semejante
Virginia
Anselmo
Alas
mie
pía
##nero
##NE
serle
sobrina
especul
templar
familiares
satisf
indus
multas
Negocios
né
zon
##PU
congo
diad
siembras
##guidos
obró
presteza
##jeran
##bot
Isma
RECUER
318
indicando
amenazando
Math
##imenez
brota
atribuirse
ATACAMA
Largo
iv
deo
##omia
comet
preb
trama
##bach
intervalo
acudido
pudie
fraccion
inventar
##ologia
nume
ejecutados
voluntades
##lement
intendencia
336
fatigado
desorgan
reinte
plenipotenciario
reelección
alabanza
Noroeste
Ulti
vuela
##medio
Arjent
rotos
tiernas
##ANI
ignoro
procuraban
titular
capitulares
confunde
efusión
Astorga
aconseja
absurda
dramático
PASO
mestizos
Manzanillo
nir
##mor
##viere
##ision
peripe
casca
Repar
interlocu
Chun
temido
arrojados
ganancia
respecta
Tortosa
repartió
censuras
aproximarse
##ALIDAD
##politano
vérti
arquitectón
arrecifes
Pera
hál
tiz
unieron
manjares
abuela
Sete
face
visibles
##ROBA
figuraban
Gallo
responsables
Olivares
inició
Voz
ensanche
##cillería
Acompañ
Bir
EM
auian
drag
ege
##jé
altiva
notan
##gur
##tare
intermit
cantor
##postería
malvados
merecida
patíbulo
irán
reparto
334
fusión
pañol
Irun
cuchilla
esculturas
Tibur
##IFICA
Boletín
LUSIT
Cuesta
Fortuna
HU
sres
##tris
##lat
anónimo
maca
##ube
Refu
mesetas
##regado
resisten
prostitu
satisfaccion
ESTE
Menéndez
Religiosos
colegial
estrope
usurpador
Bazaine
Chibchas
adyacentes
TOLEDO
mentar
##llano
delgado
abría
##ioni
cerse
agitado
##ONSO
distintivo
ejerciendo
imposibles
Cartaxena
escoger
músicas
Colonias
revelar
serpientes
arbitrariedad
Ayudante
radiante
pundonor
Ejer
##rien
##digos
##isado
##ueras
anécdo
cavall
##ezes
##viada
Unicos
Aquello
Informe
faroles
Bonilla
amplitud
exemplo
compensación
FER
albar
serem
##icaciones
dudosa
Arco
trascurso
publicando
ínteres
arrancó
CORRE
Vieira
análoga
huérfanos
cuentra
carcajada
GASPAR
acaudill
Cle
Lobo
Oidor
Vide
atin
bec
saluda
adora
captu
collar
##endiese
cejas
trasportes
suplica
olro
Bour
joy
llevarlo
simpática
##ponerse
INDI
representativo
Beltrán
reflejos
390
consume
perdone
empresarios
pirámides
MILITAR
Aur
Ye
fane
##jeles
##parse
##YOR
##secu
Redu
califa
vendría
tiendo
agol
##vidor
Pays
subteniente
bastado
bastaría
encargarse
sorti
decretar
representó
eternas
remor
engalan
lian
ted
##fel
##20
##real
manan
candel
##RIE
expuestos
fechada
ejérci
##gers
gustoso
Alejo
observada
progresista
hostilizar
económicas
desertores
pescue
Texas
ecuator
Om
babia
##áñez
enve
##coco
##iman
##imán
espina
medicinas
##caria
dejasen
opusieron
Mix
padece
aprecia
Beni
337
Oliveira
Cuántos
VIAJES
use
andas
viña
tienden
##alaya
refriega
declare
perteneció
extendido
317
cultivado
proclamación
respuestas
Sabemos
cochero
democrático
manufacturas
prójimo
Vicepresidente
Ina
##zuelo
##leños
##imar
##lang
forga
##éricos
hordas
habitado
lijera
lanzaron
alegro
gloriosas
440
Tolomeo
ilusion
discreto
festividad
esenciales
silenciosa
arrabales
transformación
pistolas
MURCIA
dras
vem
ñores
##bis
##fri
##DRA
##eram
##asco
ancla
hechura
Papel
asistentes
aprovecha
sumario
insistió
insertar
forasteros
préstamo
clerical
preponderancia
valentía
púlpito
Cy
Ez
##úd
##ticamente
##chal
##uesa
obraba
tendió
##eroso
interinamente
Juanita
Cast
meras
tañ
beliger
ocultas
ocultarse
desempeñaba
conteniendo
patron
alumbra
modales
Ixtlil
avaricia
INSURRECCIÓN
Cues
Kan
rir
sena
##brar
##flu
##udada
encontro
frentes
atacada
Jaca
armó
declarante
ejerció
célti
afecta
alejarse
escopeta
recogiendo
Prat
Gomara
##ímetro
desengaños
legitimidad
Bermejo
intrepidez
Voluntarios
Grijalva
Somos
##pió
nocer
misino
pavo
##quitas
camisas
pesaba
##endí
Leguas
encontrándose
pension
guantes
375
aprestos
informó
calavera
guirnal
susceptible
Afortunadamente
besar
##frar
##çia
##andad
sucio
profer
Laure
##tense
##ambla
##quines
turas
Republic
plática
##alidade
##ets
ESTADOS
Tesorero
muelles
escaparse
legoas
Defensa
Marsella
Otero
##hab
apli
##videz
malde
palco
##grafi
afil
Betan
Infantes
limitó
atroces
desperdi
Ambas
Briceño
ornam
plebeyos
CAMPAÑA
Estéban
pergamino
PADRE
desinterés
HAS
didos
lata
##undi
##dat
disidentes
infiel
palomas
incru
podamos
avisó
Balcar
fundaciones
tratara
cortesanos
Treinta
evitando
antagon
SALA
##ean
##cros
anón
priesa
quitarle
calm
duvida
Machado
##itacion
defra
Tele
rial
separaba
descargar
PERIO
reformar
cilind
puntualidad
emboscada
desastrosa
renglones
tades
deán
##irs
meios
##court
ciembre
apó
Esla
Regla
trazas
volta
##dicción
franqui
##celes
sesion
huyen
Pasco
proporcionó
estimable
estanque
consisten
Tlaco
conmoción
erigir
Figueras
inofens
Hispan
pessoa
termómetro
intimación
subordinados
Thouar
opa
sáti
##lón
##dáo
##émonos
algaz
##olia
tots
toled
##veu
sagaz
bachiller
quia
monges
hallase
sostuvieron
errante
Panuco
##gueses
habitacion
brotar
muchísimos
exterminio
abejas
clandes
n3o
##jentes
detuvieron
##estas
##intes
##tita
cafe
infiere
##uacion
##tamentos
inmem
caballe
guida
tiradores
327
observaba
aguardando
mentiras
Simon
disfruta
corrom
cipios
diabó
aclarar
Imposible
Pira
hortal
tlas
uste
xi
leza
activ
impera
##posas
elejido
hornos
situarse
##ings
repartido
##tedras
nomen
salvando
siervos
edificada
impugn
Acevedo
poéticas
Levante
Gij
LAN
pito
##arda
##raje
##ínea
Loa
Existen
contiendas
Soldados
taberna
##issimo
traducido
luminoso
benéfico
imprev
Sidonia
Bras
Liz
Vio
idio
mama
##éres
##GAR
paris
##dere
saltos
cerdos
muertas
seguras
asegurada
empeños
empeñar
lluv
1793
presupuestos
científicas
Estadística
COB
ete
##días
##pren
prestando
puj
trasport
llevara
Barco
reconstru
reparos
guiado
tiró
quedarán
remoto
farma
amplias
esparcidos
afluente
inflexible
sá
##cadores
inol
inher
ditas
carecían
batirse
embesti
##quese
supuesta
admitió
Precio
##huano
seducir
Aparte
Adriano
cabecilla
convite
comportamiento
Ly
Sic
Viene
gunda
yr
estabilidad
procedía
Alpujar
viembre
expedido
amenazaban
oratorio
ARTI
Rivero
preferente
Intendencia
descuidado
cívica
transeún
HUEL
VERA
fensa
##dino
soff
hacerlas
aparta
##celi
condujeron
callejón
Habla
plataforma
Quiso
instruccion
Terán
bebidas
sólidos
radio
MUJ
atrevidos
##hyba
pirámide
Eterno
dora
grada
hob
##ualmente
##jona
##volo
##gote
##pela
mantu
Miércoles
Pueyrre
titula
engaños
Planta
Gomes
inundaciones
portuguezes
gencia
##fon
reha
sigo
##vacion
sonidos
decoración
realiz
##ileo
##fijo
reconocidos
they
íntimos
espectador
patriar
peticiones
sólidas
exaltados
intentaba
halagüe
mulatos
suministrar
Mamed
Combate
freguezia
CORDILLERAS
naba
##reste
cascos
abis
Conquist
repel
minería
emana
Barca
constituía
condenar
malogrado
peregrina
substancia
Ty
epi
Éste
##MON
##áramos
##útil
##icies
aserto
tendidos
##quila
quedé
345
engaña
bebe
aquéllas
lágrima
confiando
palmeras
GEOGRÁF
capellan
delincuentes
desvelos
Fundación
Babilonia
Menes
yu
##alá
##unciones
profec
paquete
august
Cher
agasa
comprendidas
descons
hallazgo
328
sostenimiento
Adela
ocasionó
almend
irritado
sillón
Goyene
declive
Aguascalientes
brib
##bá
##iens
##viales
moza
nostra
mareas
bienavent
postura
Chantada
temen
Saltillo
edifi
##antina
ministerios
inmoral
correspondió
##querías
juzgo
reemplazo
contradicciones
pantalones
inquisidor
milicianos
Chapultepec
algazara
Gru
ava
fs
##VEN
retó
leves
cordel
pegar
libró
regim
anticu
botica
Bou
padrino
332
educa
acreditar
veintidós
Agencia
asoci
urbana
##ENDAS
necessario
penetraron
potestad
autonomía
Familia
Hí
oi
rienda
##BAL
##tiem
habrian
vendi
allende
Monroy
atri
coraje
Alfaro
divier
despojar
ocasionado
vidri
Tesorería
Barbastro
Rhin
vando
##pha
##icado
caros
cote
defienden
Sacerdo
invitado
lanzarse
orijin
vigente
Berna
acostumbran
entendió
esceptu
Clavi
deleite
##racenos
EDUARDO
camente
tida
##iques
##ctar
##joles
sota
despide
canje
haciéndolo
##iram
décima
bram
##olote
Moros
órde
Garrido
contigua
disminución
equipajes
paraguayos
inmoralidad
Saboya
PES
Sh
tém
##gano
lal
secua
serve
##éne
##anaque
tral
ciudadela
##íng̃on
Arri
goz
considere
ruña
##ásticos
avisado
doradas
Thiers
esperimentado
ojival
Táuo
##fuegos
##íbal
##anga
estío
exuber
##torial
granje
Portilla
##renos
razo
torne
presentase
##telol
publican
renomb
Cerdeña
rincon
resolucion
gigantesca
anexión
caverna
carnicería
Dinamarca
brero
its
time
##utica
perador
nato
presidi
tray
calent
mayora
trofeos
Cou
vinte
combatiendo
326
351
felicitaciones
##émica
monumental
volvamos
cargamento
Testi
tero
vendo
##igado
cipe
Cardona
emblema
fundir
gozando
Moral
1805
1804
Neu
##QUES
oprimidos
populacho
Terminada
adecuado
Fá
Lator
Oidores
Tabo
trig
##sima
lamentos
##vou
coto
tienpo
tuvi
dejarlo
Quinta
Balles
aguada
Ernes
Caballería
ESPAÑOLA
Troya
protectora
esceso
desarrollado
desfavor
febril
COMERCIO
Semanario
Tiro
##ede
##BRI
sita
habitar
sobrada
salve
marinas
Reci
puños
Maca
Caudillo
ofrecia
circunve
352
Aquellas
apreciables
huecos
esclarecido
parentesco
2º
Aut
homo
##erda
inalter
cayo
prendido
veréis
salgan
veta
fajas
##gosos
Gober
reunían
térmi
cober
turbación
##tzalco
348
celosos
dedicados
enseñan
perpetuamente
artísticas
fantástico
Jerusalem
desbord
durmiendo
vó
##hara
##ppa
##VÉS
##hoy
##ponen
ofrenda
Amen
Nuevas
conservarse
sembrados
liberalismo
vehemente
chaleco
pilastras
regeneración
Archipiélago
Hume
Zamb
hui
sombre
##TT
##astro
##incha
propo
##uscos
apr
esposos
##orato
mercen
ganancias
continuaban
turco
procurarse
propongo
Conforme
geográfico
magistral
regalado
Cuervo
pedimos
indulgencia
hablemos
liene
tador
##tola
entrist
esplicación
preser
máscara
##veros
sah
frater
juró
##GUI
desprenden
grotes
impasible
Rar
Sign
nuo
questa
##cem
##jus
##íno
##ZAS
altitud
##icana
hagamos
trario
autorizó
encontrados
aparecían
resultaron
ejecuta
concedi
concienz
322
inteligencias
alevos
alfab
SOCI
cantares
calculado
infames
Reflex
requisitos
inefica
Várela
Agricultura
Renacimiento
##ande
##tier
##lata
percibe
##vao
Almi
Rej
tutela
Cañada
basílica
Navidad
ondul
extrañar
pags
comenzaban
determi
##theca
sultana
despojado
confunden
Declara
variada
##áyon
exercito
COMPROBA
terrestres
tlax
Lalin
Fadrique
cid
gé
rn
##fit
pere
sinembargo
manía
##érri
##percib
pesadas
pobló
emer
oficialidad
Tenorio
azteca
Preten
tributario
then
publique
Ced
PIE
adios
##çion
enig
esferas
dirigí
Israel
Meridi
asesor
fascin
repartimientos
instalado
extraordinariamente
cariñosa
dialecto
Agra
equino
##ega
perior
entregas
martin
##tonía
protesto
protestando
celebradas
abrazó
Circo
explí
almorzar
prusianos
occasiáo
CUADRO
redención
i5
lema
Ña
alti
infec
sacos
pedí
codo
truir
chile
situó
encuad
cambian
sometida
necesitado
despreciable
Apartado
rústicas
lineas
reasum
Beneficencia
Cabrionera
Iren
OU
gles
rudi
ricamente
##ag
##bano
lati
##rao
teneis
repuesto
venciendo
Dejó
fije
Pere
Miño
vascon
Massa
admiracion
Tarifa
matriz
cresta
engendr
Abraham
COMPROBACIONES
Gim
Sabana
ficio
imita
rida
##CCION
delegados
##quetas
##ieras
caiga
##umba
crecimiento
sables
mayormente
botín
liempo
memo
echarse
juiz
Espero
arrastran
rápidas
Tribunales
edificó
graduación
seductor
contemporáneo
adjunto
hazaña
negociar
Vierzo
dara
pias
sér
##inho
##taire
Novo
##ANAS
Perman
nombran
Japón
proyectiles
representados
Prelados
SECCIÓN
expedicion
demostró
arrancado
1790
abatido
persuadidos
DESCU
milagrosa
yeguas
arboledas
Brin
Dich
aragones
ríe
##lro
##CEN
ancl
accedió
docenas
creian
servida
soste
pintan
orien
linterna
conquistó
obedece
orígenes
exploración
sepulcral
pescuezo
Aso
tuna
##sores
##óle
cortan
impidi
cant
##net
civilizada
siste
Vej
346
Azara
confundido
experimentar
prestijio
desvanecer
Montano
TORRE
prisio
Bulnes
cláusula
##íi
##ZOS
enlo
##red
nativo
Capi
cette
Mucha
Say
##úsares
dispensa
aguan
remito
govern
asaltos
Quinto
uniformes
esqueleto
islotes
Cana
SIN
ita
##gables
baila
Anim
monja
cantaba
Divers
servirle
Consid
investigación
precipitada
maniobra
relámpago
efigie
Anáhuac
Terra
##idia
##cue
Ello
##umada
##izadora
Dep
chill
Caraba
narra
licen
368
blemente
censur
vacilante
avecin
africana
COSTA
etiqueta
terminantemente
interminable
Cecilia
Despacho
Latorre
OFICI
bizarro
##pente
##amal
dell
mang̃a
##tarme
dictadas
milia
##andina
##RIAL
Valles
conciencias
semel
ajenos
Emperatriz
jurisdicciones
NOTAS
cáñ
mantenimiento
##CETE
otorgado
paralel
autent
franciscano
alternativa
Vidaurre
presbiterio
Gara
Tezco
Ídem
##sando
##MENTE
##GI
desme
mex
##araz
cascadas
Alaman
Esle
després
juar
##STO
iré
##g̃á
balsas
Impor
regresaron
342
descubridor
provisor
alfomb
desnudas
originalidad
Sigü
Hipólito
MER
PÁ
##ZCO
##ritas
reír
exó
serenos
pactos
##quie
##tilde
##gosas
rotas
presenten
convent
harta
demostrando
359
subsiste
restableció
impregn
ascender
veterano
Sucesos
hemisferio
crepúsculo
IGLESIA
Frias
equívo
deferencia
##cija
concedía
acri
##viente
discern
##rosamente
##riaga
cansar
necio
339
Gay
concluyendo
imponen
reimp
deixar
desistir
química
Occidental
cales
lisa
##iéronse
##gieron
##icen
inque
curan
restr
Sanz
entregue
soc
decide
hirió
Goberna
iría
##ILES
magnifico
soberbios
Regist
dize
contagio
omn
invitó
gallego
Tz
glos
perla
cerraba
##liares
##átigo
dejaría
Bolsa
vigilar
355
detenidos
paralela
Derechos
bodega
Bres
Pales
fosos
iris
##San
##ineo
delles
reminis
leía
##ceras
Algua
##zasen
patos
reunía
division
##udación
exquisito
Africa
AÑOS
Jamas
##mentado
##áculos
##reos
rell
exá
acera
usó
animaba
permaneci
amargu
ostentan
Discurso
CASTE
otorgar
revoltosos
suicidio
Estudios
laudable
agust
tarios
##doeste
##diano
##icial
##met
Regu
##ficit
calado
Casino
barn
habitada
ocaso
dependía
reducen
hablarle
comparado
presidir
literalmente
acordes
fisi
bordados
cariñoso
Noticia
##kenna
desalojar
amotinados
advenimiento
coyuntura
were
##pur
##chic
##trales
terce
luci
proprie
indecible
referirse
embarcado
presidido
Arellano
labradas
tentación
TODO
patrióticos
incapaces
sirvientes
ain
axi
blar
##mus
##EO
##GAL
##ston
ree
tota
prolij
##goa
Estaban
chicha
opri
seguí
atendida
estuvimos
ejecutor
329
Belmonte
entier
esmal
terceras
PRECURS
escaparon
Caciques
cornisa
ofertas
agricultores
enumerar
desenfren
Garcilas
Misión
Vea
lir
##guadero
poi
Ellas
servar
verí
merce
##ENCIAS
formalmente
favorecidos
defensas
Llegamos
poesia
rivalidad
mensajero
vizca
Huitz
prerogativas
inmemorial
cúmulo
fún
jabón
habien
preo
aquell
volviesen
darían
sufría
atractivos
cesaron
declararse
voluntaria
construyeron
ecle
##ness
460
rivalidades
infundir
orgullosa
melancólica
Escalante
Ate
Pó
Tip
guido
iles
jado
##bir
##hante
##stad
##doto
alzado
loza
suscrip
ando
nias
deban
##fectura
cerra
matado
dirigiendo
empeñada
fábulas
Nicolas
1792
regaló
mezclada
Ignor
electricidad
Gase
maba
ruso
##óa
##abra
##urosos
peder
debes
teres
orga
infund
pensaron
cometieron
procuraron
avisa
olvidó
contenían
interrumpir
confirió
ajustado
estipu
septiembre
impunidad
desventa
plausible
Ocur
Vír
##glo
serva
espensas
ciudadanía
Coto
gallos
##quillas
aceptando
amarillas
benigno
escaramu
Marañon
estorbar
naranjos
Goyaz
Sino
sebo
##itador
Ense
estaua
cabido
Peque
semejan
##bulos
COMPAÑ
Mirad
disminuye
grandísima
Fanegas
Tarapacá
Teran
fizo
##LLO
##iliar
##dulos
pasasen
##ísica
colgado
Int
agresión
Corne
##tanes
illa
derrumb
amoroso
corresponsales
##ells
jeneralmente
indicó
Benjam
338
satisfactoria
jaula
dirijirse
precipitado
aprovechado
predicó
perfil
Vespu
##efatura
fórmulas
deshonra
ennoble
subordinación
FERNANDO
PRECURSORES
Aver
Ciertamente
jig
##TRI
anom
arde
paguen
Port
entregaba
creando
Franc
minoría
Compos
juntó
Barrio
visl
descubriendo
Hablando
exajer
ficar
Abreu
ALGUNAS
##cié
##tap
inun
##loc
tió
herradura
finado
antiga
subterráneo
madura
moderados
dádi
1794
eminentemente
albañ
indiferentes
Vuelve
Berenguer
Cienfuegos
vejaciones
ALBACETE
CÓ
Gén
Puna
aV
##ancas
vernos
presunción
canción
inspiran
Roda
Abas
##ómica
Jorje
legisladores
susodic
Americanos
desigualdad
James
mínima
consagración
concerniente
Saturnino
Emin
Iñ
Pio
geno
lanas
mn
rural
##zanos
##abó
seccion
##gola
mato
Fecha
permitiese
extrangero
sometió
rechaza
desprendimiento
piraguas
riega
Cobre
imbé
deshacer
Anastasio
Taller
PorLugo
nios
##qn
parles
##chuelo
arado
potente
nian
repiten
destron
tarda
Guada
Barrios
concurrió
cautela
354
pareceres
difícilmente
ulteriores
barbaridad
aplaudir
membros
carlistas
sobrenatural
Sahagun
Goyeneche
4°
GLO
Pinos
pita
##máo
estendi
##cud
##pot
##tención
margens
Arriba
insecto
ponerme
mezquino
cautiv
destruidos
364
Directorio
deriva
coincidencia
##melitas
uniformidad
Baleares
Vallarta
Cron
DIG
Ji
gura
pánico
tn
yecto
##simo
##rable
##esp
##cies
##taros
trat
expro
envié
vestidas
Acol
##UMEN
comunican
Pié
rendidos
1892
esteriores
hileras
albergue
fecundidad
cercior
Bética
Cementerio
OL
pn
##kan
dividu
sermones
prendieron
apur
Ange
decidieron
France
graciosas
demor
apareciendo
indele
gustaba
repetía
XXVI
Basílica
fusilados
volvimos
vertical
livro
bagajes
humillación
Tradu
perpendicular
Antofagasta
HUELVA
Bom
Opera
gér
ñola
##chica
##ieres
exista
temibles
Bucar
habitants
blancura
ocupamos
ANDES
Misericordia
cuchillos
circulares
renunciado
dudarlo
irregulares
Purísima
Montiel
afianzar
peripecias
Bó
Dura
Sit
hiere
tento
lac
desprov
indistin
certidumbre
confian
habitaba
cubana
estraños
colorada
proyectado
saludables
Urrutia
410
propagación
vínculo
reveses
Observaciones
Juicio
Lob
SON
Span
Vez
zación
##bum
##hus
##yl
##UI
sinó
corria
##ambas
cosmo
Noche
opina
úni
fratri
escuchaba
impetuoso
atravesaba
MARI
esterlinas
registrar
instaló
infortunado
pajina
pantalón
aspereza
exasper
Casimiro
3a
Dur
otom
##ciría
##entros
Ensen
escriba
Berrio
cenar
celebrados
inmigrantes
ANTIGUA
indirectamente
arrend
Bivera
Ica
Tér
mend
##ün
comens
perdona
Estrab
Marti
circulo
atentamente
CATAL
Apesar
##ition
344
lápiz
predominio
bullicio
temerosos
suprimido
reclutas
ZARA
Felizmente
Menos
Nerón
tidad
silu
obrig
##mela
app
espesas
escenario
ageno
neóf
juntan
mandíb
antece
negaba
Sousa
acercan
auxi
ajun
creerlo
prometo
limpias
Anaya
prevenidos
significaba
majestuoso
indomable
monfíes
Jus
LOR
Tul
yó
##oy
##mática
##RÍ
##JES
cus
perno
academia
solio
Dei
chefe
Perote
##villo
desair
##ificada
##endez
Plateros
expresan
358
crudo
llenando
##timamente
comunicaba
encerraba
huevo
aumentaron
derramado
juramentos
imprimió
Diócesis
vejetacion
Gallegos
tripulantes
intransig
Aj
hie
pleg
##gías
##hita
##taje
asoma
maris
meditar
librería
creció
Navas
Coyo
conducentes
señalaba
rastros
hablaron
ocultan
acaecido
longe
##INACIÓN
confundirse
alegremente
dócil
requería
Hallábase
cómico
principaes
cuadrúpedos
Sigüenza
bib
■■
##sia
##tabilidad
##yra
delan
portante
##cheras
arón
mote
coj
lucra
expuso
enviase
REDA
agujeros
contribuyen
LEC
frijol
cómplice
##ritm
Carvalho
Aba
PIN
Str
sam
##mil
vivian
lucido
Anjel
trun
crecida
cadaver
subsi
edificación
caute
Osuna
adquiridos
Urriola
361
Espada
burlar
entendida
acredita
DESI
DESDE
reliquia
BRASIL
Satanás
secuaces
Ei
HISP
oce
éramos
##clar
##írico
repú
##ficie
vaque
genu
Palos
##DITOS
LITERA
pacific
quemaron
MARTIN
grosero
Clero
tendria
pedimento
excursiones
escrúpulo
etimología
Acta
Fis
Ovalle
##pino
diciones
must
pereza
##usamente
##peque
miss
cortados
conspira
conselho
petri
##egoso
decididamente
Comer
Papas
Pocas
transmi
Regidores
toldo
commis
Erráz
rubio
huerto
Hornos
Britán
mulato
aniquil
risueña
Indud
Das
Histo
Simo
ds
norma
##alias
metam
corrig
oblic
##ribui
##ERÍA
bandido
cubano
suegro
377
precipicio
pareciese
Green
rebaja
sioneros
retribu
rancherías
##ituigáo
transacción
Atocha
Paseo
##eiras
musa
paula
trafic
teria
favorita
rudos
Junho
acontecido
olvide
remisión
competi
trabajador
calumni
arenisca
Tucumán
eléctrica
EI
Fle
Grado
Spa
Sts
tendida
sobe
veran
carnaval
##poniendo
Mondra
Sila
Leiva
juntarse
administradores
353
369
343
compararse
laboriosa
pareciendo
convierten
prolijo
HASTA
Cién
Land
##gú
rebos
reembar
comadre
angosto
saña
embust
Reyna
completas
VIRE
organiza
contiguo
Acord
fazendo
there
jaz
contenidos
JULIO
distinguía
Miramon
emitir
BOS
Lito
TEL
Zitá
ees
ix
##mad
##MENTO
##puesta
esteros
recos
dill
coac
quid
##parables
produz
plantar
bons
356
430
azotea
ásperas
abrigar
piadosos
oprimido
bultos
Degol
Avellaneda
7o
Til
##pilas
##ULO
##endes
dela
notaba
cometa
Rex
Judi
houve
##ESTI
sentían
objetivo
encarcel
abandonan
transición
añil
penetrante
sarcas
Tercera
366
inferir
incluir
firmamento
373
aprovechamiento
inspiró
censos
1778
ascendido
Puenteareas
Mackenna
NÚM
Bruto
XXVII
Talcahuano
Econ
bilidad
sto
porcel
##edora
tomasen
Capac
vación
voc
balcon
Jesu
tirada
municipios
Vive
dirijia
470
Hospicio
enamorada
carcajadas
Tezcoco
Dante
fisco
nulo
vanos
##tala
##onés
##ret
##icul
asigna
peto
ducado
Depar
malhechores
Coll
caballada
zapo
observarse
agujas
cruda
llenaron
enfure
cátedras
mortandad
beneficiado
disipar
Raimundo
cúspide
nula
##cat
prepa
Alde
codos
formalidad
Petr
Veinte
imperiosa
agudos
ferru
tontos
1797
GRANADA
hipocres
borracho
refiriendo
cáñamo
Rondeau
águilas
##ialmente
alzaba
preside
##ions
##RACIONES
escribí
estrel
cumplidamente
guano
arribó
Chañar
celeridad
Julho
recomendable
encomendado
Embar
desenvolvimiento
##ámoslo
Errázuriz
CC
Eco
frios
rrespon
##TAD
asambleas
tenien
Estra
say
Portillo
captura
pontífice
Unas
mosca
secretaria
Pasaron
brillaba
suegra
ALF
ínf
tolerar
fulmin
idéntica
Ochoa
trueque
##cores
##geo
alabar
##igal
##cosas
Carteria
pesares
virtuosa
vasalla
idóla
desapareciendo
adquirida
caminaba
peculiares
estricta
excursión
nominal
Xavier
GON
avas
gaba
##pp
quedasen
progen
##guá
##ital
##cela
entona
sobrevino
crecientes
dejándose
ofus
cuartas
arrojaban
vuelvan
encendida
bonitas
ignorar
347
alimentan
Regente
Fuero
laboriosidad
apoyaba
horrorosa
perpetuar
DESP
exhort
Sarratea
eta
##dora
##dola
##dimientos
##got
##daña
vería
##tadero
##únez
Monto
Ases
llueve
conval
estremos
cometen
auxiliado
Berlín
arreme
exigió
oponen
diestros
estatutos
trastorn
contemplaba
elocuentes
possivel
boliviano
culebra
egecu
Ernesto
Eb
Frey
giros
tés
##TEN
deline
##cuas
prod
destemp
Divi
atrae
conserve
eternos
profesiones
velada
reinó
Ermita
modificar
##ynch
insistencia
legislador
comandancia
Zurita
Algeciras
Benjamín
gin
##endos
##adada
##isima
dian
mudos
estaño
quieras
Maipo
##ludo
mercantes
mortific
##hechor
##ilea
moscas
banquero
Hecha
Admi
condenó
Meló
##RESPON
kilóm
salvaron
ultraje
Cárlos
Rincon
iniquidad
trópicos
pampas
Ingleses
Jordán
promontorio
Cárcel
MIG
RR
Rece
goma
##king
maio
comprim
##ernas
Carba
decl
Coman
ningu
personages
ceses
amargas
maestras
sacrí
verificaron
aprovechándose
nombramientos
entendidos
físicos
conferido
amedr
regocijos
##EIRA
matorrales
endure
DÉ
Zum
##gala
laa
##abí
##taca
sintieron
cordura
tenho
cargando
terme
despier
vae
Valdes
sucesivos
asegur
expresados
confirmada
espidió
espanta
primeiros
Olimpo
riegan
Limitará
infortunios
Regeneración
biese
bulas
vero
##apan
##íferas
calzones
nea
tau
Baeza
ántes
Palom
357
imponerse
destinó
trasladaron
espresada
Enriquez
insolencia
recuperar
Obre
oia
##MIT
##tifico
inmacul
##itoria
##icin
pato
obj
caber
pesados
Francés
mereci
Siguen
boti
criar
gobernados
desagrado
escuch
amorti
ejecutaron
atrajo
independen
retiraba
violación
norteameric
reclamación
Vivan
consideracion
fossem
entablar
Dez
Zua
tismo
tumbres
ñana
##fono
enarde
##olina
maese
##quiz
Marca
embals
##ctivas
cuadril
huida
Ahuizo
guió
Balta
372
explotar
Igualmente
gótica
livre
##ornoz
Salomon
Zorrilla
Jorn
Misa
TU
tente
##uidad
consab
creaciones
darte
onza
pagcab
Mota
sacados
triunfado
apuntado
reverso
Triana
íntegra
gestiones
espulsion
Pública
Varela
Zipa
##enn
##adísimo
alusión
diu
##gual
tene
impr
disco
Barr
usada
##ridores
curvas
##beu
poseído
Acad
confiados
Noruega
estorbo
Culia
trascurrido
ARA
DIV
##ctamente
##muros
##órica
segon
poquito
Congres
veniente
postre
també
densa
##tífices
senáo
##isola
ponerla
Ayutla
425
contenida
lloraba
Filadel
aleman
tamaña
##itania
móviles
intimidad
Semana
perjudiciales
higiene
prorrump
Vener
mene
zuela
##cht
dolencias
pelota
341
periodismo
Secretaria
brotan
Posteriormente
variable
reaccionarios
insistir
enriquecer
herramientas
mañanas
Agrad
Suel
zando
##gona
elim
inva
impuesta
pegado
reptiles
coloso
Rojo
##dondo
resistido
expresion
regresado
inclusos
385
kils
geográficas
descalzos
Excelentísimo
dudamos
Concluida
andaluz
seminario
remordimiento
Noble
##uce
##vitas
##riel
rejas
mutua
Esqui
##tine
moreno
cuatrocientas
editores
##ósis
interesan
lanar
inclinar
tomou
1780
picar
##EIRO
Beg
ic
will
##éra
##vese
##oron
##tieran
desu
lep
##atri
##taran
Martí
davía
##íng
brava
narrar
Gallar
apreciado
recaer
mueven
egoí
lonjitud
redobl
romances
maban
vados
##non
##geras
##vat
requieren
leia
anfiteatro
duce
##ieso
probó
408
olvidaba
desprecia
dizen
Falle
domésticas
pórf
Bismar
escrúpulos
##STITU
Franceses
PUEBLA
pujanza
Zel
bens
##ÍST
ela
##pay
perfe
dejemos
sans
morado
crito
visigo
362
376
divinas
avergon
infinitamente
músico
1791
Amaury
syst
forzosa
bordado
sillería
precaver
cañonazos
persuasión
CRUZ
dc
##fí
##wich
nativa
martillo
##natural
Marcial
calificación
Chir
osa
inserto
malvado
mejorado
Barrera
tinu
introduce
procesos
despertado
agregando
Holguin
visten
propagar
puntualmente
##fuerte
PUNTOS
indolencia
reconciliación
chusma
inolvid
Fábrica
radas
##zú
##zig
##inan
altra
into
perdición
##ieur
ciar
preco
prever
apén
impra
adje
Loja
constituida
echaban
Hoi
aplicarse
descargas
PERI
cristalinas
direita
imaginarse
subalterno
JOSE
aplicaciones
democrática
disolver
vergonzos
Mic
Oco
cern
pió
desiertas
cah
crecidos
Maced
afable
depra
reclamo
tabacos
modificación
CORRESPON
exequias
artísticos
achaques
Vuelta
idéntico
impedimento
Bruselas
aureola
Fuego
cár
cement
hinch
##sh
##lagos
##olla
letrado
##uél
nif
contrajo
meramente
morían
trasforma
##ivin
supra
consideramos
publicarse
neste
chocar
castiga
sargentos
367
bolas
Adelante
irref
truenos
insignia
positivamente
suntuosa
vierte
redactado
perturba
CAMPAÑAS
Siguió
aña
questo
tril
##cifer
##obamba
##sea
##ulco
espuelas
veneci
tuación
fausto
cercada
Desembar
particularidades
Peñal
ponerlos
Poncio
386
garantias
quierda
ANTIGU
desfiladero
Rufino
3°
Dir
Lig
rúa
stu
lavan
unitarios
reí
sobro
cojer
##iani
##udis
declarados
CASAS
revelaba
trámites
bautizado
epígra
edicto
brazile
doles
gn
nig
oito
##mu
patent
##pilación
crianza
ofrezco
favorece
tosca
citarse
indó
##OLAS
Precis
acordarse
Fausto
recayó
reproducción
acentu
Príncipes
DESIERTO
píritu
ñal
óp
##juelas
deros
##olar
##cagua
Elío
mito
##duña
soñado
realiza
Paria
apartados
desagra
Petro
balsa
##ásticas
protec
mezes
combinado
sitiada
disparó
inclinada
recomendado
agitada
Lautaro
enemistad
Custo
Lé
pósito
vieran
##TH
##fín
delant
retumb
##lovento
asis
quitan
##ustra
##nay
Mach
recl
haberes
##ANDO
arroj
arreba
assign
estimar
1783
Iguala
grasa
abominable
CLA
VO
lidades
oigo
##PH
##hed
##well
delgadas
##dillas
preh
propria
quen
##tins
volviera
sentida
##calla
atón
llado
ofrecimiento
descrédito
##TOG
permanecían
esclav
ausentes
Escala
ingenioso
393
sacerdocio
Silencio
Pampas
refresco
envidiable
Rueda
vehemencia
Ofre
bin
raban
##eia
##rr
##gias
seran
##jole
passo
calzadas
##úblico
confina
##RAV
##itaciones
##ESA
Unid
Nave
cór
##gueda
respondí
aliadas
412
1580
Cuarto
helado
negociantes
HEMERO
fúnebres
Tia
Tub
bado
món
ñol
##yamos
secuencia
salitre
Dejando
cuadrillas
sucediendo
guo
##ixen
llagas
protestante
satisface
1777
PUBLICA
arrepentimiento
Escritura
maquinaria
deliberar
consintió
##POSI
montañeses
limítrofes
diadema
Actu
tillo
##EDA
##hú
##Que
dira
anat
asentar
pau
Encu
capuch
caldo
tuado
monje
consternación
Abandon
escua
Resumen
nietos
parecerá
384
Cree
adversa
composicion
parecian
sacrificados
Oficina
Orozco
copiamos
suplicó
apresuradamente
contrariar
incluyendo
convinieron
náufra
##imienta
eclipse
Mansilla
Stanley
Virgilio
N°
Pica
THE
##zabal
##DON
cartel
traigo
sonda
##tinamente
tomará
decirte
barre
Profes
extraer
Madeira
volvería
SEMANA
alegar
Gaz
cruelmente
cálido
provocado
##púl
donativos
##túan
pesadumbre
Hierro
dría
[...]
